t ;</w>
t i
t h
i n
a n
r e
t e
e n
l t;</w>
& lt;</w>
g t;</w>
& gt;</w>
th e</w>
o f</w>
r o
o n</w>
e r
o n
i n</w>
an d</w>
a ti
- @</w>
@ -@</w>
e d</w>
i t
a l</w>
a r
o r
s i
a l
R E
E T
d i
a s
E X
F RE
EX T</w>
FRE ET
FREET EXT</w>
e s</w>
a c
R A
e l
in g</w>
e c
i c
s t
t o</w>
a t
o r</w>
te d</w>
u l
o m
ati on</w>
a s</w>
o l
e r</w>
u r
re s
p ro
e s
t s</w>
r i
o s
a t</w>
l y</w>
u n
i s</w>
it h</w>
d e
w ith</w>
p l
T h
c on
ti on</w>
en t</w>
v e</w>
u c
t r
er e</w>
p h
e x
T I
c h
a n</w>
a m
i l
a ted</w>
u s
T L
TL E</w>
TI TLE</w>
f or</w>
a b
P A
e n</w>
w as</w>
i m
a g
a p
o c
v i
w ere</w>
m e
P H</w>
RA G
te r
RA PH</w>
PA RAG
PARAG RAPH</w>
f f
l e
c om
th at</w>
q u
s u
it y</w>
i g
o u
Th e</w>
c e</w>
on s</w>
i s
b y</w>
i c</w>
c el
l e</w>
p er
s e
o w
at e</w>
o g
a d
S T
C T</w>
A B
e m
i d
o p
p res
en ts</w>
ST RA
AB STRA
ABSTRA CT</w>
b e
w h
as e</w>
c l
a r</w>
i f
m o
u m
r a
ac ti
d uc
g en
si s</w>
n g</w>
si on</w>
n e
ar e</w>
re n
p o
f or
re d</w>
te r</w>
n o
in e</w>
s p
re c
f ro
u t
l s</w>
o t
v er
s h
u d
fro m</w>
ur e</w>
c o
p ati
v el
p a
h a
an t</w>
m a
te n
cel ls</w>
m ent</w>
ti c</w>
t w
te s</w>
e p
ic al</w>
st r
l o
f i
& #
b e</w>
p re
&# 9
g n
pro te
th e
l i
b i
t ro
u s</w>
tr an
p or
p ar
th er</w>
e v
t a
s c
en ce</w>
ati ons</w>
h i
s y
e ff
si gn
en t
as s
pati ents</w>
ti c
in c
al ly</w>
for m
d ing</w>
ec ti
acti v
g ro
o b
re g
ig h
es e</w>
m on
an c
t re
y p
i z
h e
u m</w>
s er
no t</w>
v ed</w>
th is</w>
ti ng</w>
res p
ar y</w>
v e
ti m
ul ar</w>
ol og
I n</w>
e ren
di ff
al y
on al</w>
i d</w>
as ed</w>
if ic
f ac
ag e</w>
b u
in f
h y
in ter
di c
or s</w>
en d
an g
ou s</w>
m in
cel l</w>
ic h</w>
e t</w>
ex pres
er s</w>
ab le</w>
t h</w>
su b
N A</w>
re l
an t
sp ec
m or
s te
on e</w>
y l
an ce</w>
ati ve</w>
en ti
p os
an ti
wh ich</w>
te ri
e t
un c
in s</w>
diff eren
m ic
st ud
un d
ar i
s e</w>
o x
inc re
res ul
ha ve</w>
es s</w>
an aly
b in
oc i
t u
i r
ro n
o d
stud y</w>
tran s
di s
o d</w>
w e</w>
c or
e ar
us ing</w>
eff ec
al l</w>
u p
s t</w>
sign ific
a f
e en</w>
s ur
c y
a y</w>
prote in</w>
th er
us e</w>
o un
es s
ar g
s o</w>
duc ed</w>
tw een</w>
l u
sh ow
us ed</w>
qu o
t ri
vi d
be tween</w>
& quo
&quo t;</w>
t or</w>
en c
l ow
i t</w>
1 ;</w>
&#9 1;</w>
3 ;</w>
&#9 3;</w>
re s</w>
u p</w>
a y
in ed</w>
in v
in g
ti ve</w>
y m
th ese</w>
i es</w>
m ut
it s</w>
resp on
com pl
ti n
os e</w>
ul ation</w>
or y</w>
tre at
i r</w>
expres sion</w>
t o
as es</w>
f unc
c ar
W e</w>
be en</w>
al so</w>
r an
u g
ass oci
il ity</w>
v ari
h as</w>
ec ted</w>
in hi
ati ng</w>
m un
treat ment</w>
f ol
ot h</w>
i th
al u
th an</w>
ti ons</w>
con tro
c a
as t</w>
af ter</w>
me th
activ ity</w>
t yp
str uc
di es</w>
me di
I n
al s</w>
l oc
en tr
ro m
g l
vel y</w>
c ol
bu t</w>
Th is</w>
ap os
lo w</w>
at a</w>
& apos
p ri
g g
d e</w>
oun d</w>
ou t</w>
mor e</w>
cl ud
ma y</w>
st u
p e
ou r</w>
v er</w>
c an</w>
tw o</w>
a tes</w>
re e</w>
m s</w>
d s</w>
m an
F i
resul ts</w>
ul d</w>
pa th
c ur
c ri
p ol
om e</w>
ur ing</w>
b oth</w>
se qu
i ti
os t</w>
de vel
d u
di se
ec tion</w>
ther ap
de p
d om
l in
d ec
am pl
og en
b le</w>
os ph
Fi g</w>
i a</w>
o ther</w>
anc er</w>
su gg
ob ser
tr ac
h igh
o l</w>
d ata</w>
t um
the ir</w>
igh t</w>
re qu
ti onal</w>
ac teri
analy sis</w>
c ul
sy n
em ent</w>
ig h</w>
re por
im mun
vel s</w>
a v
ay s</w>
h um
it e</w>
cl in
ic i
d el
le vels</w>
devel op
ne u
re si
po si
con c
ph osph
t ors</w>
vi r
F ig
pa red</w>
s uc
ac h</w>
associ ated</w>
D NA</w>
mic ro
s ed</w>
g r
d r
ch ang
in clud
an ts</w>
su p
si m
ter min
pl as
sy ste
i p
t ure</w>
el l</w>
id enti
ab ility</w>
pro c
w ith
h igh</w>
dep end
ec h
fi r
me t
A l
gro up</w>
c ancer</w>
u b
es t</w>
w e
duc tion</w>
gen e</w>
R NA</w>
uc le
ant ly</w>
s el
m b
ev er</w>
gen er
st ra
on g</w>
ac tion</w>
al l
d uring</w>
id e</w>
d er
ch em
ecti ve</w>
O N
te c
in ing</w>
ha d</w>
k e</w>
d ed</w>
olog ical</w>
z ed</w>
f ound</w>
de f
s en
stu dies</w>
typ e</w>
ic ation</w>
incre ased</w>
dise ase</w>
ow ever</w>
per form
in to</w>
in dic
a ff
t om
n i
me as
es ti
n or
k in
hum an</w>
k n
ex per
iz ed</w>
f r
a in</w>
d ro
bin ding</w>
po ten
fi ed</w>
in duced</w>
th ro
ve l</w>
an is
m al
tim e</w>
d es
m at
com pared</w>
effec t</w>
contro l</w>
si ve</w>
s ec
differen t</w>
iz ation</w>
b o
ol ec
prote ins</w>
i al</w>
rec ep
if ic</w>
clin ical</w>
il e</w>
oc y
d er</w>
n o</w>
form ation</w>
S I
A T
effec ts</w>
e re
obser ved</w>
signific antly</w>
ent al</w>
por t
e i
w ell</w>
und er
ap pro
s es</w>
show ed</w>
con si
ati c</w>
de tec
st s</w>
s ol
signific ant</w>
am in
spec ific</w>
k ing</w>
conc entr
gro w
C L
reg ul
ti al</w>
func tion</w>
vi v
m ech
rel ated</w>
h o
Th ese</w>
mic e</w>
s ti
ac c
com p
olog y</w>
depend ent</w>
f in
ow n</w>
A C
therap y</w>
f e
ch ar
m al</w>
on ly</w>
ecti vely</w>
sh o
T o</w>
el l
b r
me mb
ri s
m ost</w>
m ar
ti s
re a
n ucle
m a</w>
w or
b ased</w>
sc ri
ro le</w>
og ra
e tic</w>
suc h</w>
um b
ear s</w>
t arg
meas u
ad di
tic al</w>
en z
tr a
ul ti
he al
s o
m olec
b it
dec re
k s</w>
respon se</w>
fol low
c h</w>
inhi bi
reg i
s ampl
f lu
esti g
ev alu
ten t</w>
o ver
Fig ure</w>
c al
de l</w>
compl e
thro ug
de mon
f u
activ ation</w>
con ta
p r
C D
ou g
inv estig
y n
gen es</w>
mech anis
ph y
h ed</w>
pri m
ti es</w>
im port
H owever</w>
&apos ;
v en
S U
I I</w>
per i
des cri
ec t</w>
o us
l y
tum or</w>
pres ent</w>
el y</w>
hy dro
for e</w>
com bin
t ot
v al
perform ed</w>
c es</w>
mo del</w>
ro s
T S</w>
ph en
vi e
y l</w>
ut e</w>
en g
il l
g en</w>
ec ts</w>
D S</w>
th ree</w>
tis su
ris k</w>
inv ol
a d</w>
demon str
exper im
l if
ur al</w>
v alu
ent ly</w>
f l
P C
ep ti
w il
di ag
n umb
pl e</w>
m i
s ing</w>
in te
el ec
m it
scri p
m ents</w>
tre ated</w>
al ity</w>
yl ation</w>
&apos; s</w>
char acteri
b lo
high er</w>
r ate</w>
C h
pre vi
grow th</w>
ter n
co uld</w>
ogra ph
wh en</w>
inhi bit
pro vid
a il
i ed</w>
at ure</w>
show n</w>
ou t
ac t</w>
A s</w>
om a</w>
od y</w>
di rec
a te
t ly</w>
e ther</w>
ra di
ous ly</w>
an s</w>
path w
ter s</w>
o ver</w>
v it
con di
ar d</w>
ac id</w>
tran scrip
er g
sim il
&apos ;</w>
at ory</w>
b ody</w>
b ed</w>
syste m</w>
pro duc
y ears</w>
ing s</w>
t e</w>
pati ent</w>
fir st</w>
e ach</w>
par tic
s tim
up s</w>
m ulti
si ble</w>
ot yp
th oug
memb ran
di st
enc y</w>
throug h</w>
e d
de termin
o per
te m
n on</w>
in j
acti ve</w>
nor mal</w>
incre ase</w>
C A
ta ined</w>
m ac
pro g
H O
C ON
le vel</w>
resp ectively</w>
p op
pl ic
c i
recep tor</w>
fac tors</w>
e u
gro ups</w>
m y
k ed</w>
i red</w>
hi st
l arg
trans f
ren t</w>
sur g
m is
includ ing</w>
phy si
ur ther</w>
e st
ab ol
c ases</w>
si ons</w>
numb er</w>
U SI
repor ted</w>
w a
CL USI
CON CLUSI
v ing</w>
as s</w>
t y</w>
an d
im pro
ant i</w>
SU L
develop ment</w>
ag es</w>
te ro
chang es</w>
tic s</w>
RE SUL
elec tro
on d
ati onal</w>
o re
G F
ab l
l l
x im
te ch
identi fied</w>
com m
c le</w>
s ity</w>
e ar</w>
resi st
or t</w>
with in</w>
s ul
import ant</w>
RESUL TS</w>
th ose</w>
ch rom
r ang
acti ons</w>
du e</w>
thoug h</w>
blo od</w>
fac tor</w>
v es</w>
b l
di vid
e th
or g
pro mo
poten tial</w>
neu ro
id s</w>
p er</w>
tot al</w>
l im
ver y</w>
ch il
enz ym
al ing</w>
o ph
c ap
sen si
pre dic
R O
en ted</w>
y c
comple x</w>
l am
v ity</w>
z e</w>
co un
u r</w>
am e</w>
phosph or
M ET
g u
s ing
a th
bi o
e l</w>
v as
for m</w>
m p
res s</w>
b ra
te st</w>
m in</w>
l a
simil ar</w>
vir us</w>
pres ence</w>
MET HO
d o
di d</w>
pl ac
re ve
addi tion</w>
l ess</w>
E R
I t</w>
r o</w>
ne w</w>
E C
be t
ex am
fi b
fac e</w>
re le
s m
pres sion</w>
u al</w>
hy per
sugg es
st a
pol y
com par
re duced</w>
membran e</w>
no sis</w>
g o
is ol
kn own</w>
m us
ass ess
ad e</w>
posi tive</w>
ic ally</w>
ti on
cel l
f il
low er</w>
tu res</w>
the sis</w>
u g</w>
b ec
A n
meth od</w>
f am
ap p
d es</w>
in iti
p ur
h om
P ro
f requ
en h
l ine</w>
a ut
c le
C on
v en</w>
i ly</w>
pl em
c ular</w>
descri bed</w>
ex trac
met abol
m g</w>
in al</w>
u tion</w>
wh o</w>
N D</w>
te s
c are</w>
f urther</w>
e sis</w>
e vid
METHO DS</w>
se ver
l ab
sugg est</w>
und er</w>
sing le</w>
i l</w>
car di
tissu e</w>
R e
n on
heal th</w>
hy po
d ings</w>
chil d
ic e</w>
th ere</w>
inf ection</w>
a re
am ong</w>
re vie
ob tained</w>
c r
O N</w>
wh ile</w>
f ication</w>
at s</w>
ex pos
c in
sur viv
sequ enc
a si
with out</w>
th s</w>
mo del
dr ug</w>
sign aling</w>
sub j
mut ations</w>
F or</w>
v ol
sc op
sup por
a in
previ ously</w>
ar ly</w>
s ome</w>
pro b
conta ining</w>
ma j
p at
re n</w>
condi tions</w>
s ite</w>
h em
in divid
y s
dom ain</w>
A P
prim ary</w>
c ase</w>
con tr
sampl es</w>
an e
rel ati
struc ture</w>
mo d
is hed</w>
ei ther</w>
f t</w>
ex pl
ex p
p it
ag ing</w>
re ma
an n
col l
am e
medi ated</w>
follow ing</w>
inf lam
o ch
ter m</w>
mut ant</w>
al ed</w>
neu ron
der i
res c
ici ent</w>
e qu
od s</w>
as si
H I
st ate</w>
concentr ation</w>
molec ular</w>
inf lu
m M</w>
on g
a x
th en</w>
ol d</w>
we e
on d</w>
ear ly</w>
wh ether</w>
d ays</w>
u res</w>
me an</w>
or e</w>
me dic
ab s
l ym
f ul
vit ro</w>
l ac
I L</w>
d en
fin dings</w>
demonstr ated</w>
ne g
ac h
mor ph
ri c</w>
sequ ence</w>
b ility</w>
S C
mar k
out com
s k
bra in</w>
er y</w>
cy to
a use</w>
po in
ser um</w>
r ati
m ic</w>
flu o
oc cur
targ e
p epti
or der</w>
iti es</w>
ma in
the y</w>
stim ul
C om
sho w</w>
C T
R N
s ame</w>
u sion</w>
reg ulation</w>
child ren</w>
b acteri
ph ase</w>
decre ased</w>
li ke</w>
sti tu
surviv al</w>
pathw ay</w>
w om
evid ence</w>
y ing</w>
l os
un d</w>
differen ces</w>
g i
l ig
b re
determin ed</w>
ain st</w>
h t</w>
A M
ex c
d ose</w>
measu red</w>
is m</w>
func tional</w>
pres s
ros s</w>
mo di
qu e</w>
ag ainst</w>
sm all</w>
S A</w>
ro ph
ter m
se t</w>
ate ly</w>
W h
regi on</w>
b ri
in duc
et y</w>
reve aled</w>
ati s
cl es</w>
differen ti
c al</w>
inhibi tion</w>
spec ies</w>
te g
consi s
k e
an y</w>
proc ess
ha vi
invol ved</w>
ear ch</w>
sur face</w>
ograph y</w>
di sc
con tri
concentr ations</w>
te red</w>
ti s</w>
t ox
pop ulation</w>
mon ths</w>
E x
us es</w>
an im
ter n</w>
anc ed</w>
is e</w>
pl ication</w>
con fir
expres sed</w>
chang e</w>
re duc
po st
m l</w>
fu l</w>
PC R</w>
gl uc
bo dies</w>
i o
ent ation</w>
a u
ol e</w>
c at
op to
targ et</w>
n os
at or</w>
detec ted</w>
ox id
ell ular</w>
f o
ig n
di ed</w>
sever al</w>
kin ase</w>
a z
cell ular</w>
al e</w>
resist ance</w>
ocy tes</w>
ic s</w>
M e
inter action</w>
S t
d ay</w>
ap opto
per c
pro duction</w>
qu anti
be havi
chem ical</w>
os pit
mechanis m</w>
mo use</w>
res sion</w>
O ur</w>
h el
viv o</w>
plas ma</w>
wom en</w>
ul es</w>
ON S</w>
i str
posi tion</w>
ch ron
G F</w>
ass ay</w>
n ec
A L
ver se</w>
wh ere
ti vity</w>
o f
st ress</w>
term ine</w>
lif er
l ong</w>
al ph
larg e</w>
de termine</w>
rang e</w>
phosphor ylation</w>
f ree</w>
if ied</w>
y ear</w>
or d
b loc
man y</w>
los s</w>
cor rel
si de</w>
ab out</w>
vas cular</w>
t al</w>
si tes</w>
neg ative</w>
ad ul
ox y
pro lifer
C I</w>
m ental</w>
comm on</w>
anti body</w>
inc ub
f our</w>
li k
mut ation</w>
f er
en e
ecti ons</w>
gr ad
diag nosis</w>
s oci
b ac
ad min
sho uld</w>
A d
ac y</w>
am ine</w>
r ats</w>
tech ni
al ization</w>
yn am
g ra
o th
fam ily</w>
os om
com po
analy zed</w>
or al</w>
exam ined</w>
mechanis ms</w>
maj or</w>
valu es</w>
p ul
li ver</w>
in tr
wa ter</w>
A c
requ ired</w>
I m
g re
multi ple</w>
ar di
ri al</w>
ar t</w>
wil d</w>
r u
wil l</w>
where as</w>
di m
g e</w>
otyp e</w>
sy mp
contr ast</w>
b one</w>
lym ph
I N
vir al</w>
el ial</w>
CONCLUSI ONS</w>
ag g
ic ity</w>
ri bu
f oc
proc ess</w>
amin o</w>
vi a</w>
M E
be fore</w>
f em
z ation</w>
l un
ac et
R P
ogen esis</w>
c op
st and
con struc
oc c
m RNA</w>
li p
C O
Th ere</w>
ad v
investig ated</w>
resi du
comp on
diag nos
wor k</w>
develop ed</w>
si ze</w>
at h</w>
c an
n it
dist ribu
gen etic</w>
l as
fluo resc
A D
c er
vari ous</w>
experim ents</w>
stu died</w>
pro per
av ail
repor t</w>
om ic</w>
v ement</w>
co h
rec ei
f y</w>
transcrip tion</w>
w o
appro ach</w>
enzym e</w>
lin es</w>
immun e</w>
tr y</w>
ch ol
Al l</w>
m ed</w>
e ro
pos sible</w>
v enti
a e</w>
si g
prote c
model s</w>
vi ron
b as
is t</w>
t ur
O n
al ized</w>
o ti
f eren
anti bodies</w>
D i
alph a</w>
d rom
tran sp
R es
oper ative</w>
c ir
i p</w>
under st
C R
tic ally</w>
therap eu
a c</w>
typ es</w>
tum ors</w>
surg ery</w>
tu b
tem per
eff ective</w>
ici ency</w>
le ad
H e
ab ly</w>
gl yc
bet a</w>
er ase</w>
cur rent</w>
respon ses</w>
r ap
revie w</w>
ch o
Al though</w>
associ ation</w>
ra tes</w>
cy cl
lik ely</w>
as p
re duction</w>
n er
on sh
provid e</w>
v ation</w>
car cin
och ond
lo b
u re
a di
ac ute</w>
combin ation</w>
p rec
p H</w>
A f
bre ast</w>
te x
o id</w>
includ ed</w>
en viron
en d</w>
re action</w>
ul e</w>
as t
no vel</w>
n at
ex ten
g rea
ati n</w>
el d</w>
on ic</w>
v al</w>
i um</w>
res earch</w>
y st
we ight</w>
G T
a k
di ab
de red</w>
chron ic</w>
characteri s
H C
con tin
as ing</w>
est abl
evalu ated</w>
id ence</w>
h ospit
am p
im p
st ro
car b
l ight</w>
at us</w>
ta ke</w>
sc re
i ted</w>
wh ere</w>
inhibit or</w>
symp tom
Af ter</w>
ad j
resul t</w>
spec ific
relati onsh
syn drom
deri ved</w>
recep tors</w>
f ail
bec ause</w>
peri od</w>
fu sion</w>
rati o</w>
enti al</w>
re pres
S 1</w>
und s</w>
fol d</w>
pl e
hi bi
lun g</w>
in ten
meth ods</w>
ab il
high ly</w>
t ural</w>
ub l
a ro
neuron s</w>
B AC
ogen ic</w>
EC TI
tes ted</w>
subj ects</w>
N e
mit ochond
te n</w>
el s</w>
activ ated</w>
S P
follow ed</w>
in formation</w>
isol ated</w>
contro ls</w>
K G
con duc
u k
inj ur
HI V</w>
N F</w>
inte gr
org an
mus cle</w>
p ec
mat ory</w>
m ight</w>
os te
ff er</w>
expos ure</w>
T able</w>
A R
ta in</w>
A r
ter al</w>
em ia</w>
therapeu tic</w>
h ar
proper ties</w>
the re
differen ce</w>
sequenc es</w>
m uc
k g</w>
h or
ven tion</w>
M S</w>
inter actions</w>
ur ation</w>
O B
sec re
dis tin
l es</w>
pos ed</w>
n ess</w>
en s</w>
o therapy</w>
sugges ting</w>
en e</w>
he tero
termin al</w>
l ong
E n
wo uld</w>
I F
is h</w>
pr acti
s us
Th us</w>
or ig
RO U
ad en
s al
ro sis</w>
o p</w>
in ce</w>
n ing</w>
BAC KG
BACKG ROU
BACKGROU ND</w>
grea ter</w>
in dependent</w>
at ures</w>
p sy
stra teg
residu es</w>
ag ement</w>
T w
de ath</w>
pa in</w>
i f</w>
o sis</w>
f low</w>
op ath
l eng
sel f</w>
d am
a ins</w>
n an
m m</w>
c re
inflam matory</w>
su s</w>
apopto sis</w>
indic ate</w>
l og
u e</w>
ic ations</w>
sensi tivity</w>
n a
valu e</w>
C a
direc t</w>
ag on
tri c</w>
ren al</w>
pe a
I C
par ame
lif e</w>
qu ality</w>
g ly</w>
pathw ays</w>
press ure</w>
decre ase</w>
medi um</w>
car ri
be ing</w>
ul ations</w>
ane ous</w>
h owever</w>
assess ed</w>
og ni
u t</w>
D e
ur s</w>
b ro
tran si
suc c
CONCLUSI ON</w>
ag ed</w>
m ass</w>
temper ature</w>
P T
o s</w>
o ve
ph ot
indic ated</w>
gluc ose</w>
in sul
le uk
partic ip
b il
c o</w>
measu re
et al</w>
en co
re mo
erg y</w>
regul ated</w>
disc us
d own</w>
syndrom e</w>
it ation</w>
r at</w>
en ing</w>
res t</w>
pl ay</w>
poin t</w>
ac cor
P 1</w>
O R</w>
ac hi
et e</w>
suppor t</w>
im aging</w>
p ubl
wee ks</w>
t oc
n er</w>
st age</w>
C C
frequ ency</w>
r ic
nucle ar</w>
g e
prolifer ation</w>
cal cul
tin al</w>
sampl e</w>
pepti de</w>
S up
ri g
st atis
syn thesis</w>
anc es</w>
ll ed</w>
heal th
om e
R ec
a ver
avail able</w>
dise ases</w>
ex hibi
an ds</w>
OB J
pos t</w>
tex t</w>
m il
ECTI V
vol um
sec ond</w>
immun o
OBJ ECTIV
gener ation</w>
ul ated</w>
regi ons</w>
inhibit ors</w>
rele ase</w>
ur ther
oph ag
detec tion</w>
tu red</w>
urther more</w>
in trac
ca used</w>
P s</w>
o m</w>
at ten
M D
m ag
pol ym
mi x
stra in</w>
B i
rel ative</w>
s l
K 1</w>
es tim
se v
C .</w>
B S</w>
stra ins</w>
tim es</w>
acc um
inf ected</w>
symptom s</w>
cl assi
d ys
in es</w>
ti l
compl ex
a sis</w>
cul ture</w>
er al</w>
rec or
oc k
yl ated</w>
olog ic</w>
d ynam
un i
ev en</w>
F urthermore</w>
mor t
A G
ug s</w>
A P</w>
le ast</w>
the si
m er
form s</w>
cl usion</w>
consi dered</w>
ep ith
C o
identi fy</w>
vi ties</w>
ent ary</w>
ste m</w>
de grad
C A</w>
distribu tion</w>
stand ard</w>
ph ar
leng th</w>
A n</w>
cat aly
p 5</w>
str ic
an ding</w>
A I
P D
re x
aff ected</w>
b el
entr al</w>
am oun
y s</w>
cy cle</w>
c ere
iz e</w>
mut ants</w>
is on</w>
experim ental</w>
anim als</w>
I g
teri al</w>
er c
ca use</w>
ke y</w>
ar tic
individ u
pa ir</w>
anc y</w>
fr ag
analy ses</w>
func tions</w>
in e
p i
struc tures</w>
P re
em ents</w>
se par
o red</w>
confir med</w>
E S</w>
at ors</w>
exper i
scop y</w>
sign al</w>
contin u
GF P</w>
es c
tissu es</w>
ren ce</w>
pl ied</w>
he art</w>
abs ence</w>
fol low</w>
A s
str ate</w>
dr ugs</w>
sev ere</w>
pres ented</w>
or ing</w>
pos e</w>
e sts</w>
syste ms</w>
g as
P I
dom in
enh anced</w>
d ri
par t</w>
o t</w>
ho w</w>
sp ective</w>
p y
previ ous</w>
pro duced</w>
ro n</w>
consis tent</w>
og ether</w>
st atus</w>
pl ant</w>
un it</w>
w as
man agement</w>
are a</w>
E R</w>
sol ution</w>
al low
B M
w ay</w>
contri bu
th us</w>
on es</w>
ti ally</w>
P L
differenti ation</w>
su ff
fi ve</w>
op tim
i an</w>
p tion</w>
perform ance</w>
I II</w>
istr ation</w>
com mun
A D</w>
si l
h er
compo unds</w>
em br
mort ality</w>
ir e</w>
do es</w>
injur y</w>
ow n
eff ic
m ig
insul in</w>
feren ce</w>
sensi tive</w>
form ed</w>
con t
stim ulation</w>
promo ter</w>
S e
pro f
embr y
characteri zed</w>
del i
ti n</w>
r ing</w>
us e
ra y</w>
d ge</w>
C l
M R
d os
del e
sugg ests</w>
surg ical</w>
phar mac
S N
medic al</w>
e y
con f
ic es</w>
en ergy</w>
os ome</w>
p ap
addi tional</w>
P D</w>
relationsh ip</w>
parame ters</w>
individ ual</w>
ay ed</w>
im pa
bu ffer</w>
RN As</w>
b ene
el ev
den sity</w>
ol y
vi su
e red</w>
m el
accor ding</w>
cor respon
i sts</w>
prob le
i di
as se
p p
ro gen</w>
is o
outcom es</w>
S T</w>
s mo
r e</w>
mis sion</w>
i de
c en
P A</w>
ond ary</w>
pl o
investig ate</w>
re ad
characteris tics</w>
sugges ted</w>
sub sequ
h al
in de
t op
evalu ate</w>
ess ential</w>
acti vities</w>
pre val
direc tly</w>
in duction</w>
ran dom
psy ch
demonstr ate</w>
resul ted</w>
all el
ag ents</w>
molec ules</w>
C 1</w>
fluoresc ence</w>
r up
correl ation</w>
imp act</w>
compl ete</w>
i m</w>
ol ution</w>
inv a
rec ent</w>
incub ated</w>
e tes</w>
tom y</w>
ograph ic</w>
ord ers</w>
ocy te</w>
cri tical</w>
ma xim
re pe
v ec
i .
mon it
hydro x
d o</w>
bi ological</w>
c y</w>
dam age</w>
ac ids</w>
resul ting</w>
gener al</w>
e p</w>
over all</w>
is h
D E
le ft</w>
volum e</w>
t le</w>
pre gn
oti de</w>
influ ence</w>
gener ated</w>
pl ant
Th ere
- 1</w>
struc tural</w>
effic acy</w>
coll ected</w>
H ere</w>
in ity</w>
an e</w>
gr am
con ser
mo l</w>
ti cles</w>
ogen ous</w>
d own
s or
in tro
incre asing</w>
re tro
t ation</w>
spec tr
appro xim
ch ain</w>
process es</w>
outcom e</w>
v acc
e ding</w>
health y</w>
le sions</w>
tw or
admin istration</w>
spec tro
fe atures</w>
U ni
sub strate</w>
k ers</w>
gl ut
ev ents</w>
tech n
cardi ac</w>
oc ardi
ful ly</w>
m am
bet ter</w>
y ro
W T</w>
up on</w>
carcin oma</w>
ly s
prog ression</w>
d ou
ne e
plic ations</w>
individu als</w>
m L</w>
al though</w>
rea m</w>
l ed</w>
C H
R T</w>
A t</w>
si s
sub st
c ross</w>
distin c
mon ary</w>
There fore</w>
th rom
Sup plem
ver sity</w>
o ve</w>
in ary</w>
C s</w>
P K
su m
B 1</w>
he pati
plas m
su per
cy t
conduc ted</w>
inhibi ted</w>
ass ess</w>
ati vely</w>
cl os
N O
ove rex
s ch
all eng
se en</w>
ad he
cr yst
resist ant</w>
b ound</w>
t ol
initi al</w>
yc in</w>
ver sus</w>
the tic</w>
techni que</w>
t able</w>
ol s</w>
ass ays</w>
s af
ro p
sel ected</w>
P ati
ac cur
di um</w>
M ore
cl us
fi eld</w>
sec ondary</w>
expres sing</w>
st ron
P S</w>
M S
phosph ate</w>
min im
mitochond rial</w>
More over</w>
l l</w>
st ability</w>
inte s
adul t</w>
s .</w>
trans l
mal e</w>
al one</w>
h ep
pos si
gen ome</w>
st ream</w>
aver age</w>
sta ining</w>
v ant</w>
teri or</w>
evalu ation</w>
impro ved</w>
le t</w>
P h
ac ts</w>
def ined</w>
P E
ch alleng
aff ect</w>
s w
nor mal
ne l</w>
inter n
s y</w>
sup plem
inc idence</w>
pat tern</w>
tern al</w>
combin ed</w>
con tent</w>
ific ation</w>
ul t
R 1</w>
indic ating</w>
el ine</w>
a m</w>
pat tern
radi ation</w>
qu es</w>
C a</w>
B P</w>
ol ic</w>
ang i
i on</w>
A ND</w>
so ur
ic ular</w>
m ade</w>
ud e</w>
phen otype</w>
s on</w>
ne twor
cor related</w>
physi cal</w>
iti s</w>
medi ate</w>
of ten</w>
t ogether</w>
mal ign
A S
sk in</w>
complex es</w>
amin ation</w>
On e</w>
st able</w>
incre ases</w>
ap plied</w>
diab etes</w>
ch arg
F 1</w>
metabol ism</w>
de sign
nec ess
c ou
en s
ab ove</w>
ti li
si x</w>
tin e</w>
hor mon
at al</w>
compar ison</w>
val id
U n
degrad ation</w>
b ur
en si
establ ished</w>
au th
ev ed</w>
G en
the m</w>
end oth
R I
d oc
fail ure</w>
requ i
lin ked</w>
A 1</w>
ad ap
hospit al</w>
N a
bacteri al</w>
c entral</w>
recei ved</w>
m ation</w>
gi ven</w>
dis orders</w>
compon ents</w>
rec ur
there fore</w>
id es</w>
y i
sh ort</w>
H E
lab el
w ide</w>
ep t</w>
lim ited</w>
dom ains</w>
u ally</w>
aly sis</w>
mo ti
M R</w>
se g
provid ed</w>
con j
C l</w>
ol ig
t ow
μ g</w>
ter y</w>
L e
d a
li ter
le ad</w>
mig r
ho urs</w>
l it
bi qu
con ver
osom al</w>
aff inity</w>
k en</w>
al tern
sti ll</w>
T 1</w>
contro lled</w>
pa ren
g li
ow le
D 1</w>
sol u
p anc
lip id</w>
o ur
ar ds</w>
g a
OBJECTIV E</w>
re li
gl y
plant ation</w>
gen e
gen ic</w>
sig n</w>
approxim ately</w>
h ost</w>
r h
K 2</w>
2 A</w>
ne ed</w>
om et
pro posed</w>
tri al</w>
at ric</w>
tri als</w>
preval ence</w>
s co
tion ally</w>
proc ed
iz ing</w>
assess ment</w>
AT P</w>
enc es</w>
pattern s</w>
ro x
re plication</w>
ci um</w>
di g
ac ross</w>
un its</w>
v entr
w id
b or
p ite</w>
sc ore</w>
CD 4</w>
o w</w>
ro us</w>
succ ess
rig ht</w>
N o</w>
Wh en</w>
stra tes</w>
M A</w>
intrac ellular</w>
. 0</w>
og n
abl es</w>
eff icient</w>
ra m</w>
calcul ated</w>
i ally</w>
lab or
E ff
p 1</w>
produc ts</w>
fac il
accum ulation</w>
pr e</w>
tr as
id ne
A b
anti gen</w>
underst anding</w>
met ast
v ent</w>
otyp es</w>
d on
fi x
pro toc
loc ation</w>
p s</w>
an al
ur se</w>
te ly</w>
v s.</w>
A A
ut ure</w>
S O
il i
distinc t</w>
y e
n m</w>
par t
acti n</w>
m en</w>
C S
owle dge</w>
metabol ic</w>
O n</w>
P 2</w>
am ide</w>
peri ph
m es
in ation</w>
re fl
epith elial</w>
physi ological</w>
u biqu
GF R</w>
V E
rema ins</w>
a im</w>
es tern</w>
ad ded</w>
enzym es</w>
L I
s it
b its</w>
p an
G 1</w>
dou ble</w>
quanti t
Tw o</w>
pop ulations</w>
p en
cor rec
rec ru
meth yl
ex ampl
behavi or</w>
ur ine</w>
asse mb
mod ul
exp ected</w>
l ay
pl ants</w>
om as</w>
fem ale</w>
inj ection</w>
sup pres
pur ified</w>
og en</w>
M C
ch ed</w>
m id
transp ort</w>
U sing</w>
contri b
cap ac
S .</w>
syn ap
inde x</w>
rec ip
1 A</w>
loc al</w>
e al</w>
He al
T r
d at
proced ure</w>
compl ications</w>
cou pl
l or
vari ants</w>
sur ve
carri ed</w>
S im
er ing</w>
n s</w>
S E
ta il
Fig .
er ic</w>
impro ve</w>
col i</w>
induc e</w>
us t</w>
re pair</w>
cal cium</w>
Q u
te sts</w>
liter ature</w>
ob j
scre ening</w>
fr ac
reg ar
mo der
lead ing</w>
s in</w>
ecti ng</w>
rec ently</w>
al ter
k idne
oc k</w>
L 1</w>
panc re
H A</w>
Pati ents</w>
pri or</w>
ul arly</w>
ven ess</w>
th al
ph yl
M P</w>
st ri
y oun
mac roph
hyper ten
enc ed</w>
pul monary</w>
mag ne
G G
revie w
ful l</w>
regul atory</w>
C N
P R
a b</w>
artic le</w>
S E</w>
e .</w>
O R
consi der
L i
modi fied</w>
transcrip tional</w>
provid es</w>
co ron
ut ri
occur red</w>
electro n</w>
M T
re ver
my el
tol er
correspon ding</w>
fib ro
p ow
ron e</w>
kn owledge</w>
stro ng</w>
A C</w>
ma in</w>
pro mis
transf ected</w>
mark ers</w>
A T</w>
pe rox
H D
medi an</w>
d ate</w>
M y
vir uses</w>
measure ments</w>
bl as
al es</w>
r ab
lac k</w>
go od</w>
mel an
re stric
ag ent</w>
lig and</w>
k er</w>
bi om
loc ated</w>
are as</w>
cul tured</w>
F in
t y
N S
sta ined</w>
gu id
nucle otide</w>
dic al</w>
b ar
A R</w>
pro por
intes tinal</w>
Th e
ar tery</w>
cyto plas
or ity</w>
sub stitu
g lob
it al</w>
oxy gen</w>
ir atory</w>
In te
vie w</w>
per s
specific ity</w>
is ed</w>
br al</w>
s om
erg ic</w>
ap plication</w>
gr ade</w>
ic ro
ac qu
up take</w>
b asis</w>
poly morph
techni ques</w>
loc alization</w>
expos ed</w>
is tic</w>
environ ment</w>
use ful</w>
T ran
diagnos tic</w>
elev ated</w>
cri teri
show s</w>
el ls</w>
on ed</w>
D is
partic ular</w>
appro pri
t ory</w>
d ra
S ur
contrib ute</w>
th yro
import ance</w>
st ar
c u
includ e</w>
w ent</w>
ch an
inter vention</w>
osom es</w>
μ M</w>
amoun t</w>
obser v
b al
tes ting</w>
proc e
sel ective</w>
on ucle
pro gram
Ad di
ser ies</w>
tox icity</w>
bi r
bas eline</w>
necess ary</w>
T C
c epti
vec tor</w>
Supplem entary</w>
M 1</w>
hy bri
u tili
inflam mation</w>
periph eral</w>
i. e.</w>
predic ted</w>
B oth</w>
de m
rap id</w>
ac coun
m an</w>
g am
S D</w>
S er
- -
kn ock
stimul ated</w>
thesi zed</w>
chem otherapy</w>
st abil
rec ogn
ste p</w>
compon ent</w>
ph il
em b
a im
es pec
particip ants</w>
ic ul
reduc e</w>
pap er</w>
o ff
cl ass</w>
espec ially</w>
m ary</w>
bac k
de sign</w>
reg ression</w>
p ac
exhibi ted</w>
con stitu
g s</w>
in d
ach es</w>
com pe
sh if
ant agon
conser ved</w>
an ol</w>
SC s</w>
g el</w>
targe ting</w>
under went</w>
on t
wh ole</w>
practi ce</w>
se t
em plo
m en
z ing</w>
O 2</w>
sus cepti
B ec
on set</w>
chan nel</w>
mi R</w>
g ran
ul ts</w>
transf er</w>
re plac
b rea
sc ale</w>
ne w
sul f
pre pared</w>
op o
def iciency</w>
A S</w>
targe ts</w>
i ble</w>
z y
is tered</w>
ri b
inf ections</w>
anim al</w>
o vascular</w>
in ser
S 2</w>
lin ear</w>
endoth elial</w>
adul ts</w>
capac ity</w>
re combin
tero l</w>
sequenc ing</w>
muc h</w>
hist ory</w>
f uture</w>
o tic</w>
discus sed</w>
p ut</w>
t a</w>
P er
secre tion</w>
c ent
cur ren
cl u
sco res</w>
s ince</w>
inhibit ory</w>
ser v
A N
c m</w>
chol es
ye ast</w>
al coh
pl ays</w>
abs or
c ogni
end ed</w>
conj ug
C lin
so dium</w>
subsequ ent</w>
G l
facil it
bacteri a</w>
strateg ies</w>
re comm
coron ary</w>
e .
ly ing</w>
B e
lo ad
e duc
agg reg
aut ophag
ex is
o v
con n
at t
op en</w>
d uration</w>
th i
ri x</w>
soci al</w>
r ine</w>
C ol
O f</w>
e ph
migr ation</w>
ar ing</w>
G ro
wee k</w>
se e</w>
co urse</w>
cyt os
partic ularly</w>
kidne y</w>
deli very</w>
app ears</w>
tem por
nat ural</w>
u ro
is su
pl ate
con clud
molec ule</w>
I I
al g
fr action</w>
o plas
oxid ative</w>
H R</w>
or ies</w>
A 2</w>
de g
cor e</w>
measu res</w>
P ar
coh ort</w>
exampl e</w>
respon sible</w>
neuron al</w>
pepti des</w>
cul tures</w>
a teral</w>
c anc
occ ur</w>
in a</w>
man ner</w>
sub unit</w>
rele vant</w>
M I
eff iciency</w>
ati c
gro und</w>
ventr icular</w>
inten sity</w>
sel ection</w>
res tin
dis order</w>
T re
fi t</w>
l ast</w>
Res ults</w>
gre es</w>
f as
ex t</w>
identi fication</w>
appropri ate</w>
tra ining</w>
end ogenous</w>
f ici
de v
po or</w>
relati vely</w>
quantit ative</w>
stron gly</w>
P C</w>
n utri
ad d
ic an</w>
poin ts</w>
pre par
produc t</w>
ol ar</w>
ca uses</w>
venti onal</w>
or i
al ong</w>
chrom at
achi eved</w>
ex erc
acti ng</w>
criteri a</w>
un g
deg ree</w>
ner ve</w>
al k
extrac ellular</w>
P BS</w>
h ere</w>
A p
o di
comp u
S C</w>
E .</w>
dele tion</w>
t as
j o
ag en</w>
exam ine</w>
til ity</w>
inc or
sen s
hypo thesis</w>
fe w</w>
pro fil
ro w</w>
rec over
me try</w>
dis rup
th ir
pl ate</w>
de n</w>
mat ure</w>
targe ted</w>
col on
e g
de grees</w>
ta ken</w>
C y
lead s</w>
process ing</w>
l ate</w>
r are</w>
nee ded</w>
se e
mo tor</w>
H 2
ch lor
condi tion</w>
t on
t on</w>
micro scopy</w>
se ro
ati n
con st
altern ative</w>
M a
H 1</w>
restin gly</w>
M T</w>
is chem
g .</w>
S h
ex amination</w>
bi op
T ri
Wh ile</w>
o st
ro les</w>
diagnos ed</w>
ul in</w>
Heal th</w>
li qu
label ed</w>
tot ox
suff icient</w>
pa rent</w>
du res</w>
gen omic</w>
3 A</w>
F L
dos es</w>
U SA</w>
def icient</w>
A mer
publ ished</w>
ann ing</w>
v s</w>
strateg y</w>
e b
org anis
ar ch
inhibi t</w>
E GFR</w>
P U
an other</w>
prog ram</w>
sc i
de ple
mat rix</w>
om es</w>
re actions</w>
T T
ac e</w>
av age</w>
e tics</w>
my ocardi
se x</w>
b enz
resp iratory</w>
l at
visu al</w>
C ell</w>
vari ation</w>
im ens</w>
subst anti
pregn ancy</w>
go ing</w>
dis co
bin d</w>
ul tras
high est</w>
tr ation</w>
ar ity</w>
recombin ant</w>
e. g.</w>
D ata</w>
al tered</w>
plasm id</w>
IF N</w>
bi t</w>
hal f</w>
B D</w>
S H</w>
scop ic</w>
conc er
aut o
networ k</w>
i st
op e</w>
res h
appro aches</w>
perc ent
s pl
I V</w>
fin al</w>
E N
statis tically</w>
throug h
D T
Inte restingly</w>
B io
meth ylation</w>
uni que</w>
da ily</w>
ra ther</w>
design ed</w>
ut aneous</w>
i sion</w>
in t</w>
ar c
ti vely</w>
under lying</w>
le ar
id ity</w>
cogni tive</w>
hep at
incor por
er y
hormon e</w>
C ells</w>
w ard</w>
p al
nucle us</w>
estim ated</w>
B y</w>
mark er</w>
es ted</w>
regul ate</w>
i b</w>
devel op</w>
a de
proce dures</w>
sp inal</w>
ari ly</w>
ri f
no w</w>
fo od</w>
tw are</w>
W ith</w>
impro vement</w>
fici al</w>
ren g
m atic</w>
overex pression</w>
ox ide</w>
S y
bas al</w>
ic a</w>
main ly</w>
auth ors</w>
experi ence</w>
occur s</w>
R s</w>
H B
en ting</w>
h yp
R P</w>
S S</w>
Pro te
sign als</w>
pea k</w>
Sim il
fam il
bi al</w>
E 1</w>
choles terol</w>
inva sive</w>
u tes</w>
meas ure</w>
pro state</w>
olog ies</w>
compo und</w>
i x</w>
en ric
deri v
h and</w>
canc ers</w>
C C</w>
Fig ure
im ages</w>
re st
recover y</w>
D N
p 2</w>
treat ments</w>
as ta
descri be</w>
S ub
cy totox
bac k</w>
recor ded</w>
chrom osome</w>
ex tent</w>
memb ers</w>
re al</w>
admin istered</w>
F urther</w>
domin ant</w>
anti bio
me mor
b ul
c um
produc e</w>
medi a</w>
a or
protoc ol</w>
vi sion</w>
inter val</w>
la teral</w>
istr y</w>
res sive</w>
it on
repor ts</w>
es tion</w>
exerc ise</w>
val ent</w>
meth yl</w>
poten t</w>
L D
ma terial</w>
ch ann
O F</w>
la ter</w>
o od</w>
signific ance</w>
he ad</w>
st reng
b est</w>
syste mic</w>
te x</w>
er r
membran es</w>
f av
ve red</w>
ros ine</w>
os cop
am in</w>
H 2</w>
i e
def ects</w>
specific ally</w>
di lu
hepati c</w>
in tra
mech an
S ince</w>
teri als</w>
P P
di et</w>
H y
n ur
flu id</w>
dys function</w>
ol der</w>
U S</w>
om y
magne tic</w>
I P</w>
asi c</w>
b on
pro xim
dynam ics</w>
A mon
O H</w>
random ized</w>
so f
sour ce</w>
incub ation</w>
lit tle</w>
esti on
un known</w>
R 2</w>
maxim um</w>
was hed</w>
e ight</w>
W estern</w>
trans plantation</w>
pre g
re as
f at
E 2</w>
re ference</w>
C Y
S M
observ ations</w>
d y
c DNA</w>
malign ant</w>
res olution</w>
hem at
develop ing</w>
c ost</w>
comp are</w>
ter ms</w>
Bec ause</w>
ve si
ta il</w>
zy g
tion ing</w>
ap pe
youn g</w>
sh or
H P
con ventional</w>
larg er</w>
liqu id</w>
chann els</w>
si c</w>
tre m
tra um
vari ety</w>
invol vement</w>
su mp
C M
Amon g</w>
allel e</w>
T NF</w>
assemb ly</w>
met asta
o ple</w>
Fin ally</w>
carb on</w>
commun ity</w>
transp or
Im mun
i ron</w>
environ mental</w>
H z</w>
S ig
G E</w>
cardi ovascular</w>
protec tive</w>
labor atory</w>
L A</w>
post operative</w>
g er
gen s</w>
re verse</w>
om y</w>
f at</w>
ar ch</w>
dat ab
ing ly</w>
ogni tion</w>
me ans</w>
saf ety</w>
hyperten sion</w>
of f</w>
hy dr
y et</w>
ax is</w>
N F
o vari
enco ding</w>
proble ms</w>
vari ant</w>
adv anced</w>
ad verse</w>
st ages</w>
m as
impa ir
maj ority</w>
resi due</w>
tro ph
rec tal</w>
b ase</w>
isol ates</w>
sc le
St ud
macroph ages</w>
acc ep
adv ant
cle ar</w>
ter ing</w>
si a</w>
review ed</w>
tri gg
i on
M 2</w>
D es
ha ving</w>
In ter
can di
T A
vari able</w>
hum ans</w>
p ig
prof ile</w>
memor y</w>
C I
frequ ently</w>
S L
charg e</w>
on c
D a</w>
ri a</w>
diff icul
k ine</w>
oc l
ab und
MR I</w>
y ed</w>
sh ap
enh anc
O S</w>
de pression</w>
pl an
detec t</w>
estion na
mon th</w>
gas tric</w>
os yn
sim ple</w>
possi bility</w>
C F
atten u
ste ro
re p
con text</w>
app ing</w>
percent age</w>
ho od</w>
opath y</w>
intern al</w>
res on
d op
a k</w>
gam ma</w>
u preg
A t
chrom atin</w>
rema ined</w>
sof tware</w>
s al</w>
cer tain</w>
eph al
se ven</w>
polym erase</w>
sp ati
ol esc
down stream</w>
regar ding</w>
se ud
AM P</w>
lo op</w>
kin es</w>
inte rest</w>
f etal</w>
& amp
&amp ;</w>
hel p</w>
D I
dim ensi
vari ables</w>
al le
f ish</w>
poten tially</w>
og lob
ac hed</w>
experim ent</w>
grow n</w>
t ase</w>
monit oring</w>
to sis</w>
chem istry</w>
fix ed</w>
id al</w>
um in
ati ves</w>
comple tely</w>
im plic
thir d</w>
ch ing</w>
enc ing</w>
sis tent</w>
G 2</w>
mix ed</w>
ly sis</w>
metasta sis</w>
ag re
s le
tr yp
trans mission</w>
cataly tic</w>
C d
adj u
or th
fac t</w>
solu ble</w>
κ B</w>
conta ins</w>
impa ired</w>
pre vent</w>
D uring</w>
mal ian</w>
os a</w>
ag en
alter ations</w>
ty rosine</w>
fin ding</w>
P O
apopto tic</w>
transi tion</w>
phosphor ylated</w>
w ar
er ro
promo te</w>
r am
throm b
A k
an a
T H
neu tr
measure ment</w>
rec ognition</w>
1 B</w>
ul ate</w>
th ic
techn ology</w>
pe ople</w>
Uni versity</w>
e ous</w>
S ta
hist o
pl us</w>
B R
m T
el etal</w>
s ex
mus t</w>
ro om</w>
M eth
p 3</w>
pur pose</w>
cle avage</w>
frag ment</w>
l ing</w>
rab bit</w>
moder ate</w>
k es</w>
cere bral</w>
long er</w>
stro ke</w>
lay er</w>
ab normal
investig ation</w>
A .</w>
T R</w>
es si
sub strates</w>
f ying</w>
pro p
r al</w>
b le
f ung
s qu
diab etic</w>
pl ayed</w>
fat ty</w>
sever ity</w>
adj us
dynam ic</w>
par tial</w>
chromat ography</w>
P R</w>
pol ar
olog ically</w>
P M
requi res</w>
H S
at tr
asp ase</w>
com mon
dimensi onal</w>
A G</w>
Sig ma</w>
ar y
m ia</w>
S ci
Clin ical</w>
C 2</w>
alcoh ol</w>
B ased</w>
i ety</w>
ti l</w>
M AP
cor tex</w>
A K
to ol</w>
a ir
al b
4 A</w>
myocardi al</w>
se em
ap s</w>
sump tion</w>
ar ticles</w>
el i
met al</w>
metast atic</w>
ev ol
min utes</w>
V A</w>
autophag y</w>
e di
se p
n ic</w>
par ticles</w>
ill ary</w>
R A</w>
pre vention</w>
re ly</w>
P F
obser vation</w>
in ated</w>
P r
S pec
mam malian</w>
hypo x
path ogenesis</w>
TI ON</w>
appe ar</w>
el ements</w>
c as
B C
le ts</w>
ap pea
sp e
E l
con form
indic ates</w>
s per
appea red</w>
ri tis</w>
ten ce</w>
vie w
conta ined</w>
optim al</w>
enc ies</w>
C or
re present</w>
oc amp
ec t
com position</w>
sen se</w>
P G
T 3</w>
al low</w>
blas ts</w>
ar ray</w>
ep tion</w>
p h</w>
ad s</w>
fer red</w>
synap tic</w>
rel ation</w>
3 D</w>
b ut
s plic
gly co
T E
s in
H C</w>
ca teg
A A</w>
curren tly</w>
anal og
b p</w>
N or
intr av
it ary</w>
ip s</w>
organ ic</w>
ar terial</w>
B 2</w>
kin etics</w>
pa ir
eff ici
de tail
ne um
ecti vity</w>
pre ven
remo val</w>
pl ates</w>
co ding</w>
ad olesc
N K</w>
over n
i i</w>
lo ro
The y</w>
ab dom
differen tial</w>
re active</w>
tu al</w>
mit ted</w>
induc es</w>
2 B</w>
pancre atic</w>
thyro id</w>
ot rop
model ing</w>
in sig
bloc k</w>
tow ard</w>
invol ving</w>
sim ult
le ar</w>
ecti veness</w>
n ic
ne ural</w>
oc ar
ne ut
em erg
fem ales</w>
ic le</w>
hi pp
T a
v ical</w>
P .</w>
mal es</w>
M o
n ature</w>
sp ont
n M</w>
at tri
obj ective</w>
gener ate</w>
rif ug
s ph
Tre at
k Da</w>
N ot
5 A</w>
si vely</w>
per me
p ut
col um
adhe sion</w>
S DS</w>
an terior</w>
an g</w>
P I</w>
tempor al</w>
statis tical</w>
protec tion</w>
e f
l ar
numb ers</w>
asi a</w>
main tained</w>
b en
wh at</w>
olec ular</w>
B r
C G
tum our</w>
aro und</w>
ecti n</w>
hetero gene
hipp ocamp
S ign
las er</w>
i ting</w>
I R
ane ously</w>
i tes</w>
N 1</w>
H 3</w>
foc al</w>
Ig G</w>
physi ci
y lo
chang ed</w>
Th er
id ine</w>
P l
ent y</w>
or ts</w>
u fac
yi el
th resh
er cul
te l
at ase</w>
li po
hydrox y
gn os
th em
com e</w>
conf idence</w>
reduc ing</w>
H D</w>
proble m</w>
co ord
gen otype</w>
inj ected</w>
g er</w>
P 3</w>
cont act</w>
i ous</w>
w all</w>
propor tion</w>
sol id</w>
common ly</w>
re f
G N</w>
an es
v ar
Th ree</w>
ex trem
op recip
n t</w>
exp an
si RNA</w>
accur acy</w>
compar able</w>
ar r
ne ar</w>
ot ox
suppor ted</w>
t am
P ri
man ufac
bir th</w>
g al
hydro gen</w>
vari ate</w>
B C</w>
CD 1</w>
sy m
r s
con clusion</w>
I T
ocl onal</w>
k er
w ise</w>
kn ess</w>
melan oma</w>
do m</w>
m ing</w>
el im
im plem
An alysis</w>
ell a</w>
hom olog
prog nosis</w>
M D</w>
μ l</w>
inter pre
cor tical</w>
w ays</w>
in t
p el
es ity</w>
trac t</w>
st ates</w>
venti ons</w>
per fusion</w>
moti f</w>
F or
s ection</w>
c all
therap ies</w>
Treat ment</w>
id ly</w>
t or
reson ance</w>
inf ants</w>
F s</w>
bel ow</w>
on omic</w>
show ing</w>
il s</w>
chem o
a ir</w>
clin ically</w>
ac u
pro be</w>
omet ric</w>
as ym
const ant</w>
a qu
equ i
b ly</w>
C ar
form ing</w>
bec ome</w>
for ce</w>
er ization</w>
c ros
am b
syn thesized</w>
cytoplas mic</w>
ex tr
in take</w>
az ole</w>
cy tom
t ren
eb o</w>
M .</w>
cryst al</w>
ass es</w>
b idity</w>
log ical</w>
ob las
ig n</w>
ver sion</w>
profil es</w>
di ame
oper ation</w>
S p
educ ation</w>
ot ting</w>
ap plications</w>
re produc
hist one</w>
bin ds</w>
eff ectiveness</w>
bio chemical</w>
through out</w>
phot o
glob al</w>
acet yl
loc alized</w>
surve y</w>
sub units</w>
no ted</w>
an th
inva sion</w>
glut am
as th
gener ally</w>
n ext</w>
ovari an</w>
mar row</w>
un til</w>
Se ver
poten ti
initi ation</w>
ver s</w>
bo v
lear ning</w>
re construc
G i
eth anol</w>
y r
gen ase</w>
pr inc
c aspase</w>
asp ects</w>
vi ous</w>
In de
aim ed</w>
soci ation</w>
AL S</w>
tem p
im age</w>
plac ebo</w>
fl ex
Gro up</w>
coupl ed</w>
c ad
mitochond ria</w>
pro j
bar ri
extrac ted</w>
T 2</w>
N a</w>
gas tro
vi si
transf erase</w>
success ful</w>
gnos tic</w>
suscepti bility</w>
se ts</w>
N eu
conta in</w>
coll agen</w>
determin ation</w>
biom ar
z es</w>
pow er</w>
vi ding</w>
Di ff
ic hi
regul ating</w>
iti n</w>
knock down</w>
ul l</w>
qu estionna
sle ep</w>
E B
ev olution</w>
continu ous</w>
ab or
ur s
rema in</w>
an ine</w>
up per</w>
N I
ol ip
rap idly</w>
de hy
zyg ous</w>
orig in</w>
inf arc
es ophag
vacc ine</w>
al most</w>
doc um
Ne w</w>
P ase</w>
O SE</w>
vit amin</w>
transf ection</w>
mat ched</w>
leuk emia</w>
i ons</w>
D 2</w>
ur b
ou th</w>
modi fication</w>
at om
regul ates</w>
or ith
M O
h ex
prote ase</w>
cy tes</w>
Des pite</w>
extrac ts</w>
N O</w>
Na Cl</w>
mo de</w>
inter act</w>
spectr um</w>
n e</w>
pro spective</w>
e ts</w>
ad ren
spec imens</w>
eth yl
transf er
ar th
M ost</w>
le sion</w>
o g</w>
P 4</w>
F ro
V 1</w>
exhibi t</w>
2 D</w>
inhi bits</w>
recur rence</w>
activ ate</w>
p neum
com pri
blo t</w>
PU RP
s atis
e ti
morph ology</w>
fluoresc ent</w>
foc us</w>
cent rifug
streng th</w>
F e
O ver
RO S</w>
S I</w>
n am
res ection</w>
C B
bene fit</w>
et ary</w>
prec urs
inter ventions</w>
is sion</w>
s po
sti t
famil ies</w>
T R
s ections</w>
allow s</w>
characteri zation</w>
mix ture</w>
L .</w>
oxid ation</w>
mon oclonal</w>
h in
cr uc
PURP OSE</w>
M icro
ap parent</w>
he at</w>
sh e
em er
u tive</w>
sm all
al dehy
cl ose</w>
Ak t</w>
cer vical</w>
confir m</w>
uc id
toler ance</w>
- 0</w>
back ground</w>
wor l
promis ing</w>
wid ely</w>
ep ide
r ich</w>
plate let</w>
a w
H um
mechan ical</w>
M L
enh ance</w>
ten ance</w>
abnormal ities</w>
remo ved</w>
t t
difficul t</w>
press or</w>
F A</w>
atic ally</w>
pe di
direc ted</w>
or ph
em ic</w>
S ch
amoun ts</w>
car r
us ually</w>
fibro blasts</w>
ner v
alg orith
ade qu
om en
N ational</w>
str um
ul a</w>
yi eld</w>
en ter</w>
divid ed</w>
sp ace</w>
N MR</w>
ne on
Res earch</w>
ab normal</w>
agre ement</w>
S ec
it able</w>
M ulti
ad der</w>
des pite</w>
ar teri
kin etic</w>
develop mental</w>
wh ite</w>
al .</w>
t an
stit ute</w>
m entation</w>
shif t</w>
r s</w>
dis played</w>
inter mediate</w>
enti f
immun oprecip
ear li
man if
ur inary</w>
ha em
challeng e</w>
en sive</w>
smo king</w>
el ines</w>
C 3</w>
sup pression</w>
as tro
hom e
hy th
Com par
fib ri
prim ers</w>
absor ption</w>
g ain</w>
atten tion</w>
ep id
A L</w>
A u
spati al</w>
id en
pos ite</w>
emer gen
pro long
res ting</w>
ob esity</w>
par tially</w>
ery thro
oth ers</w>
stud ents</w>
re plic
M P
D r
pl asia</w>
ar com
w w
cyto kines</w>
e very</w>
ill in</w>
comp an
el ium</w>
bov ine</w>
requ ire</w>
tri es</w>
Tran s
G er
Sever al</w>
trans genic</w>
lig ands</w>
mil d</w>
C D</w>
L E
J ap
ER I
u me
depend ently</w>
publ ic</w>
transl ation</w>
tur n</w>
u es</w>
b er
Fro m</w>
K O</w>
C S</w>
C al
can not</w>
bloc ked</w>
f ications</w>
accoun t</w>
μ m</w>
con sumption</w>
medic ine</w>
ar ti
S m
th ym
ac char
z o
cle arly</w>
os ine</w>
ati on
main tenance</w>
F 2</w>
frag ments</w>
ST AT
don or</w>
chil d</w>
lymph ocytes</w>
l ap
N E
allow ed</w>
sus p
detec table</w>
nan op
ec tomy</w>
m urine</w>
entif ic</w>
ma terials</w>
adjus ted</w>
pro gnostic</w>
G L
h ol
f al
supplem ented</w>
D A</w>
k ary
repor ter</w>
pr o</w>
b asic</w>
. 1</w>
phen otypes</w>
g radi
n ative</w>
G C</w>
acqu ired</w>
S 3</w>
ma tes</w>
N P</w>
aor tic</w>
biop sy</w>
fac es</w>
d ine</w>
embry os</w>
prob ably</w>
recei ving</w>
a vi
extrac t</w>
d or
if or
tow ards</w>
ic in</w>
extrac tion</w>
p on
l igh
resp ect</w>
ex clud
S R
t ment</w>
sta sis</w>
U V</w>
kin ases</w>
S P</w>
ro u
subj ected</w>
it ment</w>
M AT
underst and</w>
predic t</w>
emplo yed</w>
o si
electro ph
b and</w>
path ological</w>
ac k</w>
resi d
success fully</w>
syn thetic</w>
fail ed</w>
im plications</w>
di sp
3 B</w>
lo ad</w>
T GF</w>
F ol
j unc
al ign
ar m</w>
acc ess</w>
implic ated</w>
re r</w>
uc h</w>
s at
gen ital</w>
D P</w>
k age</w>
u ter
hepati tis</w>
al lo
if y</w>
s cho
CD 8</w>
int act</w>
el ucid
D U
iden tical</w>
D O
hom o
frequ ent</w>
SI GN</w>
under going</w>
requi re
tr uc
ex change</w>
Addi tionally</w>
scop e</w>
st ly</w>
at temp
d le</w>
wh ose</w>
HC V</w>
ver te
S yn
embry onic</w>
struc tion</w>
pos terior</w>
H T</w>
o rectal</w>
th or
O r
s on
T ech
aldehy de</w>
prim arily</w>
ch ec
def ect</w>
ma ternal</w>
diame ter</w>
ari es</w>
CS F</w>
perc ent</w>
distin gu
deple tion</w>
ach ing</w>
d on</w>
fin d</w>
mar ked</w>
d enti
b ron
t un
em o
there by</w>
Ca 2</w>
recogn ized</w>
tub ercul
clus ter</w>
characteris tic</w>
or ation</w>
ogen etic</w>
M A
d one</w>
re tinal</w>
conclud e</w>
ocy tosis</w>
cal c
app ear
dist ance</w>
en ding</w>
expres s</w>
recru itment</w>
cl oned</w>
PI 3
MD A</w>
v o
abdom inal</w>
i tin
ta ining</w>
B .</w>
an x
diff er</w>
v ul
le th
organis ms</w>
seem s</w>
g o</w>
tox ic</w>
impair ment</w>
C an
bl adder</w>
throm bo
der ly</w>
transi ent</w>
oly tic</w>
in oc
unc lear</w>
compe ti
pro gen
co ver
cor d</w>
ma ke</w>
set ting</w>
ma king</w>
per im
to m</w>
coun tries</w>
vi ability</w>
construc t</w>
esc ence</w>
B M</w>
ev ent</w>
C ancer</w>
L PS</w>
cen ter</w>
influ enz
C E
predic tive</w>
s ess
l ation</w>
pre h
y cl
manufac tu
plac e</w>
1 a</w>
posi tions</w>
trans formation</w>
ey e</w>
CD 3</w>
relationsh ips</w>
F P</w>
b ond</w>
lym ph</w>
classi fication</w>
bi osyn
prepar ation</w>
DE SIGN</w>
ne ph
res ol
oxid ant</w>
rati os</w>
Amer ican</w>
te en</w>
cyto kine</w>
plac ed</w>
ch loro
k it</w>
a rom
cy ste
iz es</w>
Stud y</w>
tom ography</w>
n as
f ar</w>
es sive</w>
ph ob
alle l</w>
Hum an</w>
qu in
t agg
A fr
termin us</w>
org an</w>
f s</w>
radi o
n ine</w>
ar rang
lac t
- 2</w>
fib rosis</w>
datab ase</w>
cruc ial</w>
id ase</w>
phosph atase</w>
lac king</w>
mo bil
G A</w>
bal ance</w>
overex pres
i pl
N T
colum n</w>
p u
b ic</w>
um ab</w>
Diff eren
M an
In vit
Rec ent</w>
we igh
ch ym
expl ore</w>
v ements</w>
S u
e f</w>
electroph ore
cl ones</w>
dra w
M et
fe eding</w>
fr actions</w>
path ology</w>
tas k</w>
d end
con sec
op tical</w>
exc ept</w>
Invit rogen</w>
small er</w>
N L
li ving</w>
rea d</w>
serv ices</w>
tom a</w>
activ ating</w>
ome try</w>
l and</w>
H ospit
An ti
associ ations</w>
arth ritis</w>
minim al</w>
subsequ ently</w>
larg ely</w>
put ative</w>
ocar cin
occ us</w>
loc us</w>
ex ternal</w>
C E</w>
e ve</w>
or rh
ch es</w>
il ep
tra di
se arch</w>
col on</w>
I R</w>
en ed</w>
cir cul
e try</w>
vas cul
as sign
re t
D M</w>
n ed</w>
f ed</w>
def in
intrav en
ex on</w>
expl a
Tri s</w>
OBJECTIV ES</w>
earli er</w>
pro viding</w>
depend ence</w>
comple ted</w>
P hy
phen omen
be g
spec i
gen der</w>
H 3
pres sive</w>
igh tly</w>
dist al</w>
scle rosis</w>
o stasis</w>
vari ability</w>
mo vement</w>
r ac
t ob
res our
sw it
oti des</w>
C X
repres ents</w>
hom ogen
neut roph
D s</w>
ult i</w>
n or</w>
PA R
H igh</w>
av es</w>
F ir
sel y</w>
spont aneous</w>
T RA
pre domin
ven ous</w>
l uc
fluo ro
T B
retro spective</w>
recur rent</w>
yl ate</w>
guid elines</w>
behavi oral</w>
di verse</w>
b ile</w>
M I</w>
c it
thresh old</w>
on ing</w>
c utaneous</w>
d og
ple x</w>
expl ain</w>
Over all</w>
di versity</w>
sl ightly</w>
S i
a the
deriv atives</w>
m er</w>
hydro phob
par allel</w>
repe ated</w>
i atric</w>
gl and</w>
il l</w>
contribu tion</w>
H R
conjug ated</w>
el derly</w>
VE GF</w>
exis ting</w>
1 C</w>
st atic</w>
analy sed</w>
G AB
el ess</w>
con trac
ac compan
mon om
lat ter</w>
ac cel
ep it
L 2</w>
M ut
S S
D R
immuno histo
in strum
ro ot</w>
ch ic
me tric</w>
conver sion</w>
typ ical</w>
mor bidity</w>
con formation</w>
on to</w>
exten sive</w>
stimul i</w>
all ing</w>
ot al</w>
pan el</w>
G S</w>
T ak
z in
H g</w>
call ed</w>
lu e</w>
c l</w>
scri min
anti gens</w>
cur ve</w>
di scrimin
lin e
ther mal</w>
ro ug
Prote in</w>
differenti ated</w>
occur rence</w>
attr s</w>
CO 2</w>
p seud
in dependently</w>
m im
ER K</w>
A M</w>
nerv ous</w>
s ecti
inf il
py ri
S tu
di etary</w>
sit u</w>
L a</w>
D ec
rema ining</w>
ed ly</w>
E r
str and</w>
f it
exten ded</w>
spectro scopy</w>
spectr a</w>
Tech n
sur ro
tr ical</w>
us al</w>
sequ ently</w>
proxim al</w>
ynam ic</w>
ig en
f ts</w>
ther n</w>
tagg ed</w>
li br
avail ability</w>
ume rous</w>
M ed</w>
fro n
ul f
L C</w>
ampl ification</w>
B L</w>
ocy tic</w>
C r
manufactu rer</w>
inf er
b lin
phen yl
intro duced</w>
dri ven</w>
aff ects</w>
nee ds</w>
re tin
it ud
pres er
ep ilep
su peri
nec rosis</w>
B ri
otyp ic</w>
compl em
pol y</w>
C 5</w>
inf usion</w>
ero l</w>
immun ity</w>
di an</w>
gra ft</w>
reve al</w>
R el
grow ing</w>
separ ated</w>
influenz a</w>
foc used</w>
super nat
ll ing</w>
jo int</w>
C P
en ro
co ag
PI3 K</w>
organ ization</w>
iton eal</w>
replac ement</w>
satis fac
prolong ed</w>
modi fications</w>
i v
pair s</w>
enric hed</w>
thoug ht</w>
he re
suppres sed</w>
mut ated</w>
g as</w>
f a
P las
ran dom</w>
sex ual</w>
classi fied</w>
H LA</w>
low ing</w>
C P</w>
f its</w>
inter fe
E C</w>
consec utive</w>
sk eletal</w>
nit rogen</w>
al ine</w>
4 B</w>
accur ate</w>
col orectal</w>
syste matic</w>
transcrip ts</w>
C ur
por e</w>
S ome</w>
promo tes</w>
A 3</w>
mark edly</w>
ubiqu itin</w>
r in</w>
clos ely</w>
trans location</w>
mon o
agon ist</w>
f ast</w>
sal ine</w>
def ic
M O</w>
Ex perim
the ory</w>
el ement</w>
g on
cap able</w>
b es</w>
asth ma</w>
equ al</w>
de vi
ichi a</w>
ampl ified</w>
ob tain</w>
sour ces</w>
p ast</w>
Me dical</w>
mod ulation</w>
ex er
phil a</w>
3 H</w>
is ms</w>
A U
r he
ph ag
com preh
ca ten
in sic</w>
R ep
oc rine</w>
ra z
spectro metry</w>
ar rest</w>
accel er
6 A</w>
D S
Ch in
P ub
cy cles</w>
is om
ac r
hybri di
ogen s</w>
micro tub
overn ight</w>
MAT ERI
o il</w>
h ab
ste ps</w>
Hospit al</w>
eng ine
mid dle</w>
ser ine</w>
pres entation</w>
t age</w>
o k</w>
MAP K</w>
er a</w>
2 C</w>
F lu
p ass
no v
a red</w>
ir radiation</w>
prof essi
hel ix</w>
aff ecting</w>
oph il
Ch ina</w>
P K</w>
Eff ect</w>
em p
CY P
ti g
d ers</w>
um in</w>
E LI
ten cy</w>
program s</w>
pol ar</w>
maxim al</w>
if erase</w>
oste rone</w>
har v
dev ice</w>
pl a
facilit ate</w>
thesi a</w>
Bi os
issu e</w>
est rogen</w>
in activation</w>
qu al
possi bly</w>
del ayed</w>
immun os
entr y</w>
oc or
fil am
O b
decre ases</w>
nec k</w>
pneum on
oly sis</w>
sit u
il lu
lymph oma</w>
wa ve</w>
em ph
attri bu
sign s</w>
m 2</w>
epid er
Chin ese</w>
estim ate</w>
thic kness</w>
construc ted</w>
h ts</w>
str y</w>
candi date</w>
ne oplas
carb ox
predic tion</w>
bor n</w>
appear ance</w>
metabol ites</w>
Uni ted</w>
ar in</w>
arg in
j u
thal am
D C</w>
tox in</w>
bi ology</w>
glyc os
acet ate</w>
pedi atric</w>
an k</w>
regul ator</w>
aggreg ation</w>
D ro
d ance</w>
rel ap
CL C</w>
antagon ist</w>
D R</w>
ten tion</w>
occur ring</w>
dim er</w>
t al
de hydro
li on</w>
p ed</w>
enc ephal
PL C</w>
Stu dies</w>
dend ri
pro pose</w>
ad sor
cycl o
A b</w>
opo i
i si
res sed</w>
sh ock</w>
G ST</w>
prog ressive</w>
tw ice</w>
o ked</w>
dr am
m ulti</w>
prim er</w>
polymorph ism</w>
3 C</w>
or age</w>
compu ted</w>
P ol
questionna ire</w>
mes en
mil k</w>
tubercul osis</w>
so il</w>
fil m</w>
ro w
hypox ia</w>
Fir st</w>
l and
gradi ent</w>
m ul
CA 1</w>
ischem ia</w>
traum a</w>
anc ies</w>
nor m
an tic
underst ood</w>
allel es</w>
pres cri
E sch
inter face</w>
ta x
fac ial</w>
construc ts</w>
al ter</w>
g est
s low</w>
Re g
col d</w>
od ds</w>
anx iety</w>
or ly</w>
add ress</w>
tro p
in stitu
ro b
produc ing</w>
plac ement</w>
posi tively</w>
Inde ed</w>
adequ ate</w>
random ly</w>
Pub Med</w>
c AMP</w>
resp ective</w>
wor ds</w>
fi br
Esch er
re z</w>
cl onal</w>
th re
in ate</w>
chlor ide</w>
issu es</w>
meth od
metast ases</w>
su itable</w>
fl av
min or</w>
coun ter
experi enced</w>
no de</w>
Escher ichia</w>
compar ing</w>
em ission</w>
U T
recomm ended</w>
im en</w>
substanti al</w>
ic illin</w>
an a</w>
caten in</w>
dog s</w>
superi or</w>
an tim
chrom e</w>
hydrophob ic</w>
fib ers</w>
u ary</w>
nucle i</w>
ecti ous</w>
ca the
syn th
ultras ound</w>
aut om
G C
equ ili
CD 2</w>
dec ision</w>
am ylo
a f</w>
ischem ic</w>
ca ro
f und
mut agen
detail ed</w>
P E</w>
saf e</w>
ari a</w>
os in</w>
transfer red</w>
prote in
appro ved</w>
nanop articles</w>
iso forms</w>
M M
s a
medi ately</w>
L O
medi ates</w>
to ols</w>
monit ored</w>
ent ally</w>
ic king</w>
du al</w>
de generation</w>
quanti fied</w>
z e
expla ined</w>
mo tion</w>
analy ze</w>
og ly
M on
i ent</w>
diff usion</w>
pa ired</w>
read y</w>
ath i
phosph olip
bu il
load ing</w>
sal t</w>
cycl ic</w>
1 H</w>
succ ess</w>
nur sing</w>
establ ish</w>
d ly</w>
subj ect</w>
d a</w>
i te
t ant</w>
aro se</w>
E uro
restric ted</w>
inser tion</w>
1 α</w>
st rep
ran ial</w>
ad op
Ex pression</w>
G lu
tr aff
ex ci
infarc tion</w>
S al
high ligh
RA S</w>
I N</w>
eff ectively</w>
a x</w>
E ach</w>
ec onomic</w>
F r
N A
ent rez</w>
seg ment</w>
v ag
end oscop
de x
zin c</w>
A g
di ver
ar s</w>
di a</w>
valid ated</w>
vari ations</w>
ang le</w>
teri c</w>
SN Ps</w>
expl ored</w>
IN T
epide mi
p tom
M ore</w>
ic h
sp ectively</w>
new ly</w>
promo ting</w>
om er
ey es</w>
S K
prote as
restric tion</w>
solu tions</w>
k et
F O
antibio tic</w>
k in</w>
is ation</w>
st ance</w>
On ly</w>
d ental</w>
defin i
achi eve</w>
lim it</w>
conform ational</w>
por t</w>
se iz
oc om
prolifer ative</w>
tradi tional</w>
M E</w>
E N</w>
us ual</w>
fe ed
trans formed</w>
up stream</w>
4 C</w>
invol ves</w>
ser ve</w>
arcom a</w>
Simil arly</w>
co sts</w>
an dro
pre feren
I f</w>
β 1</w>
ri se</w>
Th ir
physi ology</w>
h r</w>
shap e</w>
pol yp
Me dic
oc ular</w>
activ ator</w>
ac ent</w>
networ ks</w>
ac ted</w>
1 b</w>
ste ms</w>
gre at</w>
pur ch
A β</w>
rel ax
M B</w>
Tw enty</w>
trans duction</w>
home ostasis</w>
polymorph isms</w>
cycl in</w>
P o
epti de</w>
read ing</w>
enti re</w>
O p
si an</w>
R T
h our</w>
clus ters</w>
cell ent</w>
Cl 2</w>
sum mar
El ec
un treated</w>
ste ad</w>
glutam ate</w>
gener ative</w>
z ym
fe ature</w>
equi valent</w>
M ar
ra dical</w>
rele ased</w>
ch ains</w>
sch iz
gre en</w>
PA GE</w>
Eff ects</w>
p .
path ogenic</w>
bron ch
abil ities</w>
h tt
separ ate</w>
c ent</w>
G u
cytoplas m</w>
injur ies</w>
p ly</w>
I D</w>
v als</w>
cytotox ic</w>
k ne
Ac cor
dis play</w>
w t</w>
leuk in</w>
induc ing</w>
cle ar
anti oxidant</w>
H ER
enzym atic</w>
con sequences</w>
T P
orig inal</w>
H S</w>
ELI SA</w>
repres ent
M in
C O</w>
inhibi ting</w>
athe ro
D L
fib er</w>
thor ac
ti d</w>
V i
algorith m</w>
reduc es</w>
mat uration</w>
am ycin</w>
In cre
m mol</w>
ble eding</w>
sensi ti
adj acent</w>
no d
cyste ine</w>
on ce</w>
f used</w>
bene fits</w>
pl atin</w>
separ ation</w>
mag nit
p 6</w>
ess els</w>
te tr
tre at</w>
ell ing</w>
micro scope</w>
S V</w>
ten tly</w>
bro ad</w>
meas uring</w>
progen it
secti onal</w>
H O</w>
pul se</w>
so phila</w>
M olecular</w>
un ding</w>
M g
x en
ubiqu itin
for ward</w>
BM I</w>
oph ren
n umerous</w>
N G</w>
w ound</w>
ca using</w>
u tion
od on
aden ocarcin
psych ological</w>
n ull</w>
G I
ac t
tin ib</w>
intraven ous</w>
psy cho
erro r</w>
disco very</w>
ab err
includ es</w>
I GF</w>
Neu ro
cho ice</w>
z one</w>
vari ed</w>
N T</w>
S 4</w>
im mediately</w>
2 a</w>
N 2</w>
port un
ve h
enhanc ement</w>
Dro sophila</w>
k ill
ex cellent</w>
contribu tes</w>
yp e</w>
perox ide</w>
electrophore sis</w>
v essels</w>
ur ys
hybri d</w>
tin gs</w>
F e</w>
f ore
vesi cles</w>
ul um</w>
par ts</w>
discus s</w>
F ac
de oxy
HC C</w>
plas tic</w>
fr ame
sign alling</w>
luc iferase</w>
bloc king</w>
po orly</w>
H ist
w al
acti c</w>
Im port
Meth ods</w>
frac ture</w>
AT Pase</w>
ma x</w>
clear ance</w>
A F</w>
M Y
Con tro
sens ory</w>
m o</w>
te tra
prec ip
accompan ied</w>
yl ase</w>
Tak en</w>
h und
coupl ing</w>
I s</w>
Pre vious</w>
org ans</w>
vol tage</w>
es sion</w>
neg atively</w>
O c
fol l
integr ated</w>
od e</w>
D 3</w>
met a</w>
co ated</w>
inter vals</w>
ver sely</w>
rang ing</w>
adolesc ents</w>
com posed</w>
Fol lowing</w>
initi ally</w>
ach ment</w>
V s</w>
end omet
res us
respon sive</w>
inf ectious</w>
gra ph
biosyn thesis</w>
P a
ti t
trans plant</w>
esophag eal</w>
de si
pol ic
5 B</w>
el u
ve in</w>
path y</w>
reli able</w>
vir ul
vol un
Rec ently</w>
fol ding</w>
app ed</w>
nit ro
reconstruc tion</w>
phen yl</w>
pharmac ological</w>
sc anning</w>
re ached</w>
enco ded</w>
bene ficial</w>
ang io
S el
D H</w>
H M
it ations</w>
G r
substitu tion</w>
l um
b ot
frequ encies</w>
es tions</w>
vel op
mT OR</w>
barri er</w>
pl at
Euro pe
ang u
pres enting</w>
load ed</w>
medic ation</w>
ill us</w>
Simil ar</w>
J an
conc ept</w>
w in
determin ing</w>
re combination</w>
athi one</w>
recomm end
ex ist</w>
abund ance</w>
clu sions</w>
s .
neon atal</w>
partic le</w>
op portun
D el
cor tic
su stained</w>
st rom
alb umin</w>
oglob in</w>
H is</w>
hem orrh
DT A</w>
S r
chym al</w>
oug h</w>
contro lling</w>
the ore
integr ation</w>
be aring</w>
micro M</w>
E T</w>
tu mo
allow ing</w>
lap aro
R S</w>
isol ation</w>
glyc erol</w>
sen sus</w>
be ads</w>
morph ological</w>
hist ological</w>
h ome</w>
transl ational</w>
lin k</w>
A 5</w>
Com pared</w>
main tain</w>
hi p</w>
g ent</w>
precurs or</w>
commun ication</w>
gran ul
c is
g ang
B o
B ac
smo oth</w>
regi onal</w>
ef ly</w>
magnit ude</w>
tr unc
di min
S te
at rial</w>
d ase</w>
Sta tes</w>
is ing</w>
influ enced</w>
memb er</w>
sulf ate</w>
psych iatric</w>
expan sion</w>
loc i</w>
qu estion</w>
al ize</w>
fibri ll
to p</w>
purch ased</w>
ane urys
vi ol
p ic
cl one</w>
om ics</w>
H .</w>
ep is
plasm ids</w>
dop amine</w>
physici ans</w>
cal e</w>
al ready</w>
tu be</w>
attenu ated</w>
si des</w>
rob ust</w>
Ch il
o ids</w>
schiz ophren
com it
ben ign</w>
wor king</w>
olig om
antibio tics</w>
synth ase</w>
sub set</w>
S uch</w>
se min
W il
cytotox icity</w>
p il
N AD
it ude</w>
k 1</w>
flu x</w>
st orage</w>
li es</w>
tel om
a ine</w>
child hood</w>
L if
b s</w>
ne o
carr ying</w>
predomin antly</w>
He La</w>
al i
it ol</w>
im er</w>
peri ods</w>
exten sion</w>
scho ol</w>
in struc
E D</w>
repe at</w>
v ate</w>
intr insic</w>
ha z
1 p</w>
HC l</w>
r in
vec tors</w>
T .</w>
en ia</w>
ad y</w>
j ection</w>
M MP</w>
In c</w>
re activity</w>
E DTA</w>
so ft</w>
k b</w>
S er</w>
be d
residu al</w>
i bility</w>
homolog ous</w>
7 A</w>
adi p
st om
tran s</w>
fung al</w>
Europe an</w>
gra m</w>
mat ter</w>
effici ently</w>
od es</w>
circul ating</w>
ic ated</w>
S oci
E M
rang ed</w>
L T
roph y</w>
su b</w>
gen otypes</w>
biomar kers</w>
ei ved</w>
re tic
tion ed</w>
gastro intestinal</w>
ell ar</w>
in n
for c
sc aff
sim ulations</w>
i ents</w>
f ill
compl ement</w>
docum ented</w>
a ph
recru ited</w>
y r</w>
scre en</w>
ac idi
al anine</w>
b lue</w>
inter acts</w>
n ia</w>
B D
f ing
conclud ed</w>
demon strates</w>
Gi ven</w>
inc id
assign ed</w>
rou tine</w>
CN S</w>
oc ity</w>
adju vant</w>
ap e
bil ateral</w>
re ferred</w>
B lo
RN A
LD L</w>
splic ing</w>
ampl itude</w>
ati tis</w>
mac ro
H F
av y</w>
r a</w>
chol ine</w>
simult aneously</w>
compreh ensive</w>
S c
label ing</w>
refl ect</w>
identi ty</w>
en ic</w>
plan ted</w>
characteri ze</w>
W or
an ese</w>
F I
res er
d yl
effec tor</w>
sur faces</w>
ta u</w>
typ ically</w>
A m
R h
frac tures</w>
it self</w>
Addi tional</w>
heal ing</w>
transcrip t</w>
dep ending</w>
sampl ing</w>
rever sible</w>
G a
v ents</w>
comp ens
de ep</w>
aqu eous</w>
epith elium</w>
O ther</w>
f lo
sup pressor</w>
H L</w>
hypo thesized</w>
e ase</w>
A B</w>
tren d</w>
enro lled</w>
cir cum
hybridi zation</w>
stimul us</w>
it us</w>
G ol
depend s</w>
in du
mus cles</w>
polar ization</w>
os al</w>
we ak</w>
emergen cy</w>
S R</w>
process ed</w>
dec line</w>
exc ess</w>
re tention</w>
3 a</w>
bri um</w>
A F
r ho
M any</w>
consis ting</w>
feed back</w>
flu or
se l</w>
challeng es</w>
tic ity</w>
al is</w>
PE T</w>
ne t</w>
itud inal</w>
cop y</w>
o virus</w>
2 -</w>
in ner</w>
behavi ors</w>
neuro logical</w>
dehydro genase</w>
sp i
emb er</w>
charg ed</w>
ar thro
heterogene ity</w>
manif est
F our</w>
kne e</w>
cell ul
knock out</w>
K D</w>
car bo
I V
a ud
top ic</w>
ex amin
b ing</w>
a ug
G AT
prob ability</w>
continu ed</w>
it ated</w>
preven ted</w>
ne arly</w>
S V
C R</w>
cyto chrome</w>
glyc er
bacteri um</w>
- 3</w>
simil arity</w>
l an
utili zed</w>
per sistent</w>
clos ed</w>
E p
angi ogenesis</w>
vari ance</w>
con sensus</w>
pre operative</w>
paren ts</w>
C u</w>
ir ation</w>
con genital</w>
sp or
Ch ang
fav or
suscepti ble</w>
inter leukin</w>
phosph ati
frame work</w>
si ties</w>
sol ute</w>
vel ocity</w>
establ ish
D M
in ning</w>
ill ness</w>
ol ds</w>
disrup tion</w>
incorpor ation</w>
sol vent</w>
en se</w>
del ay</w>
paren tal</w>
NS CLC</w>
w estern</w>
S H
coun t</w>
d ar
ME M</w>
f re
B cl</w>
resol ved</w>
glut athione</w>
exc re
o id
coll ection</w>
ser a</w>
bur den</w>
qu estions</w>
u red</w>
im plantation</w>
b ran
air way</w>
h am
prob es</w>
ch amb
co efficient</w>
I D
occ up
advant age</w>
CA M</w>
i od
R as</w>
B s</w>
per form</w>
A g</w>
ro se</w>
compl ication</w>
lys ine</w>
cytom etry</w>
lys ates</w>
normal ized</w>
suppor ting</w>
sil encing</w>
follow s</w>
I L
opoi etic</w>
ten ts</w>
TH E</w>
f ig
bl otting</w>
eth yl</w>
r it
electro nic</w>
T otal</w>
ob ese</w>
cardi omy
radi otherapy</w>
t i</w>
el ong
end ocrine</w>
in os
es ter</w>
µ g</w>
IC 5</w>
veh icle</w>
wor kers</w>
gu e</w>
L abor
distribu ted</w>
m os
Fig ures</w>
dep th</w>
dr in
tumo urs</w>
NO S</w>
cy s
C M</w>
sat ur
consis ted</w>
ero bic</w>
pregn ant</w>
U p
view s</w>
e asi
nan o
pro ved</w>
po t
sub types</w>
AC T
pers on
c ulation</w>
F 3</w>
dilu tion</w>
Ger many</w>
d ox
am mon
Cd c
1 D</w>
ad es</w>
ro tic</w>
v ance</w>
p ene
otrop ic</w>
p um
ac e
N R
hippocamp al</w>
cur ves</w>
attribu ted</w>
hospit als</w>
norm ally</w>
ori entation</w>
activ ates</w>
fron tal</w>
exis tence</w>
sc at
cor ne
h ment</w>
htt p</w>
P V
evol ution
inter acting</w>
acchar ide</w>
P har
esti mates</w>
c entr
minim um</w>
tre ating</w>
modul ate</w>
lim b</w>
seg ments</w>
D .</w>
gl omer
def ine</w>
he imer</w>
per sis
arch i
syn erg
Al z
cl asses</w>
i ther</w>
a p</w>
respon si
mo stly</w>
id ation</w>
insig hts</w>
inten sive</w>
as tic</w>
in clusion</w>
Ar ab
man ip
under go</w>
behavi our</w>
pharmac o
mo bility</w>
ex clu
H sp
ca re
bl ast</w>
c oc
is ons</w>
shor ter</w>
reg ard</w>
E GF</w>
P P</w>
in ts</w>
Con sistent</w>
transpor ter</w>
phosph o
dat as
integr in</w>
AK T</w>
upreg ulated</w>
assi s
val ve</w>
pro s
eu kary
var ying</w>
serv ice</w>
al izing</w>
sim ulation</w>
ron ic</w>
dis per
hund red</w>
di ol</w>
identi fying</w>
qual it
R R</w>
G E
s ome
demonstr ating</w>
an ded</w>
MATERI ALS</w>
he avy</w>
ti no
Al so</w>
µ M</w>
dev ices</w>
Import antly</w>
phenomen on</w>
isi tion</w>
hydro lysis</w>
moti fs</w>
harv ested</w>
st o
mam m
path o
go al</w>
out put</w>
A 4</w>
oper atively</w>
A V
ste re
uter ine</w>
In f
differenti ally</w>
ne ur
Alz heimer</w>
trans membrane</w>
in sec
M il
om al
prog ress</w>
investig ations</w>
h is</w>
correc t</w>
dilu ted</w>
assi um</w>
bi as</w>
vi s
op a
p as
ath s</w>
HP V</w>
Ch ar
P e
ant a</w>
acet ylation</w>
tum orig
SN P</w>
Qu anti
Supplem ental</w>
V ari
correl ations</w>
ac in</w>
dis charge</w>
hom ology</w>
bo x</w>
impro ving</w>
th ers</w>
no des</w>
vacc ination</w>
olig onucle
g i</w>
ph ases</w>
li ve</w>
HB V</w>
ove red</w>
Elec tro
poten cy</w>
ra ys</w>
d g
protoc ols</w>
fix ation</w>
ser ious</w>
no ise</w>
mit otic</w>
gi ve</w>
icro bial</w>
Sur g
H ep
au re
h ing</w>
macroph age</w>
am ph
path ogens</w>
argin ine</w>
a wa
immun ore
enti a</w>
at omic</w>
fr acti
cri p
or i</w>
low est</w>
st art</w>
U l
sh ip</w>
dim en
E valu
h abil
J .</w>
Jan uary</w>
t 1</w>
adenocarcin oma</w>
M s</w>
De velop
w er</w>
elec tric</w>
dis sociation</w>
libr ary</w>
adap tive</w>
E E
se as
nur ses</w>
aden osine</w>
in form
v acu
at ly</w>
G s</w>
m apping</w>
rec overed</w>
T A</w>
tem plate</w>
initi ated</w>
worl d</w>
Ch em
pl ying</w>
path ogen</w>
s s
multi variate</w>
interfe ron</w>
CR C</w>
om ycin</w>
el ic
m ented</w>
W nt</w>
ar d
som atic</w>
func tioning</w>
ta in
el ds</w>
sil ic
ste ady</w>
sum mary</w>
ill ance</w>
Immun o
repres ented</w>
gre atly</w>
spe ed</w>
Sign ific
pl ay
par as
A no
m RNAs</w>
de position</w>
ris ks</w>
implem entation</w>
si es</w>
comp ut
recor ds</w>
micro bial</w>
set tings</w>
ver th
evid ent</w>
advant ages</w>
verth eless</w>
con sequence</w>
E 3</w>
P H
pres um
o x</w>
T e
C V
sel ectivity</w>
no t
par asi
classi cal</w>
e de
def ective</w>
am ous</w>
on ate</w>
cere b
n ar
op sis</w>
stand ardi
enti ally</w>
ou ter</w>
rhe um
induc ible</w>
amylo id</w>
eff orts</w>
consider able</w>
m u
ow el</w>
co don</w>
emb ol
me g
T 4</w>
b ular</w>
W e
Lif e</w>
ur ia</w>
o side</w>
i k
immun ob
es sel</w>
U K</w>
con comit
pers ons</w>
secre ted</w>
b yp
ir ing</w>
N C</w>
wor k
T ype</w>
ro t
at um</w>
od ynamic</w>
valid ation</w>
enric hment</w>
lip ids</w>
le p
lim iting</w>
sol ved</w>
expl an
direc tion</w>
P artic
gram s</w>
k ly</w>
l a</w>
predic tors</w>
t ac
u itary</w>
in active</w>
c ut
reg ular</w>
D ep
M K
od er
chrom osomal</w>
ag e
over l
N on
cl ar
pur ification</w>
R adi
A K</w>
dr ich</w>
H PLC</w>
e in</w>
insig ht</w>
ta king</w>
C o</w>
pot assium</w>
mutagen esis</w>
acr yl
ni b</w>
n oc
l in</w>
O 1</w>
lin king</w>
acqu isition</w>
ex ogenous</w>
Di ag
U se</w>
es te
H is
auto immune</w>
X 1</w>
ev oked</w>
im e</w>
ne ither</w>
phen otypic</w>
ha pl
si c
In stitute</w>
lim itations</w>
reproduc tive</w>
b ands</w>
gli al</w>
chec k
D D
ep igen
mo tility</w>
duc t</w>
ch im
T M
S K</w>
res h</w>
de generative</w>
be ta
cytos k
C K</w>
favor able</w>
T F
U D
h is
l ost</w>
ish er</w>
proteas ome</w>
compar ative</w>
aim s</w>
preven ting</w>
schizophren ia</w>
pl ex
polym er</w>
in direct</w>
sper m</w>
Jap an</w>
hyper troph
re modeling</w>
Al drich</w>
rele vance</w>
coun ts</w>
cytos olic</w>
G ene</w>
PK C</w>
exc it
dr y</w>
Me an</w>
dendri tic</w>
elec trical</w>
F unc
b ic
func tion
wh e
clin ic</w>
suppor ts</w>
sp read</w>
in put</w>
pres ents</w>
B L
star ting</w>
v ated</w>
adap tation</w>
HD AC
we ak
mi RNAs</w>
sc an</w>
plas ty</w>
c ut</w>
abs ent</w>
C F</w>
inte resting</w>
pro phyl
fr u
sus pen
arteri es</w>
rec tomy</w>
assis ted</w>
et ric</w>
l is
colon y</w>
conc ep
aure us</w>
regul ators</w>
E L
My c</w>
immunoprecip itation</w>
S Y
p ing</w>
t te</w>
st anding</w>
intr a</w>
R ab
exclud ed</w>
Col l
al ve
habil itation</w>
n ational</w>
ten ing</w>
i onic</w>
m ol
har b
oug ht</w>
S W
I P
health care</w>
combin ations</w>
HI F</w>
loc ations</w>
potenti als</w>
olog ists</w>
stero id</w>
centrifug ation</w>
Sci entific</w>
integr ity</w>
perc eived</w>
prec ise</w>
don ors</w>
practi ces</w>
sub type</w>
s chem
end s</w>
dor sal</w>
quanti fication</w>
C H</w>
log istic</w>
ic k</w>
a er
e IF
cis platin</w>
P ur
traff icking</w>
spl een</w>
mam mary</w>
AD P</w>
N o
recommend ations</w>
en tero
descri bes</w>
bu ff
at ories</w>
ge al</w>
bec ame</w>
. 2</w>
G H</w>
m arg
Pri mary</w>
myel oid</w>
mi RNA</w>
wh om</w>
v essel</w>
pro st
1 β</w>
carri ers</w>
se m
hyperten sive</w>
ca vity</w>
cryst all
por tion</w>
yiel ded</w>
e as
le y</w>
agg ressive</w>
Compar ison</w>
cre ated</w>
su g
upreg ulation</w>
re mark
S anta</w>
be y
Phy si
Afr ican</w>
An im
promo ters</w>
pers onal</w>
dem ographic</w>
spec ial</w>
fi elds</w>
neutr al</w>
intro duction</w>
us ers</w>
m ell
ogra ft</w>
S equ
B ar
n ers</w>
R 3</w>
sel ectively</w>
S cale</w>
stabil ization</w>
ot omy</w>
do x</w>
il ls</w>
al ities</w>
t ance</w>
av oid
le uc
el et
ten sin</w>
iso form</w>
long itudinal</w>
Ser um</w>
ol ed</w>
B A</w>
it ory</w>
bey ond</w>
n one</w>
perme ability</w>
chrom osomes</w>
correl ate</w>
temper atures</w>
her in</w>
S F
he ight</w>
respon d</w>
ten sion</w>
de aths</w>
st ored</w>
nas al</w>
az ol
he aring</w>
theore tical</w>
ede ma</w>
supernat ant</w>
1 c</w>
per itoneal</w>
Au str
g els</w>
pit uitary</w>
re arrang
re pression</w>
z en</w>
instruc tions</w>
SC C</w>
prepar ations</w>
equili brium</w>
fem oral</w>
eti ology</w>
C enter</w>
substanti ally</w>
pro min
ch e
tr ue</w>
al ways</w>
ul c
per tur
nutri tion</w>
S M</w>
ad mission</w>
yn geal</w>
cr y
cop per</w>
traum atic</w>
h er</w>
parame ter</w>
T i
L a
en al</w>
G re
dem entia</w>
l ined</w>
correc tion</w>
m e</w>
b a
carcin omas</w>
consi sts</w>
F isher</w>
utili zation</w>
cl im
hippocamp us</w>
d ates</w>
di alysis</w>
simult aneous</w>
medi al</w>
represent ative</w>
extrem ely</w>
ot or</w>
EC s</w>
AM L</w>
m m
T C</w>
virul ence</w>
gl ass</w>
r hyth
D MS
T B</w>
compu ter</w>
in stead</w>
bon ds</w>
H 4</w>
youn ger</w>
di ly</w>
cy te</w>
cir culation</w>
resour ces</w>
I C</w>
nic o
St atis
r y</w>
ch on
adhe rence</w>
re generation</w>
recei ve</w>
scre ened</w>
rec i
correl ates</w>
Y 1</w>
vi c</w>
lymph ocyte</w>
i res</w>
1 R</w>
rever sed</w>
anes thesia</w>
phosph o</w>
ari ties</w>
reve als</w>
bel ie
i asis</w>
ecti ves</w>
N P
col or</w>
S ampl
T um
amin o
po ol</w>
antim icrobial</w>
influ ences</w>
squ amous</w>
abund ant</w>
C TION</w>
interpre tation</w>
O x
op io
assess ing</w>
C L</w>
RA F</w>
enh ances</w>
pro per</w>
opath ic</w>
er b
ens ure</w>
mesen chymal</w>
line age</w>
a emia</w>
th in</w>
bel ong
fr ame</w>
im mobil
ati nib</w>
expl o
T O
pre lim
s ought</w>
G R
surg e
im plant</w>
car til
f resh</w>
m t
E P
g et
volun te
Z n</w>
le aves</w>
sy st
ap er
agon ists</w>
archi tec
fund am
de part
i or</w>
b owel</w>
Austr al
stimul ate</w>
decre asing</w>
Ac ti
GT P</w>
d ents</w>
N S</w>
fil ms</w>
S truc
pos es</w>
D F
os c
G R</w>
anti viral</w>
B SA</w>
st res
em bed
muc osal</w>
lo g</w>
ren e</w>
5 C</w>
p .</w>
r un
STAT 3</w>
elev ation</w>
satisfac tion</w>
lay ers</w>
im id
easi ly</w>
ici ans</w>
T NF
inn ate</w>
L H</w>
tu ally</w>
an o
op es</w>
ap plic
epigen etic</w>
Fi ve</w>
conf ig
symp tom</w>
l angu
epider mal</w>
compl icated</w>
caro tid</w>
h e</w>
st ment</w>
acc o</w>
HER 2</w>
en able</w>
thorac ic</w>
tra its</w>
c am
homo zygous</w>
is es</w>
leth al</w>
cen tro
fl ic
ec h</w>
pig s</w>
main taining</w>
replac ed</w>
DMS O</w>
defic its</w>
adv ances</w>
F GF
tub ulin</w>
al li
disco vered</w>
H u
P oly
nucle otides</w>
oc clusion</w>
ste nosis</w>
id opsis</w>
ogra m</w>
kin son</w>
nit ric</w>
bloc ks</w>
C ul
reg imen</w>
hist opath
mar k</w>
iz ations</w>
te e</w>
Gol gi</w>
dist urb
N K
su med</w>
V ir
mell itus</w>
m id</w>
men ing
gli a</w>
a id</w>
st ay</w>
symptom atic</w>
an k
b is
B P1</w>
cre atin
Z e
emerg ing</w>
valid ity</w>
ic ans</w>
Arab idopsis</w>
consi der</w>
vi sc
T ogether</w>
fil ter</w>
intro duc
w .
deple ted</w>
cle a
no te</w>
F 4</w>
Evalu ation</w>
Sr c</w>
byp ass</w>
ag ain</w>
K 5</w>
att achment</w>
S ET
d in
ga p</w>
C p
see m</w>
mo un
im mediate</w>
hetero zygous</w>
L V</w>
av oid</w>
epilep sy</w>
hemat opoietic</w>
Sy stem</w>
plat form</w>
neuro n</w>
in stability</w>
muc osa</w>
S 6</w>
T RI
C ru
invol ve</w>
immun oglob
T o
anal ge
cad herin</w>
In v
ma p</w>
susp ected</w>
cere visi
Blo od</w>
re dox</w>
er ical</w>
li pos
AP P</w>
C are</w>
S A
mo thers</w>
sp ind
on as</w>
K ey
abl ation</w>
en abl
dy e</w>
heterogene ous</w>
ul ating</w>
M HC</w>
micro g</w>
Chil d
cerevisi ae</w>
A ut
u tility</w>
prelim inary</w>
achi ev
N Ps</w>
H F</w>
ab solute</w>
ac ter</w>
simil arly</w>
me t</w>
eff lu
ol e
ul monary</w>
hypo thalam
erro rs</w>
inj ections</w>
G ra
Phar mac
immunos up
un able</w>
no unc
TI NG</w>
ant um</w>
reli ability</w>
sol ub
relax ation</w>
sequenc ed</w>
perox idase</w>
ar b
relap se</w>
surro unding</w>
v ic
ww w.
C ardi
Bri efly</w>
categ ories</w>
g ir
ay er</w>
ch ro
M c
curren ts</w>
phyl oc
k ade</w>
enco des</w>
g old</w>
ch est</w>
M C</w>
subst ance</w>
junc tion</w>
chamb er</w>
adsor ption</w>
gener ating</w>
In tern
re tino
ra ised</w>
ne ed
ure a</w>
Ne vertheless</w>
fe wer</w>
orig in
H T
no ver</w>
compar isons</w>
op ic</w>
res ear
sp ine</w>
al in</w>
d yst
S F</w>
ri le</w>
antagon ists</w>
U L
H a
S tre
l ess
re habilitation</w>
S outh</w>
clos ure</w>
l amin
rea dily</w>
As sess
evalu ating</w>
I K
on ical</w>
Y 2</w>
g ated</w>
pl anning</w>
struc tive</w>
stimul ating</w>
require ment</w>
or b
Un der</w>
reas ons</w>
ec al</w>
Ab s</w>
spectr al</w>
μ L</w>
j ust</w>
phil ic</w>
f et
METHO D</w>
struc tured</w>
sens or</w>
s ac
ga ve</w>
f ever</w>
tryp sin</w>
D MEM</w>
trac he
en erg
cys tic</w>
e x</w>
el ici
syst olic</w>
vi able</w>
inf ant</w>
E arly</w>
m enti
an omal
AI DS</w>
G al
oxid ase</w>
K it</w>
epit ope</w>
P PAR
h and
Ano ther</w>
dar k</w>
pl ement</w>
RO DU
Cru z</w>
3 T</w>
cover age</w>
gly col
3 -</w>
t RNA</w>
lim its</w>
hydr ate</w>
pl an</w>
it on</w>
str ati
Key words</w>
physici an</w>
evolution ary</w>
ubiquitin ation</w>
func tionally</w>
f ile</w>
out side</w>
valu able</w>
abol ished</w>
res em
lipo protein</w>
ti co
RNA i</w>
c is</w>
Me as
alve olar</w>
pre treatment</w>
recip ients</w>
T ra
surve illance</w>
C re</w>
As sociation</w>
emo tional</w>
s ent</w>
cont amin
PT EN</w>
osc ill
o ts</w>
elet on</w>
ma kes</w>
o ther
K 4</w>
l ist</w>
F BS</w>
p 4</w>
nounc ed</w>
sp ring</w>
gu t</w>
su ic
c os
N CT
qualit ative</w>
supplem ental</w>
arr hyth
S ing
sh ared</w>
ch os
pla que</w>
ptom atic</w>
cen ters</w>
concomit ant</w>
calcul ations</w>
tur nover</w>
embry o</w>
f 2</w>
Th en</w>
repor ting</w>
micro array</w>
phosphati dyl
inter ference</w>
microtub ule</w>
emph asi
ap ical</w>
me d
ow s</w>
ad renal</w>
ock et</w>
es ter
roug h</w>
RODU CTION</w>
mon ol
stra diol</w>
acidi c</w>
2 H</w>
6 B</w>
gu ide</w>
b at
I denti
ex act</w>
consis tently</w>
concer ning</w>
excre tion</w>
X 2</w>
ex ists</w>
vi ri
s 1</w>
er o</w>
erc ial</w>
g 1</w>
comm ercial</w>
require ments</w>
C as
J NK</w>
blin d</w>
re tained</w>
p yl
ox idi
at tit
os in
re ach</w>
nam ely</w>
M V</w>
ic als</w>
re frac
ol ys
can onical</w>
as ingly</w>
me ta
dig estion</w>
langu age</w>
ex ac
ucle ar</w>
c ess
cor tis
N ext</w>
si zes</w>
INT RODUCTION</w>
a e
ud es</w>
v a</w>
in her
intr am
deli vered</w>
Contro l</w>
analy tical</w>
T ab
ogen icity</w>
hi bits</w>
H2 O2</w>
R R
re tri
un ifor
te st
CM V</w>
H I</w>
I .</w>
r ural</w>
ethyl ene</w>
M it
P B
with draw
perc eption</w>
le g
ver ified</w>
re agent</w>
AM PK</w>
Partic ip
ne igh
der ing</w>
compar tment</w>
crip t</w>
micro grams</w>
qu ad
supplem entation</w>
f 1</w>
ech ocardi
glyco protein</w>
re in
in ter</w>
vi sible</w>
neph ro
auth or</w>
urb an</w>
immuno fluorescence</w>
sal iv
R 4</w>
gen omes</w>
cathe ter</w>
T M</w>
este rone</w>
cartil age</w>
FL AG</w>
com posite</w>
n c
promo ted</w>
gene tically</w>
N s</w>
sp ac
p ure</w>
il ateral</w>
electro de</w>
substitu ted</w>
ta g</w>
Bios ci
smo kers</w>
sh am</w>
d wide</w>
di vision</w>
ig ible</w>
align ment</w>
he ad
cir cu
Thir ty</w>
complem entary</w>
compar t
alph a
lin kage</w>
de m</w>
dimin ished</w>
colon ies</w>
inos itol</w>
D Cs</w>
pro nounced</w>
S w
thromb in</w>
lact ate</w>
om at
complex ity</w>
dis h</w>
satur ated</w>
str anded</w>
Intern ational</w>
dis ability</w>
V I
bloc kade</w>
Ph osph
oper ating</w>
2 b</w>
yp ical</w>
wa vel
practi cal</w>
aggreg ates</w>
T K
e ting</w>
incre asingly</w>
glut amine</w>
d s
speci al
suppres s</w>
AI M</w>
pi g</w>
R B
com pati
P ath
sp in</w>
promin ent</w>
trigg ered</w>
endoscop ic</w>
g ate</w>
umb ar</w>
adi pose</w>
diff use</w>
o ffer</w>
Multi ple</w>
C 4</w>
experi ences</w>
M at
T G
Co A</w>
M et</w>
Techn ologies</w>
R I</w>
ch ape
u n</w>
strom al</w>
p ended</w>
unc er
W ith
menti oned</w>
en coun
un usual</w>
devi ation</w>
b rom
tr ic
neutroph ils</w>
Ac ute</w>
sero ton
termin ation</w>
fundam ental</w>
ad a</w>
protec ted</w>
ag ne
cir rho
acryl amide</w>
H SP
standardi zed</w>
del ta</w>
is ot
nat al</w>
dec i
exc itation</w>
fil tration</w>
an atom
NCT 0</w>
venti lation</w>
atic s</w>
log ic</w>
prop ag
predic tor</w>
E GFP</w>
fro zen</w>
S D
contrac tion</w>
polic y</w>
suc rose</w>
R .</w>
requ iring</w>
poly clonal</w>
The ir</w>
op tic</w>
Dis ease</w>
tob acco</w>
e y</w>
M M</w>
f ur
S ep
fal se</w>
phen ol</w>
angi ography</w>
op tions</w>
ha ir</w>
hepat ocytes</w>
conj unc
R ho
MC F</w>
af f</w>
atom s</w>
hormon es</w>
N r
wom an</w>
resus pended</w>
repres enting</w>
re perfusion</w>
de pri
V al
sh RNA</w>
reduc tase</w>
sing ly</w>
pl er</w>
op posite</w>
cul ti
p ren
ex hibits</w>
thrombo sis</w>
pres sed</w>
c ade</w>
cellul ose</w>
progenit or</w>
es es</w>
or dered</w>
mil lion</w>
high light</w>
ob struction</w>
O ut
worl dwide</w>
br ation</w>
dim ers</w>
volum es</w>
tumorig en
diff ic
mit tee</w>
arti ficial</w>
M g</w>
G ly
pro ton</w>
n al</w>
ad mitted</w>
vacc ines</w>
le af</w>
Bi o</w>
embed ded</w>
Jap anese</w>
sh are</w>
de pressive</w>
techn ical</w>
PC s</w>
on line</w>
0 A</w>
c 1</w>
immunohisto chemistry</w>
e th</w>
plate lets</w>
4 E</w>
vascul ar
gli oma</w>
chang ing</w>
p ocket</w>
method ology</w>
D G</w>
ST UD
re d
princ ip
particip ate</w>
environ ments</w>
STUD Y</w>
plas ticity</w>
umin escence</w>
obser ve</w>
ul t</w>
L D</w>
GAB A</w>
pos sess
ma tely</w>
par a
incorpor ated</w>
deriv ative</w>
ac etic</w>
enhanc ing</w>
sci entific</w>
elucid ate</w>
coag ulation</w>
0 s</w>
refrac tory</w>
resc ue</w>
1 -</w>
fol ded</w>
hemorrh age</w>
dram atically</w>
chon dro
guid ed</w>
exc e
y le</w>
paras ite</w>
rest ored</w>
sk ills</w>
x 1</w>
con focal</w>
predic ting</w>
biop sies</w>
v an
rab bits</w>
ox y</w>
c ation</w>
volunte ers</w>
H em
competi tive</w>
manifest ations</w>
il ed</w>
G M</w>
AP 1</w>
ul ative</w>
r RNA</w>
his ti
cap illary</w>
chol in
overexpres sed</w>
AR T</w>
carri er</w>
oc ellular</w>
t os
c at</w>
P sy
dec om
Tr iton</w>
H ence</w>
y ces</w>
Accor ding</w>
f ab
contro ver
cont acts</w>
esc ent</w>
con stra
D op
perc ep
malign ancies</w>
secre tory</w>
bro ad
hep arin</w>
4 a</w>
compl i
mal aria</w>
id osis</w>
str ation</w>
bra fish</w>
per spective</w>
seiz ures</w>
ECTI ON</w>
mo vements</w>
HE K2</w>
infil tration</w>
cal i
ir radi
professi onal</w>
z er</w>
st aff</w>
F ox
de mic</w>
B I
di ast
ell ed</w>
e stradiol</w>
B R</w>
la p</w>
test osterone</w>
visu alized</w>
d ingly</w>
nov o</w>
ch ers</w>
drin king</w>
isol ate</w>
metabol ite</w>
Ther mo</w>
com or
pea ks</w>
op s</w>
me ter</w>
sc ales</w>
E 2
G 4</w>
prog esterone</w>
monit or</w>
d less</w>
ve get
P seud
th io
inser ted</w>
chem ically</w>
pro ven</w>
determin ants</w>
astro cytes</w>
as h
glyc ine</w>
ti le</w>
S 5</w>
s n
Heal th
bit al</w>
impro vements</w>
M al
laparo scopic</w>
ine a</w>
o ocytes</w>
fas ter</w>
ud g
N M</w>
- 4</w>
Dec ember</w>
Ar g</w>
ati gue</w>
onc ogen
Not ably</w>
FO X
elim ination</w>
wh y</w>
ass ayed</w>
over come</w>
F l
datab ases</w>
un changed</w>
regar dless</w>
Tab le
con flic
tren ds</w>
ab use</w>
D 5</w>
optim ized</w>
asi bility</w>
fo ur
arom atic</w>
r p
sequ ential</w>
con tents</w>
dele tions</w>
L ong</w>
Ch IP</w>
con sum
AP C</w>
mon ocytes</w>
detec ting</w>
8 A</w>
l ane</w>
bri ef</w>
alter ation</w>
F E
syn chron
5 a</w>
an ch
av ing</w>
AC S</w>
p ent
co he
ru n</w>
malign ancy</w>
cas cade</w>
f ine</w>
estim ation</w>
v ary</w>
en sis</w>
F if
E MT</w>
V I</w>
S ev
responsi veness</w>
HS V</w>
in side</w>
l ens</w>
G O</w>
substitu tions</w>
P M</w>
n ose</w>
correc ted</w>
G y</w>
K a
lun gs</w>
v oc
de tail</w>
intes tine</w>
ocor tico
brea k
equ ip
A NO
eli hood</w>
diff ered</w>
R och
ER K1</w>
retro spectively</w>
PK A</w>
tas ks</w>
un affected</w>
disc ipl
swit ch</w>
all ergic</w>
syn the
infil tr
chos en</w>
disc re
Chang es</w>
fibro blast</w>
R i
O A</w>
E u
I CA
T U
tur ally</w>
hem oglobin</w>
candi dates</w>
rheum at
pos s
check point</w>
pre d
onucle ar</w>
elici ted</w>
other wise</w>
i er</w>
m ess
protec t</w>
zym e</w>
cre ate</w>
stron ger</w>
e res</w>
trans mit
foc i</w>
m ent
beg inning</w>
qu antum</w>
asym ptomatic</w>
p unc
dep end</w>
P G</w>
D I</w>
P ost
tox ic
lo x
nutri ent</w>
biomar ker</w>
epis odes</w>
go at</w>
re mission</w>
F o
ar rays</w>
ion ine</w>
Pati ent</w>
RE S</w>
la g</w>
hab it
v ae</w>
challeng ing</w>
sin us</w>
ly sed</w>
co vered</w>
preval ent</w>
sch ed
CR P</w>
n um
quanti fy</w>
tur ned</w>
mac hin
ev ent
G o
HD L</w>
Ther ap
on ally</w>
c e
angio tensin</w>
trigg er</w>
reas on</w>
Or g
equ ation</w>
cap ture</w>
W a
yiel ds</w>
techn ologies</w>
exten sively</w>
B RAF</w>
spind le</w>
andro gen</w>
P res
exclu sively</w>
fo ot</w>
Particip ants</w>
wavel eng
Par kinson</w>
dis ulf
M or
pl ated</w>
I s
p ine</w>
ax ial</w>
oper ated</w>
contribu ting</w>
R ap
e ded</w>
tri glycer
u ed</w>
ou thern</w>
N E</w>
A v
pre mature</w>
E vid
produc es</w>
pre ad</w>
ol in</w>
emerg ed</w>
micro scopic</w>
otyp ing</w>
M i
J o
on going</w>
Child ren</w>
PA TI
vi r</w>
proj ect</w>
lab el</w>
pow er
G A
com promis
M ac
am s</w>
s ati
sc en
e ds</w>
fo und
indic es</w>
Re gi
experim entally</w>
opa usal</w>
lik elihood</w>
pneumon ia</w>
PA R</w>
opio id</w>
v in
particip ation</w>
down regulation</w>
V 2</w>
sen sing</w>
as h</w>
be am</w>
tan dem</w>
larg est</w>
tri ple</w>
I ts</w>
Gen etic</w>
N ot</w>
medi ating</w>
pyl ori</w>
pre dominant</w>
immunoglob ulin</w>
T RP
elong ation</w>
conn ected</w>
dis section</w>
Char acteri
Develop ment</w>
adju stment</w>
- 5</w>
le x</w>
dos age</w>
ten d
den at
exci sion</w>
R ad
fracti on
c ann
acet yl</w>
ph rine</w>
detail s</w>
ten ded</w>
E s</w>
bri dge</w>
trunc ated</w>
tim ing</w>
on yl</w>
bl ack</w>
brea ks</w>
v .</w>
om onas</w>
ad ding</w>
pen icillin</w>
form aldehyde</w>
pol l
blas toma</w>
ro tation</w>
di arr
remo ve</w>
R E</w>
aberr ant</w>
comput ational</w>
CO X</w>
pre vents</w>
impro ves</w>
ub icin</w>
es pread</w>
cap sul
mod ulated</w>
add ressed</w>
organis m</w>
nutri tional</w>
repe ats</w>
bo und
c ally</w>
bl ing</w>
s a</w>
seg reg
s es
eas y</w>
reg imens</w>
contribu ted</w>
diast olic</w>
f f</w>
overexpres sing</w>
D 4</w>
ubiqu it
olog ous</w>
ar t
se ed</w>
PATI EN
brea k</w>
part ners</w>
pati onal</w>
onc ogenic</w>
ram s</w>
op tion</w>
T G</w>
c ephal
haz ard</w>
me an
review s</w>
is s</w>
lu tin
fl uc
subst ances</w>
paren tly</w>
p in</w>
alk aline</w>
man di
sep sis</w>
c ine</w>
du od
g el
Com bin
ze brafish</w>
clea ved</w>
infer ior</w>
R H</w>
implem ented</w>
in osa</w>
Incre ased</w>
antic ancer</w>
commun ities</w>
poss ess</w>
p es
m V</w>
R a
O L</w>
In hibi
aud itory</w>
indic ator</w>
att ached</w>
fe a
corne al</w>
P 5</w>
TC R</w>
Statis tical</w>
A E</w>
pre ference</w>
sur vi
ag arose</w>
I M
mamm als</w>
col le
tr a</w>
L ys
y stems</w>
cataly zed</w>
ran k</w>
adi g
ul atory</w>
7 BL</w>
amin es</w>
In stitu
transpor ters</w>
C ase</w>
mat ch</w>
L ow</w>
c d
A I</w>
di c</w>
ann ed</w>
situ ation</w>
architec ture</w>
weigh ted</w>
t ative</w>
SE M</w>
Evid ence</w>
an emia</w>
need le</w>
S ix</w>
h aps</w>
distribu tions</w>
sim ulated</w>
over lap</w>
lo be</w>
s low
scri bed</w>
ide a</w>
hydrox y</w>
mo ther</w>
for ces</w>
cat al
pum p</w>
N ov
anti tumor</w>
inf ra
el eg
see ded</w>
in st
R is
B B</w>
vi de
ro ute</w>
famil ial</w>
dig ital</w>
3 b</w>
G SH</w>
ther mo
m Ab</w>
barri ers</w>
Cur rent</w>
us cular</w>
engine ering</w>
otox in</w>
mul tic
p 7</w>
hem e</w>
lar vae</w>
os ity</w>
vag inal</w>
N on</w>
ron s</w>
tre e</w>
men opausal</w>
C ys</w>
on in</w>
Experim ental</w>
descri p
S ol
J un
te eth</w>
cl oning</w>
dec ades</w>
meth anol</w>
K s</w>
indic ations</w>
fe asibility</w>
U S
meth ylated</w>
P i
4 D</w>
profil ing</w>
retro viral</w>
r ice</w>
w ing</w>
oc cal</w>
ta kes</w>
neoplas tic</w>
Sampl es</w>
I A</w>
M ice</w>
off ers</w>
to ph
resid ents</w>
Assess ment</w>
Hy per
ic les</w>
D 6</w>
machin ery</w>
wid espread</w>
ol ab
B ra
q PCR</w>
im plants</w>
tec tion</w>
trac tion</w>
sper mat
l umbar</w>
fig ure</w>
Ch ronic</w>
constitu tive</w>
perform ing</w>
bel i
mic ro</w>
at om</w>
wid th</w>
medic ations</w>
SET TING</w>
fluc tu
B raz
f atigue</w>
as ked</w>
ren ess</w>
pri singly</w>
ap o
athero sclerosis</w>
C G</w>
retin a</w>
pa thetic</w>
ag ar</w>
su peroxide</w>
dis m</w>
f ar
toler ated</w>
cere bro
lan es</w>
L i</w>
as tom
par adig
explan ation</w>
ex in</w>
pancre as</w>
BR CA1</w>
ana es
i ae</w>
aer ug
pel vic</w>
coord ination</w>
K 3</w>
gang li
occ u
F c</w>
ne ver</w>
G G</w>
indic ators</w>
Sur ve
categ or
N TS</w>
ul l
suspen sion</w>
Spec ific
In formation</w>
as ter</w>
stud ying</w>
post natal</w>
ti zed</w>
G P
In iti
ser ved</w>
sub group</w>
P ES</w>
ol og</w>
mo des</w>
ti ary</w>
eukary otic</w>
am p</w>
bi a</w>
contr acti
aerug inosa</w>
fit ness</w>
fi st
ur y</w>
D ue</w>
P 2
tumorigen esis</w>
read s</w>
ran e</w>
ot a</w>
ap e</w>
AC h
Sec ond</w>
Roch e</w>
P RO
lin ker</w>
ester ase</w>
neutroph il</w>
met allo
ANO VA</w>
sub cellular</w>
CX CR
gen ce</w>
E F</w>
PE G</w>
anatom ical</w>
agg lutin
E le
bec omes</w>
Z n
under taken</w>
ell es</w>
adren ergic</w>
hel ical</w>
cryst als</w>
EE G</w>
po x
H P</w>
K n
to o</w>
ful ness</w>
T GF
C u
aneurys m</w>
I GF
se ve
po oled</w>
scen ari
centrifug ed</w>
l otting</w>
expan ded</w>
fl an
compri sed</w>
L in
vas t
os tero
pl ane</w>
scat tering</w>
ag land
I tal
ap ol
az ine</w>
U TR</w>
sub cutaneous</w>
Plas ma</w>
irradi ated</w>
O P</w>
epti des</w>
at rophy</w>
Flu o
gu an
adap ted</w>
6 C</w>
L y
phyl ogenetic</w>
tec tomy</w>
dis solved</w>
Sci ence</w>
ipl es</w>
ma x
she ep</w>
effici ents</w>
low ering</w>
retic ulum</w>
b al</w>
ob vious</w>
m olar</w>
dig ested</w>
fea sible</w>
T F</w>
rib osomal</w>
roug h
polym erization</w>
te le
immuno deficiency</w>
fibr in
instrum ent</w>
g ri
differenti ate</w>
Sign aling</w>
shap ed</w>
stand ards</w>
clus tering</w>
sti s</w>
mon ella</w>
compli ance</w>
sup ply</w>
st ret
through put</w>
neuro degenerative</w>
star ted</w>
yl ic</w>
R o
concer ns</w>
vul ner
B ur
lig ase</w>
C N</w>
if t</w>
oblas ts</w>
consider ing</w>
seve rely</w>
B 3</w>
precurs ors</w>
fing er</w>
peri odon
inde ed</w>
v entral</w>
venti ve</w>
C 6</w>
th eses</w>
def ense</w>
CL 1</w>
micro environment</w>
Al ex
os es</w>
agne tic</w>
sci ence</w>
conver ted</w>
concer n</w>
constitu tively</w>
at ypical</w>
squ are</w>
oscop y</w>
in suff
My co
fl ap</w>
m osph
examin ations</w>
l ands</w>
e osin
T yr</w>
beli eved</w>
vi sed</w>
lys osomal</w>
dimen sions</w>
ug ht</w>
M od
Dr ug</w>
resear chers</w>
gen esis</w>
S ac
distingu ish</w>
un related</w>
my osin</w>
gen us</w>
overl apping</w>
ap parently</w>
s tent</w>
hi on</w>
inter sti
Signific ant</w>
cont amination</w>
N i</w>
gon ad
ulti es</w>
co efficients</w>
R G
xim ab</w>
duc ts</w>
hypertroph y</w>
professi on
ra rely</w>
fas ting</w>
h n</w>
c DN
assemb led</w>
descri ption</w>
engine ered</w>
M B
conser vation</w>
Inhibi tion</w>
disulf ide</w>
chem icals</w>
L ys</w>
flu ence</w>
ammon ium</w>
p g</w>
N V</w>
t uring</w>
depart ment</w>
sc ans</w>
immunohisto chemical</w>
e j
sug ar</w>
concentr ated</w>
exampl es</w>
inoc ulated</w>
M ech
ite ms</w>
Soci ety</w>
s light</w>
ab ine</w>
rap amycin</w>
pre ferred</w>
preferen tially</w>
hepat ocellular</w>
Mg Cl2</w>
doc king</w>
li th
B u
rs 1</w>
An ti</w>
th ing</w>
immun ization</w>
di l
mT OR
autom ated</w>
attemp t</w>
sen escence</w>
as one</w>
K Cl</w>
form ations</w>
plic ate</w>
acc es
M U
mix tures</w>
gest ation</w>
efflu x</w>
behavi o
C CR
modul ating</w>
gu inea</w>
I S
per for
cy an
ger m</w>
lep tin</w>
princip al</w>
For ty</w>
intr aper
T E</w>
Sal monella</w>
se d
ex ons</w>
on om
roph ic</w>
pat ch</w>
mm Hg</w>
accor dance</w>
accur ately</w>
RN ase</w>
gl ands</w>
prog res
su res</w>
ac tual</w>
com es</w>
P S
Al tern
vel ope</w>
is ch
O ver</w>
N AD</w>
vi ously</w>
fill ed</w>
v ac
tic ular</w>
exac erb
res in</w>
U .
dri ve</w>
AI MS</w>
col oc
term ed</w>
m is</w>
dist ress</w>
. 3</w>
rheumat oid</w>
polyp eptide</w>
ab in
power ful</w>
flex ible</w>
distingu ish
PATIEN TS</w>
K ore
tra ined</w>
part ner</w>
accum ulated</w>
con sul
qu i
grea test</w>
C RE
f all</w>
Bio technology</w>
re fer
el ing</w>
carbo hydrate</w>
coag ul
nat ur
recogn ize</w>
F S</w>
ra dic
Su per
educ ational</w>
tran scribed</w>
K .</w>
pil ot</w>
man us
ph age</w>
dri ving</w>
p ip
Sta phyloc
phen e</w>
R ac
H igh
S tr
consider ably</w>
w an
Fig s</w>
per son</w>
Con versely</w>
pro mp
ber g</w>
ri um</w>
ME A
consider ation</w>
or ption</w>
N MDA</w>
down regulated</w>
reduc tions</w>
creatin ine</w>
partic i
as al</w>
op ening</w>
C V</w>
en velope</w>
endomet rial</w>
i at
ox if
exp on
glycos ylation</w>
ker atin
st ac
eg g</w>
abol ic</w>
troph ic</w>
epidemi ological</w>
lig ation</w>
filam ents</w>
val ence</w>
A X</w>
tetr am
combin ing</w>
prec ision</w>
col labor
ru vate</w>
t ab
Func tional</w>
per man
pre clinical</w>
lo t</w>
ax ons</w>
resour ce</w>
qu ite</w>
cortis ol</w>
stabil ized</w>
ag o</w>
meth ionine</w>
withdraw al</w>
eff ort</w>
os por
RP 1</w>
or ial</w>
dim erization</w>
ogen e
en o
my co
discrimin ation</w>
IT C</w>
eleg ans</w>
M SCs</w>
F T</w>
un t</w>
Si x
practi tion
ex clusion</w>
gra fts</w>
F GF</w>
P V</w>
or ubicin</w>
R am
ca dian</w>
Ig M</w>
to ok</w>
MEA SU
h old</w>
l d</w>
glycol y
s p</w>
Th 1</w>
ne gl
particip ated</w>
M AP</w>
vit al</w>
cirrho sis</w>
P t
competi tion</w>
par am
Sing le</w>
inter views</w>
cytos ol</w>
mo iety</w>
lu te
asp ir
mo bile</w>
intern ational</w>
si al</w>
medi ators</w>
mechanis tic</w>
dis semin
meg a</w>
accep table</w>
AC E</w>
su m</w>
P L</w>
Dop pler</w>
U N
CO PD</w>
un g</w>
b und
H ow</w>
ann ual</w>
ter tiary</w>
An aly
at mosph
const ants</w>
om a
ulti mately</w>
j udg
ho use
α 1</w>
gest ational</w>
a uc
in come</w>
clin icians</w>
ocy an
Ris k</w>
ab ro
seroton in</w>
cop ies</w>
BD NF</w>
princ iples</w>
dec ay</w>
- 6</w>
compart ments</w>
E M</w>
id in</w>
Di rec
recor ding</w>
design ated</w>
bil i
condi tioned</w>
h ence</w>
z umab</w>
G AP
per ic
Tum or</w>
ig are
s b
presum ably</w>
discus sion</w>
elu ted</w>
loc al
E P</w>
morph ine</w>
min ute</w>
G e
IC U</w>
com pression</w>
new born</w>
Nor th</w>
illu str
Not ch</w>
st atin</w>
el ective</w>
ca us
ol ym
Cy cl
AL L</w>
gluc ocortico
exc essive</w>
Ig E</w>
ero us</w>
g em
ob acteri
b ud
CYP 2
an ion</w>
Th r</w>
ti p</w>
epit opes</w>
i ve</w>
Ph ot
man n</w>
con den
en ables</w>
P ro</w>
G n
pr in
acceler ated</w>
gra f
deci sions</w>
repe ti
expres sions</w>
ec topic</w>
N an
min eral</w>
scaff old</w>
micro bi
la tency</w>
bio tic</w>
ess entially</w>
H e</w>
Medic ine</w>
n em
L 3</w>
Re si
oste oc
re constitu
F our
R D</w>
chic ken</w>
Afr ica</w>
shif ts</w>
A x
re jection</w>
fre e
Biosci ences</w>
bul k</w>
confir ming</w>
Z h
on ine</w>
syndrom es</w>
buff ered</w>
poly acrylamide</w>
B re
1 Δ</w>
s ar
sp .</w>
profession als</w>
ul y</w>
ur a</w>
synerg istic</w>
K RAS</w>
tom ycin</w>
ob structive</w>
contribu tions</w>
condi tioning</w>
G BM</w>
i dism</w>
port al</w>
L oc
emp ir
se q</w>
V er
soci o
ne a</w>
F c
F L</w>
k 2</w>
ogly c
Res pon
bot tom</w>
t s
V 3</w>
fas hion</w>
5 D</w>
Quanti tative</w>
l enti
S an</w>
pro line</w>
s arcoma</w>
6 S</w>
uni ver
ate ll
infra red</w>
manus cript</w>
Surg ical</w>
With in</w>
perc utaneous</w>
S o
diffic ulties</w>
con stric
AI N</w>
tis m</w>
V 6</w>
micro glia</w>
PA RP</w>
forc ed</w>
m apped</w>
attit udes</w>
en ough</w>
fibrill ation</w>
o es</w>
prost agland
ar ach
amin ergic</w>
dram atic</w>
eu tical</w>
Al a</w>
intersti tial</w>
form er</w>
G T</w>
n mol</w>
adolesc ent</w>
cytosk eleton</w>
C AT
end ocytosis</w>
equ ally</w>
ca regi
K L
ur ity</w>
E S
O s
di methyl
Dep ar
stimul ates</w>
col itis</w>
eng er</w>
M G</w>
pro pi
ER T</w>
awa reness</w>
cr yp
cum ulative</w>
SP R</w>
Specific ally</w>
path ologic</w>
Staphyloc occus</w>
S ECTION</w>
A ff
oph thal
ep tive</w>
x yl
CA R</w>
in formed</w>
trans fusion</w>
O C</w>
P ol</w>
i e</w>
4 -</w>
eth asone</w>
hospit alization</w>
provid ers</w>
F C</w>
prophyl axis</w>
exc eption</w>
spe ech</w>
oplas mic</w>
ha ir
mit osis</w>
proper ty</w>
refl ected</w>
ol es</w>
coh orts</w>
ensi ti
un likely</w>
TI ONS</w>
el low</w>
si um</w>
occu pational</w>
ynam ics</w>
po f
st ably</w>
intrac ranial</w>
my o
propor tional</w>
bra ins</w>
Q 1</w>
T s</w>
cri tically</w>
u ous</w>
dri ed</w>
un ilateral</w>
compri sing</w>
ser ial</w>
y ment</w>
P BM
a way</w>
wor se</w>
enh ancer</w>
separ ately</w>
lab elled</w>
r ule</w>
surviv ors</w>
ath yro
an astom
st op</w>
optim ization</w>
sign ature</w>
re agents</w>
ol ine</w>
ro ots</w>
g p1</w>
T ime</w>
intro n</w>
monom er</w>
in activated</w>
or g</w>
Depar tment</w>
R ad</w>
bil ities</w>
sub groups</w>
vis its</w>
Q i
m 1</w>
l en
ap tic</w>
lymph oid</w>
ec ological</w>
transl ated</w>
absor b
Co x</w>
a a</w>
Ap plied</w>
per m
L ac
pertur b
al d
ili ary</w>
r action</w>
mod est</w>
contin ue</w>
elucid ated</w>
oc ca
fer tili
gener alized</w>
phosphor yl
M n</w>
pas sive</w>
fi es</w>
per haps</w>
parasi tes</w>
ob last</w>
edi atric</w>
angi ogenic</w>
par ti
H ear
f ate</w>
Diag nos
compati ble</w>
G MP</w>
st ain</w>
disrup ted</w>
enco ur
es in</w>
fluor ide</w>
CA D</w>
m ers</w>
G 3</w>
D F</w>
dec ade</w>
pl ies</w>
I T</w>
err y</w>
py ruvate</w>
ine phrine</w>
p an</w>
os ens
om otor</w>
H A
defini tion</w>
e a</w>
form ulation</w>
accep ted</w>
remark able</w>
Health care</w>
ar is</w>
ex ec
lis ted</w>
Identi fication</w>
pre term</w>
dist ant</w>
T 7</w>
b 1</w>
oxy gen
sat uration</w>
as cular</w>
U C</w>
exer t</w>
ocy to
trans duc
ER α</w>
min er
back bone</w>
analog ues</w>
sem i</w>
idi opathic</w>
di al</w>
im planted</w>
con sent</w>
e m</w>
ch el
f atal</w>
pp m</w>
NAD PH</w>
H2 O</w>
te am</w>
S we
gir ls</w>
di ets</w>
in sufficient</w>
config uration</w>
Com mittee</w>
my c</w>
valid ate</w>
br ate</w>
f os
vascular ization</w>
adi c</w>
stom ach</w>
U V
ac yl</w>
syste m
hel ic
z ol
as part
N .</w>
gl auc
Y FP</w>
co de</w>
og rams</w>
SI R
IF N
com b
EB V</w>
bon ding</w>
tig h
M V
c a</w>
B a
natur ally</w>
dis placement</w>
te trac
L T</w>
µ l</w>
P T</w>
observ ational</w>
immunore activity</w>
Anim al</w>
d ness</w>
ome ter</w>
cir cadian</w>
ax onal</w>
protein ase</w>
fac tory</w>
ca tech
vesi cle</w>
ed ge</w>
onucle ase</w>
microtub ules</w>
Con si
de press
I sol
subj ective</w>
splic e</w>
ME Fs</w>
conser v
ess es</w>
ogra fts</w>
anal og</w>
mt DNA</w>
enc ap
AT M</w>
off spring</w>
aor ta</w>
9 A</w>
p us</w>
predic tions</w>
AU C</w>
sl ices</w>
all er
indic ation</w>
a erobic</w>
statis tics</w>
Sm ad
extr a</w>
exam ining</w>
M ic
ing i
bili ary</w>
patho physiology</w>
emergen ce</w>
EC M</w>
dele ted</w>
E th
he ar
view ed</w>
HE PES</w>
ar sen
leuc ine</w>
3 β</w>
defic it</w>
IN G</w>
v inc
was hing</w>
par tly</w>
S ym
se c</w>
or a</w>
nam ed</w>
trans gene</w>
oblas toma</w>
utili zing</w>
I r
oxidi zed</w>
Rh o</w>
F uture</w>
lif e
DT T</w>
N one</w>
oper ations</w>
par atus</w>
E ven</w>
app a</w>
ger m
en larg
for d</w>
highligh ts</w>
Cp G</w>
categ ory</w>
F U</w>
Wh at</w>
en op
asym metric</w>
wee kly</w>
me io
c igare
insuff iciency</w>
immun otherapy</w>
dis c</w>
depri vation</w>
b ol
t us</w>
m om
In tr
F 5</w>
C d</w>
C s
es ting</w>
Gl u</w>
reas on
Pseud omonas</w>
prote olytic</w>
L S</w>
h all
ti ters</w>
accoun ted</w>
oci al</w>
sel ves</w>
evol ved</w>
el in</w>
F 7</w>
e gg
ero x
ur i
Jun e</w>
p sor
cortic ostero
Dr .</w>
Car l
junc tions</w>
n urse</w>
pl oid</w>
over view</w>
clar ify</w>
acchar ides</w>
O 3</w>
a 1</w>
ep ing</w>
D E</w>
hypox ic</w>
L u
er arch
cros s
te aching</w>
Techn ology</w>
recor dings</w>
H ar
as sumed</w>
per in
phospholip id</w>
aut osomal</w>
intern alization</w>
Up on</w>
immun ological</w>
transi ently</w>
er ci
g all
SL E</w>
war ran
attr active</w>
gal ac
inter mediates</w>
fr am
degrad ed</w>
l up
ac k
carr y</w>
exp ect
respon ded</w>
ti um</w>
acces sible</w>
W om
endoth elium</w>
cereb ellar</w>
ro l</w>
om orph
ax el</w>
B in
R F</w>
t ome</w>
atell ite</w>
z ero</w>
struc turally</w>
datas et</w>
PK C
anc h</w>
f if
ff e
suff ering</w>
C er
L R</w>
dam aged</w>
p ub
M 3</w>
i ii</w>
Gl c
sym pathetic</w>
m aps</w>
R SV</w>
lig am
co ver</w>
g overn
anes the
tra it</w>
As s
In c
Re view</w>
d 1</w>
tec h</w>
oste opo
lys ate</w>
hem is
physi ologic</w>
mon onuclear</w>
in ess</w>
P SA</w>
coc aine</w>
diagnos es</w>
ren tly</w>
immobil ized</w>
y o
Sub j
co ur
foc using</w>
Labor atory</w>
oxy genase</w>
ar ise</w>
k ept</w>
prote ases</w>
gro up
waveleng th</w>
pro spectively</w>
t um</w>
In dia</w>
r ite</w>
construc tion</w>
ste in</w>
im ide</w>
ide al</w>
no tion</w>
G .</w>
B 4</w>
G CT
gro w</w>
ph thal
sc oring</w>
sco red</w>
strep tomycin</w>
o res</w>
supernat ants</w>
ro und</w>
E 6</w>
Hy dro
T g</w>
H o
mar ks</w>
K in
De tection</w>
es tive</w>
p s
p ep
hist ology</w>
cat tle</w>
neuro pathy</w>
coun sel
ap paratus</w>
oste o
frag mentation</w>
per f
X R</w>
carcin ogenesis</w>
le g</w>
am y
rop e</w>
adip ocytes</w>
sul ph
r ag
es cap
verte bral</w>
assess ments</w>
sur fac
imp acts</w>
Con sequently</w>
R an
Can di
si onal</w>
otox icity</w>
on it
bi polar</w>
hist ologic</w>
M AIN</w>
P y
gen cy</w>
se di
uc h
som at
lo ops</w>
hyper plasia</w>
ac ade
investig ating</w>
H b
ol amine</w>
SI S</w>
seiz ure</w>
B AL
BC R</w>
H ere
s lower</w>
C r</w>
S a
inten se</w>
O 4</w>
H3 K
suic ide</w>
Mut ations</w>
G I</w>
grad ually</w>
Org an
dos ing</w>
avi an</w>
facilit ates</w>
sel ect</w>
CA T</w>
mis sense</w>
neutr alizing</w>
T en</w>
Pro mega</w>
ophil ic</w>
Un der
in verse</w>
in complete</w>
h n
or adi
coord in
S k
Can ada</w>
dis soci
ar ched</w>
in stance</w>
w k</w>
Wom en</w>
glomer ular</w>
CF TR</w>
e ating</w>
ul ates</w>
ulc er</w>
ation ally</w>
C U
met als</w>
os arcoma</w>
clin ic
ow ing</w>
exten d</w>
discipl inary</w>
Stud ent</w>
sti ff
sh a
in ic</w>
fol ate</w>
therapeu tics</w>
ch arom
addi tive</w>
Ph ase</w>
synap ses</w>
nor mo
Be tween</w>
toc occus</w>
di hydro
PC 1</w>
f lies</w>
bri dg
P N
guid ance</w>
th o
them selves</w>
ur g
st ock</w>
H er
coun ted</w>
fung i</w>
K i</w>
diff raction</w>
refl ects</w>
por cine</w>
mis sing</w>
as sum
or ally</w>
lit axel</w>
con stitute</w>
ir al</w>
acc id
cy st</w>
out patient</w>
plac ental</w>
li e</w>
de posi
moder n</w>
ach e</w>
bre eding</w>
dro p</w>
rup ture</w>
immunob lotting</w>
tub ular</w>
establish ment</w>
T arg
im mature</w>
res ted</w>
G P</w>
NI H</w>
hypo the
As p</w>
B ank</w>
7 B</w>
G ram</w>
Eu rope</w>
Sub sequently</w>
ke ys</w>
be an</w>
L o
ser ves</w>
cryst alli
hor iz
sub sets</w>
four th</w>
Inde x</w>
qu it
Qi agen</w>
2 α</w>
de teri
ver tical</w>
SO D</w>
pneumon iae</w>
perman ent</w>
Pre dic
S l
asp ect</w>
AT A</w>
on ds</w>
charom yces</w>
se arched</w>
E d
Ar g
desi red</w>
Syn thesis</w>
gal act
odi alysis</w>
pap ill
ox in</w>
opportun ity</w>
ac ous
man aged</w>
thre onine</w>
er t</w>
if ying</w>
ograph s</w>
ex port</w>
Le u</w>
F V
T N
nucle ic</w>
A c</w>
calcul ate</w>
ri p
i ple</w>
ultras on
hist amine</w>
L eu
D H
L V
n 1</w>
cl amp</w>
diarr he
iz umab</w>
sequ ent</w>
Labor atories</w>
paradig m</w>
end oplasmic</w>
S tro
form in</w>
loc ally</w>
bio film</w>
5 -</w>
ham s
st al
tail ed</w>
satisfac tory</w>
trans duced</w>
anti sense</w>
b ab
plas mic</w>
r ing
rec ycl
ag ic</w>
ay ers</w>
C CT
fru it</w>
con current</w>
electro des</w>
G ene
analog ue</w>
N ur
ses sions</w>
G AG
controver sial</w>
F am
ab sc
ner ves</w>
tra j
im pe
tac hy
BM P</w>
te ll
oligonucle otide</w>
os us</w>
algorith ms</w>
lin ks</w>
r ace</w>
β 2</w>
leuk ocyte</w>
kn ock</w>
ger min
ho use</w>
s we
L P</w>
am ethasone</w>
A N</w>
w ri
histi dine</w>
t one</w>
kill ing</w>
2 R</w>
radi al</w>
th rea
analy zing</w>
ca th
filam ent</w>
verte bra
summar ized</w>
3 p</w>
tryp toph
T ur
whe at</w>
comor bi
p i</w>
sil ica</w>
G W
B I</w>
Tran scrip
C K
hear ts</w>
Ig A</w>
part um</w>
g ating</w>
Rec om
Di ab
nico tine</w>
ace ae</w>
analog s</w>
il e
L M
incid ent</w>
situ ations</w>
con e</w>
ap plying</w>
can ine</w>
applic able</w>
pla ques</w>
P or
V .</w>
inj ured</w>
pro ne</w>
acc ess
cen ding</w>
respon dents</w>
mit ral</w>
oxif en</w>
om ing</w>
ob acter</w>
ten ed</w>
hydro ly
hormon al</w>
mis sions</w>
N i
mim ic</w>
p es</w>
no vi
Austral ia</w>
mac h
preser ved</w>
au di
pac k
phy to
less er</w>
r ated</w>
acade mic</w>
grad u
bronch ial</w>
rele asing</w>
Per i
Accor dingly</w>
in ti
PM C</w>
zy go
conduc tance</w>
ul der</w>
to oth</w>
dox orubicin</w>
x 2</w>
g one</w>
aspart ate</w>
alk al
benz o
f el
C ro
electro ly
fe ed</w>
1 E</w>
R b</w>
T T</w>
ca ud
lup us</w>
eth nic</w>
app reci
echocardi ography</w>
in age</w>
an at
tempor ary</w>
sl ides</w>
antic ip
coun try</w>
A sian</w>
micro som
D AP
B ax</w>
do g</w>
princ iple</w>
viol et</w>
hist or
tim ate</w>
in ability</w>
br anch</w>
am id
c ran
telom ere</w>
cy sts</w>
der mat
aut ologous</w>
harb oring</w>
par athyro
k el</w>
d i</w>
hemis ph
qu en
all os
Meas ure
b ases</w>
F F
in o</w>
mod alities</w>
em ul
questionna ires</w>
l ity</w>
b is</w>
den se</w>
os mo
ron ectin</w>
M el
con tex
D D</w>
we a
re turn</w>
E pi
Ad min
play ing</w>
b ate</w>
polar ized</w>
kidne ys</w>
si dase</w>
atin um</w>
bor ne</w>
de t
PF S</w>
inf u
w s</w>
wal king</w>
schem e</w>
m ast</w>
ax on</w>
initi ate</w>
pharmaco kinetic</w>
in directly</w>
am eli
mus cular</w>
psych os
chim eric</w>
Acti vation</w>
Differen t</w>
res sing</w>
mar ine</w>
Se ph
oph ar
et a</w>
ycl ine</w>
N -</w>
P os
g yr
T H</w>
cardi a</w>
t onic</w>
a u</w>
od ec
oblas tic</w>
ath le
spor adic</w>
st op
difficul ty</w>
intra operative</w>
weigh ts</w>
sh ar
cap si
hin d</w>
F 6</w>
trans planted</w>
pre ventive</w>
pl ete</w>
Ch rom
I S</w>
persis tence</w>
hydr ation</w>
Re tro
oligonucle otides</w>
c ies</w>
ME K</w>
random ised</w>
datas ets</w>
St and
c in</w>
system atically</w>
enco de</w>
D N</w>
accep tor</w>
egg s</w>
5 b</w>
Gen ome</w>
gran ules</w>
li p</w>
Mil li
dex tr
indu stry</w>
inter f
CH O</w>
pass age</w>
tend ency</w>
B acteri
immunoprecip itated</w>
on ia</w>
Qu ality</w>
hel p
simil arities</w>
ju ven
Nr f2</w>
ref lex</w>
Coll ectively</w>
inher ited</w>
model ling</w>
S pr
MI C</w>
unifor m</w>
resp iration</w>
star vation</w>
ol ol</w>
re turned</w>
resc ued</w>
d ent</w>
te m</w>
stero ids</w>
j us
el astic</w>
ep i
attemp ts</w>
lu tion</w>
mod ality</w>
V T</w>
TP 5</w>
In divid
L C3</w>
flex ibility</w>
sup plement</w>
rest oration</w>
W here
d al
o tes</w>
interf ere</w>
spont aneously</w>
k appa</w>
bo ys</w>
re l</w>
conn ection</w>
Sy ste
Differen ces</w>
log y</w>
obj ect</w>
C B</w>
saliv ary</w>
AB C</w>
ex tra
fu r</w>
foll icular</w>
F .</w>
pren atal</w>
pu ts</w>
id ed</w>
hom olog</w>
rel ations</w>
C ap
T er
A sp
2 p</w>
us age</w>
re pressor</w>
anti depress
opportun ities</w>
H RP</w>
c asse
G ly</w>
S .
at aly
on ym
dem and</w>
cu es</w>
influ encing</w>
modi fy</w>
Fif ty</w>
R ole</w>
buil ding</w>
arb ox
bl ed</w>
conform ations</w>
o k
comple tion</w>
dra inage</w>
r as</w>
contr al
inten sities</w>
par aff
A AT
stiff ness</w>
Where as</w>
embol ism</w>
M emb
visi t</w>
fu sions</w>
3 T3</w>
an thro
encoun tered</w>
F AK</w>
bir ds</w>
c ats</w>
v is</w>
li pop
n a</w>
A Z
gene tics</w>
co valent</w>
M arch</w>
Bios ystems</w>
ar ising</w>
germ line</w>
Ad v
help ful</w>
ot ted</w>
A V</w>
biom ass</w>
ten sive</w>
sh ell</w>
recip ient</w>
el igible</w>
de struction</w>
accum ulate</w>
CR I
determin ant</w>
gi ves</w>
pancre atitis</w>
associ ate</w>
transi tions</w>
ten don</w>
glauc oma</w>
neigh b
B er
program me</w>
man ual</w>
s s</w>
ure th
op y
recor d</w>
attenu ation</w>
artic ular</w>
ro d</w>
h es</w>
suppres ses</w>
M n
Cas 9</w>
pan ic</w>
cr ude</w>
modul ates</w>
ep tor</w>
s atellite</w>
cap ability</w>
x ed</w>
pac litaxel</w>
C am
erythro cytes</w>
elim inated</w>
comm erci
St ate</w>
pro inflammatory</w>
T est</w>
allel ic</w>
re aching</w>
Fluo resc
ion ization</w>
surge ons</w>
myel oma</w>
RN P</w>
M ay</w>
- 7</w>
inoc ulation</w>
el ve</w>
or bital</w>
top ical</w>
highligh ted</w>
py ro
o ro
Psy ch
con sci
inte ll
ca usal</w>
polym ers</w>
dys plasia</w>
Stre p
calc ulation</w>
ventr icle</w>
verte brate</w>
ho sts</w>
. 4</w>
program ming</w>
empir ical</w>
st one</w>
E m
an ical</w>
lim itation</w>
pal mit
m ill
ti ce</w>
g est</w>
col onic</w>
event ually</w>
acous tic</w>
cir cular</w>
fer tility</w>
N 3</w>
Me di
oncogen e</w>
m on</w>
pres sures</w>
lum inal</w>
ver ify</w>
electro chemical</w>
Milli pore</w>
mandi bular</w>
some times</w>
d ur
A ge</w>
homogen eous</w>
AL K</w>
hel ices</w>
β 4</w>
est yle</w>
hi erarch
enabl ed</w>
om al</w>
mod ule</w>
nod ules</w>
sh ear</w>
lipos omes</w>
T yr
dex amethasone</w>
trigg ers</w>
q 2</w>
am bi
S il
mTOR C1</w>
de pressed</w>
sc av
e ter</w>
evid enced</w>
precip itation</w>
cycl ing</w>
sor ting</w>
l ing
I mp
manip ulation</w>
ac compl
interpre ted</w>
ang er</w>
olog ist</w>
repres entation</w>
NA c</w>
- -</w>
k ap
L ym
co il</w>
stabil ize</w>
C ri
con duction</w>
r 1</w>
ca m</w>
individu ally</w>
fil tered</w>
R ed</w>
tryptoph an</w>
Wor ld</w>
d ent
pregn ancies</w>
ov ary</w>
l er</w>
f low
e an</w>
tri gu
T L</w>
T n
Ma terials</w>
AS D</w>
progenit ors</w>
trans mitted</w>
le ak
ur ac
s or</w>
continu ously</w>
life time</w>
over weight</w>
n ig
percep tions</w>
tigh tly</w>
0 S</w>
rec essive</w>
G SK
acti vely</w>
stabil izing</w>
hel d</w>
W HO</w>
influ x</w>
5 p</w>
s en</w>
re new
a i</w>
su d
s lip
pro l
expos ures</w>
sim pl
facil ities</w>
C he
cit rate</w>
ana erobic</w>
I 1</w>
ell um</w>
dop aminergic</w>
ta ins</w>
r y
pro ve</w>
discre te</w>
C ys
der mal</w>
activ ators</w>
en ium</w>
proxim ity</w>
r ings</w>
c c
concep ts</w>
T ox
st rial</w>
ac yl
6 a</w>
spo t</w>
en anti
D en
tin c
G GT
con ven
polym er
pri l</w>
C EN
c ro
Un like</w>
fin ally</w>
p in
u ximab</w>
- 8</w>
radi ographic</w>
coord inated</w>
shif ted</w>
uncer tain
cardiomy opathy</w>
do w</w>
rou tin
mat ching</w>
N H
leuk ocytes</w>
ar ms</w>
perme abil
ol factory</w>
Av ail
la tent</w>
M Hz</w>
slow ly</w>
L ip
vast atin</w>
chape rone</w>
acu ity</w>
lum en</w>
Im aging</w>
spo ts</w>
Ph e</w>
un published</w>
tub es</w>
U. S.</w>
vide o</w>
at osis</w>
dec lined</w>
J uly</w>
S 1
belie ve</w>
red und
x in</w>
b if
medi ator</w>
cho ol</w>
conn ectivity</w>
P erc
w ards</w>
MY C</w>
L s</w>
reg istered</w>
facilit ated</w>
chemo kine</w>
cap tured</w>
T P</w>
contral ateral</w>
ent ations</w>
G N
v ol</w>
ery them
ho t</w>
vas o
fl ur
S n
otox ic</w>
non specific</w>
opath ological</w>
t ability</w>
un stable</w>
C entral</w>
pal li
k le</w>
pur poses</w>
lac ks</w>
F lag</w>
dom es
posi tioning</w>
Be sides</w>
pene tr
I ll
Bac illus</w>
prescri bed</w>
speci alized</w>
k y</w>
az ep
Gro w
Alex a</w>
P N</w>
quantit atively</w>
t ose</w>
W al
ul cer
conserv ative</w>
de form
hem odynamic</w>
st aging</w>
pharmaco kinetics</w>
neoplas ms</w>
G AL
moder ately</w>
ej un
is ter</w>
M AL
2 E</w>
ost atic</w>
under gone</w>
te dly</w>
urac il</w>
in he
ocom pati
promo tion</w>
os s</w>
direc tional</w>
L ou
illustr ated</w>
Bin ding</w>
emp ty</w>
trans forming</w>
tran sc
bio tin</w>
institu tion</w>
tig ht</w>
anat omy</w>
conf er</w>
pre treated</w>
C AC
ge ometry</w>
ag ue</w>
GAP DH</w>
ang les</w>
bi ogenesis</w>
I U</w>
H ol
C x
mit ogen</w>
kap pa
te stis</w>
resid ent</w>
edi ting</w>
f resh
Er b
c ows</w>
poly s
ocy top
Admin istration</w>
5 S</w>
in ver
origin ally</w>
W he
fi er</w>
cat ar
xen ograft</w>
U r
A ug
transp os
win dow</w>
sur ance</w>
O T</w>
Surve y</w>
Pro gram</w>
E V
S even</w>
T issue</w>
B as
dr al</w>
X enop
but able</w>
I g</w>
L 4</w>
ple ural</w>
E 4</w>
E c
cholin ergic</w>
organ ized</w>
Nor thern</w>
d itary</w>
Mech anis
sw elling</w>
fer ing</w>
bro w
acetyl choline</w>
T op
extrem e</w>
pro found</w>
Hear t</w>
line ages</w>
prostagland in</w>
pic ture</w>
chem ot
i P
magne sium</w>
Sac charomyces</w>
SO D1</w>
te mb
al og
den sities</w>
ensi tivity</w>
hi z
diarrhe a</w>
immuno assay</w>
S 7</w>
odi c</w>
at onin</w>
GT Pase</w>
t ations</w>
clim ate</w>
disturb ances</w>
Xenop us</w>
aver aged</w>
Rac 1</w>
ther m
se ed
form ula</w>
DI SC
ac ks</w>
sil ver</w>
n ight</w>
rati on
Sur viv
ri s</w>
l ic
G SE
W I</w>
Ul tras
attri butable</w>
Grow th</w>
alb icans</w>
ther mia</w>
en ib</w>
escap e</w>
BM D</w>
rib osome</w>
E CT</w>
tes ticular</w>
pul ses</w>
tr ics</w>
N at
AT CC</w>
O UT
V it
me 3</w>
graph y</w>
pl atinum</w>
ultras truc
mi x</w>
radi ological</w>
psychos ocial</w>
un like</w>
N D
P RE
effec tors</w>
M N</w>
o zo
us h</w>
ori ented</w>
libr aries</w>
fo ods</w>
or im
os ing</w>
CRE B</w>
adjus ting</w>
respon ders</w>
fin anc
m ir
belong ing</w>
se arch
see ds</w>
trac e</w>
conjug ate</w>
per fused</w>
n om
conjunc tion</w>
am o
olys accharide</w>
eng agement</w>
tam oxifen</w>
insec t</w>
K m</w>
detec tor</w>
mut ational</w>
D at
de man
indic ative</w>
pol arity</w>
es ters</w>
por ation</w>
ti ter</w>
Al l
can al</w>
kin d</w>
centr e</w>
rang es</w>
um ina</w>
d odec
E ight</w>
phot on</w>
d l</w>
S TI
H N
EC G</w>
con clusions</w>
dist ances</w>
stri atum</w>
j ejun
id ae</w>
no tic
electro static</w>
gi ving</w>
ul tra
y ellow</w>
ent a</w>
s ession</w>
di ties</w>
rit ten</w>
ac tor</w>
v 1</w>
stric t</w>
cul tural</w>
sy novi
Inte gr
trac king</w>
inter fering</w>
adop ted</w>
ph one</w>
person ality</w>
OUT CO
L Y2</w>
R 5</w>
she et</w>
pharmac eutical</w>
H s</w>
N ucle
w aves</w>
mus cul
fib ronectin</w>
Inv estig
flan king</w>
anomal ies</w>
hypothalam ic</w>
Candi da</w>
B 6</w>
visu alization</w>
omat ous</w>
imid azole</w>
rhyth m</w>
venti l
assi st</w>
T em
w ells</w>
A pril</w>
glomer ul
aff eren
practition ers</w>
in hal
com ing</w>
SI ON</w>
fist ula</w>
und ed</w>
Mo del</w>
ull ary</w>
preser vation</w>
FRE T</w>
M ex
conjug ates</w>
sho ulder</w>
P en
ME T</w>
en or
R em
yn aptic</w>
F IN
brea thing</w>
Myco bacterium</w>
anis h</w>
H od
align ed</w>
mi um</w>
att ack</w>
M us
s ation</w>
S ER
py r
swit ching</w>
L ab
a dic
dis s
W ang</w>
Spec ific</w>
cor ro
ph o
mas sive</w>
spl en
T ol
A ST</w>
head ache</w>
Sel f</w>
re flux</w>
pl uri
op ulmonary</w>
D em
sampl ed</w>
respon ding</w>
excit atory</w>
us er</w>
ch i
E A</w>
an not
ra ine</w>
P an
val id</w>
ob ut
L B</w>
commerci ally</w>
Man agement</w>
trache al</w>
post operatively</w>
tox ins</w>
PPAR γ</w>
Gn RH</w>
4 b</w>
f ly</w>
D 8</w>
non linear</w>
run ning</w>
c s</w>
β 3</w>
e str
co ch
Rho A</w>
S tra
id ing</w>
consider ations</w>
sc al
CD K
F ITC</w>
spec imen</w>
S L</w>
mix ing</w>
ag ues</w>
off ered</w>
neu rom
IC D</w>
solub ility</w>
H V</w>
num erical</w>
rest ore</w>
hydrox yl</w>
wor ks</w>
mo od</w>
teri ous</w>
de ter
osteopo rosis</w>
ati cal</w>
J A
En h
os y
emph asis</w>
minim ize</w>
dis plays</w>
am bul
attemp ted</w>
os yl
tr ically</w>
k now</w>
alle vi
ogene ic</w>
ot ub
glyc ogen</w>
las ting</w>
INT ER
Se q</w>
f l</w>
ne y</w>
ameli or
Hsp 9</w>
Sur prisingly</w>
cess ation</w>
stri king</w>
mos quit
l nc
Avail able</w>
en comp
super ficial</w>
Pr P</w>
Com po
radic als</w>
cataly st</w>
bal anced</w>
ol ing</w>
R ob
sur pri
D ic
refl ecting</w>
strati fied</w>
contamin ated</w>
vi g
ch olec
un common</w>
AC C</w>
reason able</w>
on tal</w>
As soci
RP E</w>
sc inti
ite m</w>
thresh olds</w>
Fr ance</w>
vari es</w>
com for
integr al</w>
ubl ic</w>
an ne
ep s</w>
transmit ter</w>
rib onucle
Gra ph
CT 1</w>
lif estyle</w>
W est</w>
kin in</w>
H 1
epidemi ology</w>
bal lo
noc ic
illu strate</w>
ish man
ti de</w>
nit rate</w>
lim us</w>
compe tent</w>
Gen er
g ingi
challeng ed</w>
B T</w>
pene tration</w>
T 2
C TL
leng ths</w>
fe ar</w>
hy d
H b</w>
f ri
tor ial</w>
neon ates</w>
se a</w>
g yn
Compar ative</w>
d L</w>
pel let</w>
indu strial</w>
colle agues</w>
l ings</w>
V E</w>
propag ation</w>
v ill
Cy to
dele terious</w>
Hod g
con sequently</w>
TL R4</w>
use fulness</w>
immunosup pressive</w>
clu sive</w>
A AG
Qu estionna
En gl
Br d
IN E</w>
temb er</w>
ad dic
hapl otype</w>
Bra in</w>
it ance</w>
MT T</w>
Braz il</w>
der m
deposi ted</w>
sec onds</w>
exhibi ting</w>
mon keys</w>
anti genic</w>
ir y</w>
aff or
S s</w>
flav on
E t
PA P</w>
A pp
c il
Sep tember</w>
Here in</w>
iton e
stri atal</w>
oun ding</w>
un expected</w>
pro to
seas on</w>
ograph ical</w>
R B</w>
Me dian</w>
quanti ty</w>
del ine
CL 2</w>
contin ence</w>
mit tent</w>
elim inate</w>
a ter
direc tions</w>
BC L</w>
E igh
Gen eral</w>
syn ucle
ur ic</w>
St .</w>
predic ts</w>
chemo therapeutic</w>
per g
v il
contracti le</w>
trans l</w>
condi tional</w>
suc cin
coun ting</w>
hospit alized</w>
surve ys</w>
P f
exclud e</w>
ke wise</w>
7 C</w>
tob er</w>
sp ectives</w>
A .
si fication</w>
a to</w>
AT 1</w>
pi v
aspir in</w>
alter ing</w>
absorb ance</w>
c 2</w>
prop yl</w>
E co
compromis ed</w>
S e</w>
sl ope</w>
H om
te no
rh od
an al</w>
immun ized</w>
u ron
Com mun
Oc tober</w>
B one</w>
rever sal</w>
S outhern</w>
CM L</w>
labor atories</w>
CV D</w>
solub il
Cal ifor
pat h</w>
i. v.</w>
emplo ying</w>
F T
CA P</w>
cle ft</w>
eth n
oplas ty</w>
otyp ed</w>
ak er</w>
mon ocyte</w>
bi ologically</w>
susp ended</w>
achiev ing</w>
s c</w>
gang lion</w>
SIR T1</w>
recycl ing</w>
O D</w>
TRA IL</w>
lox acin</w>
Fac tors</w>
paraff in</w>
SP 1</w>
ma them
routin ely</w>
colon ization</w>
CXCR 4</w>
counter parts</w>
P F</w>
consis tency</w>
fl ag
optim um</w>
ot e</w>
aden ine</w>
disrup t</w>
F DG</w>
od end
dim eric</w>
P b</w>
Characteri zation</w>
gli oblastoma</w>
PC NA</w>
x es</w>
helic ase</w>
aneurys ms</w>
Sci ences</w>
bi ased</w>
refer ral</w>
i ana</w>
ra w</w>
id a</w>
io di
establish ing</w>
el ed</w>
asp iration</w>
anti bacterial</w>
segreg ation</w>
M u
disper sion</w>
c ock
ic o</w>
scle rotic</w>
mid ine</w>
R CC</w>
te re
H el
S 6
Ca uc
lith ium</w>
Engl ish</w>
P 6</w>
glob ulin</w>
PD B</w>
C KD</w>
y a</w>
Hep G2</w>
bl es</w>
N H</w>
Subj ects</w>
amph i
Califor nia</w>
trans form</w>
pl et</w>
retri ev
surge on</w>
D IN
Immuno histo
c .
Prote ins</w>
P osi
tern ary</w>
at trac
Struc tural</w>
D er
F re
Ab cam</w>
inter rup
- induced</w>
casse tte</w>
I BD</w>
cycl ase</w>
CA 2</w>
diff ers</w>
eth ical</w>
benz ene</w>
correc tly</w>
modi fying</w>
histopath ological</w>
instrum ents</w>
AD HD</w>
minim ally</w>
cam era</w>
form ulations</w>
draw n</w>
omy el
con tra
os an</w>
Be havi
le t
Hodg kin</w>
sens ors</w>
est ro
Th rough</w>
r ub
RP MI</w>
En do
onym ous</w>
thym idine</w>
moun ted</w>
Gre en</w>
aden ovirus</w>
II I
x y
oligom ers</w>
q RT</w>
s ound</w>
qu ic
ex ual</w>
sub mitted</w>
introduc e</w>
M K</w>
e tin</w>
P B</w>
enti n</w>
c itation</w>
ot ri
du plication</w>
af enib</w>
periodon tal</w>
Ca MK
L ev
allos teric</w>
Tre g</w>
Altern atively</w>
P at
bec oming</w>
v or
P ases</w>
Surg ery</w>
occ i</w>
ug h
m asses</w>
M G
T y
ec es</w>
pac kage</w>
th ood</w>
de ad</w>
iod ine</w>
ren in</w>
yn g
F SH</w>
transcrip tase</w>
ish ing</w>
telom erase</w>
onit rile</w>
le a
E F
3 G</w>
haem at
PD GF</w>
keratin ocytes</w>
go als</w>
phot osyn
go es</w>
fa il</w>
ost atin</w>
promis e</w>
am ni
cataly sis</w>
as par
n es
rearrang ements</w>
immuno staining</w>
E D
vas odi
ligam ent</w>
repres sed</w>
charg es</w>
psycho tic</w>
Im pro
L as
ec tor</w>
V e
defini tive</w>
hetero log
S cre
Sy stems</w>
du plex</w>
correspon ds</w>
reser vo
lam p
R α</w>
app ly</w>
CI PA
go v</w>
exp ec
v ice</w>
me et</w>
me al</w>
gen otyping</w>
expon ential</w>
spl it</w>
pred n
fore ign</w>
si RNAs</w>
ou pl
rp m</w>
C hi
Cdc 4</w>
i. p.</w>
horiz ontal</w>
Cur rently</w>
pur ity</w>
AR E</w>
leak age</w>
ga ined</w>
fab ric
Ram an</w>
bur n</w>
TE M</w>
nar row</w>
was te</w>
ga it</w>
micro organisms</w>
bio availability</w>
X 4</w>
ri es</w>
H B</w>
classi c</w>
univer sal</w>
Mo use</w>
prescri ption</w>
H or
in versely</w>
mi as</w>
il ical</w>
monom eric</w>
met formin</w>
N CE</w>
sim ply</w>
at ax
flu ids</w>
E 7</w>
F as</w>
j our
B T
buil t</w>
igh t
ph asic</w>
Trans f
ox al
alcoh olic</w>
si zed</w>
import antly</w>
kappa B</w>
sh e</w>
- dependent</w>
e -</w>
duod enal</w>
pos ing</w>
c row
posi tivity</w>
threa tening</w>
phenomen a</w>
Cauc asi
anesthe tized</w>
Whe ther</w>
some what</w>
po l</w>
L N
com mod
pre -</w>
P ac
ure tic</w>
sud den</w>
tic a</w>
prim ing</w>
BAL B</w>
ha m</w>
po rous</w>
cal f</w>
ish es</w>
h u
ome dical</w>
C ross</w>
7 D</w>
rearrang ement</w>
En gland</w>
fr uc
T SH</w>
L im
S uc
L arg
sph ing
es are
initi ating</w>
F DA</w>
Pro g
R C</w>
ec tom
fac ility</w>
R V</w>
isom erase</w>
A l</w>
pol e</w>
fin ement</w>
J un</w>
aug mented</w>
scaff olds</w>
Bac k
TNF α</w>
see king</w>
vertebra tes</w>
gra phene</w>
Chem ical</w>
M ei
exp ensive</w>
equ ations</w>
ar ate</w>
super family</w>
ation ary</w>
fro nt</w>
hem odialysis</w>
feren ces</w>
C och
B am
ogen es</w>
disp ens
I HC</w>
fal ls</w>
warran ted</w>
PT H</w>
c ure</w>
ac tually</w>
3 E</w>
caus ative</w>
DIN GS</w>
epide mic</w>
N GF</w>
pati ng</w>
pub er
S em
St at
glucocortico id</w>
I Q
v esti
Con clusion</w>
monom ers</w>
galac to
h ard</w>
analge sia</w>
Sec ondary</w>
c ef
nico tin
Under standing</w>
g h
Experim ents</w>
O ve
spec ified</w>
sul fur</w>
an ing</w>
CF U</w>
lam y
ank le</w>
FIN DINGS</w>
m ating</w>
ist ar</w>
B O
Col le
A d</w>
reli ef</w>
brom ide</w>
ther mod
cereb ellum</w>
m es</w>
expl oration</w>
stres ses</w>
An n
prote olysis</w>
esare an</w>
H i
w ritten</w>
a ren
Ap proxim
OR F</w>
B E
Lou is</w>
hy dra
De f
capsul e</w>
lab or</w>
immunore active</w>
fibri ls</w>
in sp
sub til
fir ing</w>
Vari ous</w>
C ir
LE D</w>
myocardi um</w>
cl on
sp ray</w>
p A</w>
C HI
al ters</w>
criteri on</w>
glyco l</w>
Ph en
perox idation</w>
k a</w>
cali bration</w>
Amer ica</w>
ke eping</w>
reci proc
p mol</w>
CRI SPR</w>
AA A</w>
def ining</w>
con cor
et c</w>
F er
α 2</w>
re stra
ten d</w>
3 R</w>
ore r</w>
post synaptic</w>
q 1</w>
gi ant</w>
reproduc ible</w>
Q o
N either</w>
an sw
co ating</w>
tub ation</w>
transcrip tome</w>
inter view</w>
Direc t</w>
id el
fill ing</w>
v an</w>
Six ty</w>
juven ile</w>
arthro plasty</w>
uni versity</w>
regar ded</w>
di s</w>
y outh</w>
Ove rex
Ob j
peri operative</w>
ti tis</w>
acc ession</w>
co factor</w>
p ass</w>
DS B</w>
ï ve</w>
a ero
Com pu
cyclo hex
D u
pro tot
vid in</w>
erythro cyte</w>
B el
cum in</w>
synucle in</w>
accoun ts</w>
ici ently</w>
pri vate</w>
k cal</w>
scho ols</w>
rough ly</w>
5 I</w>
fluctu ations</w>
AA V</w>
clin ics</w>
W istar</w>
intraper itoneal</w>
op in
br ated</w>
b red</w>
R os
ret ard
socio economic</w>
as ts</w>
ere bral</w>
neutr alization</w>
fit ting</w>
se mi
hydro l
energ ies</w>
facilit ating</w>
tail s</w>
mo ving</w>
µ m</w>
ec lamp
elic it</w>
. org</w>
L A
fit ted</w>
op sy</w>
f um
s me
sph eres</w>
Sequ ence</w>
bin ary</w>
TL R</w>
Pre viously</w>
autophag ic</w>
graf ting</w>
c ranial</w>
aw are</w>
program med</w>
n in</w>
ve ter
pol lution</w>
de bri
ste rile</w>
Sm all</w>
bloc kers</w>
Rad 5</w>
mach ine</w>
c us
blo ts</w>
X 3</w>
pro ton
c t
Consi dering</w>
sc ar
M orph
publ ication</w>
Ta i
P ost</w>
pre disp
capsi d</w>
Diag nosis</w>
g lu
ati onic</w>
pro bed</w>
ly so
sac rif
en demic</w>
G D</w>
descri bing</w>
Q OL</w>
opath ies</w>
en di
li um</w>
monol ayer</w>
anthro p
ap o</w>
distingu ished</w>
ker at
in ating</w>
- 9</w>
ad ing</w>
cerebro spinal</w>
orb ent</w>
suppres sing</w>
OUTCO ME</w>
as cor
P O</w>
qu arti
here ditary</w>
SU MO</w>
phosphor us</w>
in adequate</w>
bio tin
gran ule</w>
pros thesis</w>
H am
spectro phot
DISC US
er adic
surfac tant</w>
S B</w>
pyri dine</w>
all ed</w>
CL L</w>
L L
dist or
sensiti zation</w>
visc eral</w>
aden oma</w>
demonstr ation</w>
v ap
I 2</w>
pos ure</w>
A 6</w>
an atomic</w>
h 1</w>
hyper sensitivity</w>
end o
av en
ca ffe
cur y</w>
HE K</w>
MATERI AL</w>
desi r
n ude</w>
compl ain
po is
thromb ocytop
as ci
pap illary</w>
F em
propor tions</w>
de ep
he ating</w>
weak ly</w>
Tw een</w>
ss DNA</w>
sta in
entr e</w>
sym metry</w>
ar a</w>
oxid ants</w>
bound ary</w>
ro dent</w>
an yl</w>
adul thood</w>
mel atonin</w>
Questionna ire</w>
DISCUS SION</w>
behavio ural</w>
as tric</w>
ill a</w>
ag on</w>
Tr p</w>
et amine</w>
sh ed</w>
st ationary</w>
c ot
los ses</w>
si al
stres s
g p</w>
phosphatidyl inositol</w>
psor iasis</w>
piv otal</w>
si x
T u
neuro logic</w>
lipop olysaccharide</w>
foc uses</w>
H Y
i o</w>
na il</w>
Re al</w>
ballo on</w>
repeti tive</w>
circu it</w>
inter mittent</w>
admin istr
par i
z z
F ren
osmo tic</w>
ACT H</w>
I F</w>
P MA</w>
vascul ature</w>
replic ate</w>
glycoly sis</w>
viol ence</w>
ul ed</w>
it ting</w>
E SI</w>
In tro
gangli a</w>
cigare tte</w>
Strep tococcus</w>
constra ints</w>
pl anned</w>
g ift</w>
at r
m entally</w>
Epi de
NAD H</w>
cardiomy ocytes</w>
V 5</w>
Po ten
He pati
dis position</w>
C re
F ood</w>
phag ocytosis</w>
phospholip ids</w>
initi es</w>
mor tem</w>
otrop in</w>
I M</w>
kill ed</w>
function ality</w>
protec ts</w>
gu anine</w>
tun ately</w>
seem ed</w>
A u</w>
adhe sive</w>
TB I</w>
leuk emic</w>
th in
land sc
dis ordered</w>
inten ded</w>
eosin oph
M en
c ogn
equip ped</w>
pres ynaptic</w>
conf ined</w>
b er</w>
amb ig
Approxim ately</w>
epilep tic</w>
reproduc ibility</w>
flex ion</w>
wor d</w>
pro pen
Ze iss</w>
carb onyl</w>
H al
p d
Qo L</w>
lar val</w>
dep ic
ug e</w>
C CA
neuro blastoma</w>
G AC
ac commod
Ass ay</w>
In fluence</w>
fluoresc ein</w>
K d</w>
Phosph or
O ral</w>
financ ial</w>
j a
x anth
L Y
ram idal</w>
AR S</w>
hypothalam us</w>
7 a</w>
pro static</w>
a emic</w>
in organic</w>
la ter
d in</w>
enabl ing</w>
re al
C oun
im aged</w>
str ands</w>
c arg
Con clusions</w>
retro grade</w>
ca p</w>
Ac tivity</w>
thic k</w>
hydrox ylase</w>
supplem entary</w>
B ut</w>
l id
O ste
ro bo
trans activation</w>
neu mo
pow der</w>
fer mentation</w>
Epide mi
r ad
end osomes</w>
pp ed</w>
post menopausal</w>
mer ic</w>
chem il
ambi ent</w>
met all
relati ves</w>
A po
E mb
gener ates</w>
con vul
hypo theses</w>
do or</w>
fib rom
o ocyte</w>
abnormal ity</w>
pes tic
para formaldehyde</w>
umb ilical</w>
an ten
rs 2</w>
end it
S N</w>
S G</w>
per si
M F
flur ane</w>
t ary</w>
quin ol
En tero
HD AC</w>
d ons</w>
per spectives</w>
ar yl</w>
mac ular</w>
P t</w>
vol ati
na ïve</w>
s --
ch ip</w>
C 8</w>
cover ing</w>
fibrin ogen</w>
modul in</w>
E V</w>
retriev al</w>
om od
inform atics</w>
Le w
exer ts</w>
ca ve
s ten
Ill umina</w>
phy se
tu zumab</w>
odend ro
stud ent</w>
AR Y</w>
M odi
6 D</w>
la w</w>
slip s</w>
un k</w>
ultrason ography</w>
N it
phen y
mig raine</w>
sp an</w>
Diagnos tic</w>
op sin</w>
an i</w>
ric ul
H 7</w>
possi bilities</w>
leth ality</w>
plo ts</w>
U b
Gl uc
thyro idism</w>
N HE
chromat ographic</w>
V ol
B ay
ur in</w>
FI SH</w>
ti bial</w>
th y</w>
A GT
P op
ir reversible</w>
biosyn thetic</w>
On ce</w>
care fully</w>
lys osomes</w>
B al
microbi ota</w>
par ac
mut ase</w>
Gi b
SO 4</w>
stron gest</w>
seas onal</w>
os k
oth i
im atinib</w>
di aph
replic ates</w>
ot rophic</w>
loc alize</w>
C B1</w>
endomet ri
im plies</w>
plan ar</w>
Overex pression</w>
organ elles</w>
spec ulate</w>
PT P</w>
quic kly</w>
wa ve
smo ke</w>
peri odic</w>
de acetyl
trans loc
fav or</w>
F ACS</w>
PG E2</w>
cytosk eletal</w>
ap ine</w>
pos tin
Ex c
p al</w>
In trac
exc ised</w>
K E
cut off</w>
sp reading</w>
dimen sion</w>
am ic</w>
de polarization</w>
aut onomic</w>
obj ectives</w>
survi ved</w>
G lob
acet ylated</w>
Diab etes</w>
ver bal</w>
un de
Fren ch</w>
0 -</w>
e jection</w>
Ital y</w>
mon otherapy</w>
jo ints</w>
obj ects</w>
A AC
fib res</w>
fac ts</w>
stimul atory</w>
all ogeneic</w>
d yl</w>
athero sclerotic</w>
Pr acti
1 A1</w>
fal ci
heterolog ous</w>
institu tional</w>
Anim als</w>
recomm end</w>
Recom bin
endi x</w>
prolifer ating</w>
in nov
iodi de</w>
esophag us</w>
remark ably</w>
pig ment</w>
fl ight</w>
conn ections</w>
plac enta</w>
fer ri
multic enter</w>
oder m</w>
U b</w>
ide mia</w>
continu ation</w>
palli ative</w>
hy poten
PT SD</w>
re production</w>
vesi cular</w>
isot ope</w>
G V
ex plic
M ed
adren aline</w>
ag ricul
di methyl</w>
par um</w>
constric tion</w>
ab str
evalu ations</w>
Cardi ac</w>
polic ies</w>
S chol
Aug ust</w>
caregi vers</w>
prote omic</w>
re a</w>
Ger man</w>
M F</w>
im mer
re vision</w>
M L</w>
physi cally</w>
x ia</w>
m iti
non invasive</w>
b ar</w>
oxygen ation</w>
neuro degeneration</w>
ten e</w>
Bre ast</w>
dri ver</w>
rel im
stop ped</w>
GT A</w>
orig ins</w>
Seph arose</w>
l ate
it ate</w>
H2 AX</w>
S MA</w>
PA I</w>
P 7</w>
epis ode</w>
Respon se</w>
S i</w>
is let</w>
mobil ization</w>
S B
fil ters</w>
g dal
Fo und
correspon d</w>
discus ses</w>
gas tr
model ed</w>
CC 1</w>
clus tered</w>
di aly
in surance</w>
res tim
bur st</w>
immunos orbent</w>
R af</w>
En v</w>
DS Bs</w>
Op tim
L ung</w>
ensiti zation</w>
B ro
H U
sign atures</w>
possess es</w>
essi bility</w>
enti rely</w>
G D
we b</w>
accoun ting</w>
perin atal</w>
col lo
falci parum</w>
disturb ance</w>
bac ter</w>
thi ol</w>
cent ury</w>
nutri ents</w>
M 4</w>
ad y
fertili zation</w>
c ations</w>
N B</w>
uncertain ty</w>
lymph omas</w>
read er</w>
e pox
nephro pathy</w>
MS C</w>
im port</w>
otub es</w>
low ered</w>
appro val</w>
v ar</w>
prop yl
di oxide</w>
coll ap
ocompati bility</w>
aden omas</w>
ic ate</w>
con g
M IC
is lets</w>
Therap y</w>
P al
ob ste
marg inal</w>
ind ole</w>
histor ical</w>
aff inities</w>
T ERT</w>
pl ast</w>
glyco proteins</w>
K 6</w>
conjug ation</w>
prob able</w>
ali quo
quin one</w>
normal ization</w>
me at</w>
sp ar
PC Rs</w>
exci ted</w>
analog ous</w>
MD M2</w>
Li ver</w>
inhe rent</w>
Austral ian</w>
Flu or</w>
dispens able</w>
continu es</w>
conver ting</w>
Sh ort</w>
partici pating</w>
im ag
path ic</w>
hol ds</w>
ocy ste
be hind</w>
preferen ces</w>
max illary</w>
all ergy</w>
ab ec
optim ize</w>
g ic</w>
ow er</w>
Ka plan</w>
t ag
sol ely</w>
AM D</w>
un saturated</w>
lymph atic</w>
avoid ance</w>
amin ase</w>
phospholip ase</w>
desir able</w>
ec table</w>
oc occal</w>
precip itated</w>
L oss</w>
j ect</w>
spectro scopic</w>
En d
sep tal</w>
Ap plication</w>
L F</w>
po ols</w>
develop ments</w>
m outh</w>
di az
Back ground</w>
PAR TI
Colle ge</w>
F B
in tim
Ga g</w>
Table 1</w>
ati ns</w>
cre ating</w>
VE GF
Sh e</w>
scenari o</w>
pos its</w>
li vers</w>
C ity</w>
descrip tive</w>
athle tes</w>
cop ing</w>
PC a</w>
sep tic</w>
mac rom
polymorph ic</w>
v ince</w>
fraction ation</w>
exp endit
xen ografts</w>
progres sively</w>
v im
deteri oration</w>
CA L</w>
nem at
H 5</w>
L E</w>
beg an</w>
ici an</w>
olig odendro
ost omy</w>
Soci al</w>
Fac tor</w>
st ate
oc in</w>
n al
G 5</w>
Zh ang</w>
po orer</w>
retard ation</w>
CX CL1</w>
LD H</w>
S O</w>
In stead</w>
C 2
b 2</w>
H GF</w>
U 2</w>
Vi su
op ia</w>
F K
immun ocom
PC I</w>
R enal</w>
S ir
si ded</w>
anti retroviral</w>
Ca M</w>
val ently</w>
pari etal</w>
g a</w>
adv anc
au tism</w>
here in</w>
min ogen</w>
it ates</w>
wo unds</w>
in soluble</w>
surg ically</w>
vir tually</w>
lin ing</w>
li ved</w>
was te
W S</w>
progen y</w>
tri mes
In tra
top o
epti n</w>
myel in</w>
bloc ker</w>
el as
transfer ases</w>
bran ches</w>
Imp act</w>
ris m</w>
Ca P</w>
olig os
foll icles</w>
teri a</w>
amy gdal
N B
arrang ement</w>
0 E</w>
thym us</w>
DAP I</w>
op res
p y</w>
C at
mer cap
ob taining</w>
sp anning</w>
spl enic</w>
compe tence</w>
EC 5</w>
Ex posure</w>
pi per
CH D</w>
acc essibility</w>
o king</w>
agglutin in</w>
Physi cal</w>
el le</w>
phot oc
le v
Rep ort</w>
catar act</w>
cour ses</w>
suff ered</w>
h aled</w>
Com plete</w>
T OF</w>
ang ular</w>
in ase</w>
M id
AT R</w>
ambul atory</w>
duc tal</w>
conflic t</w>
bio active</w>
b ones</w>
diss ected</w>
kin et
m us</w>
vacc inated</w>
AD AM
Im ages</w>
High er</w>
imp ly</w>
hyper glyc
categor ized</w>
as k</w>
rig id</w>
oc t
sto ichi
mathem atical</w>
med ul
yiel ding</w>
Found ation</w>
ic ed</w>
in sensitive</w>
summar ize</w>
ver at
gro ss</w>
equip ment</w>
gradi ents</w>
og le</w>
stal k</w>
inc ision</w>
propen sity</w>
posi tioned</w>
neuro protective</w>
M BP</w>
distinguish able</w>
constitu ents</w>
reconstitu ted</w>
s arcom
PR L</w>
E g
abol ism</w>
N uclear</w>
A Q
z ones</w>
re acted</w>
PARTI CIPA
tri plicate</w>
t ants</w>
infarc t</w>
enti ty</w>
tetrac ycline</w>
ob ar
men str
my ri
bur g</w>
vi br
arrhyth mias</w>
P IN
1 L</w>
contr ary</w>
ll ation</w>
st ances</w>
me eting</w>
de tri
catal ase</w>
ulc ers</w>
la b</w>
edi c</w>
vulner able</w>
encap sul
ag le</w>
post partum</w>
E qu
Go ogle</w>
In dian</w>
weak er</w>
el ution</w>
hams ter</w>
ip si
lim bs</w>
T RE
prophyl actic</w>
Wh ite</w>
F low</w>
anaes thesia</w>
HM G
trans verse</w>
suff iciently</w>
ad d</w>
as sumption</w>
sol e</w>
di sh
where by</w>
k i</w>
D ay</w>
confir ms</w>
PARTICIPA NTS</w>
ter a</w>
F u
V P</w>
out break</w>
hair pin</w>
strom a</w>
reve aling</w>
ch i</w>
a 2</w>
for tunately</w>
electro physiological</w>
phen olic</w>
necess arily</w>
e ted</w>
press ors</w>
pan els</w>
T c</w>
Mit ochond
T DP</w>
pl ot</w>
ph on
colum ns</w>
D aw
extrem ity</w>
poll en</w>
G al</w>
mer cury</w>
surpri sing</w>
cros sed</w>
sugges tive</w>
fet uses</w>
derm atitis</w>
C 9</w>
Th r
U 1</w>
n gs</w>
CT s</w>
all ograft</w>
sati le</w>
t od
effic ac
c ity</w>
No vel</w>
PI K
Cl ass</w>
mal formations</w>
or in</w>
analge sic</w>
investig ators</w>
un less</w>
L it
ing estion</w>
end point</w>
Gl ut
ste ri
de phosphorylation</w>
termin als</w>
suppres sive</w>
od ynamics</w>
but y
chemo kines</w>
I X</w>
im pair</w>
i tive</w>
os p
cho ro
dyst rophy</w>
occup ancy</w>
CT D</w>
thrombo tic</w>
spi ke</w>
e w
l ectin</w>
manifest ation</w>
E SCs</w>
CD 5</w>
Differen tial</w>
a ic</w>
radi olab
ch it
Mei er</w>
el se
alk yl</w>
hospit al
compens atory</w>
ophag y</w>
examin es</w>
Pro spective</w>
v om
ra ise</w>
an es</w>
aggreg ate</w>
c ationic</w>
ti fied</w>
kin ds</w>
oph yl
seed lings</w>
brow n</w>
Pre vention</w>
em is
shor tening</w>
o protein</w>
blin ded</w>
Pre valence</w>
electroly te</w>
m Abs</w>
ir respective</w>
th an
diff ering</w>
bl ast
In sul
aberr ations</w>
tw enty</w>
cogni tion</w>
dis mutase</w>
m ine</w>
Y or
I CAM</w>
i po
T at</w>
ro bu
Dat ab
O X
p cDN
2 c</w>
Be fore</w>
A ca
in puts</w>
differen tly</w>
oper ate</w>
N Y</w>
quanti ties</w>
Ch en</w>
associ ates</w>
adhe rent</w>
B or
ro c
star ch</w>
hand ling</w>
Ch erry</w>
os ter</w>
conduc t</w>
meth ane</w>
na ive</w>
remo ving</w>
G SK</w>
hypothe size</w>
phenyl alanine</w>
An gi
0 th</w>
Nov ember</w>
param etric</w>
endoscop y</w>
pseud o
P ad</w>
viri ons</w>
ud ge</w>
ari um</w>
morph ogenesis</w>
Ne w
Li ke</w>
accompl ished</w>
U B
pul sed</w>
crystall ine</w>
o z
multi drug</w>
pre v
i NOS</w>
az one</w>
in patient</w>
D A
as e
r hiz
lin ear
T ric
lo ok</w>
eclamp sia</w>
Tai w
Out comes</w>
O l
Th ose</w>
Cro hn</w>
teri zed</w>
micro vascular</w>
GAB A
disc rep
voc al</w>
co des</w>
eg o</w>
am orph
char acter</w>
deli ver</w>
prin ting</w>
bo w</w>
MD R</w>
tre es</w>
electro cardi
ing er</w>
cros so
silic o</w>
lat ation</w>
end ocardi
care ful</w>
ur ance</w>
S af
N ine</w>
fo ot
CT L</w>
MR SA</w>
ve ins</w>
subtil is</w>
leg al</w>
pro tr
dys regulation</w>
galacto sidase</w>
tw o
adap tor</w>
k B</w>
Cr yst
rati ngs</w>
bud ding</w>
modi um</w>
amph etamine</w>
Can adi
k y
o v</w>
mess enger</w>
Brd U</w>
5 E</w>
ent ory</w>
domes tic</w>
De pression</w>
contr actions</w>
un detectable</w>
V al</w>
ch iral</w>
pe er</w>
inver ted</w>
tr abec
N ic
hist ologically</w>
. 5</w>
O CT</w>
ti tration</w>
C b
hydro philic</w>
plas minogen</w>
eukary otes</w>
galact ose</w>
Incre asing</w>
S tim
S ox
Con tin
carbox yl</w>
om ain</w>
c aries</w>
cen tered</w>
res ected</w>
il ing</w>
f ecal</w>
doc tors</w>
Cl assi
grad ed</w>
Sup por
de posits</w>
h ole</w>
comfor t</w>
monol ayers</w>
zygo tes</w>
counsel ing</w>
M T1</w>
bil ayer</w>
nucle oside</w>
methyl transferase</w>
tachy cardia</w>
atmosph ere</w>
ograph ically</w>
Coch rane</w>
incorpor ating</w>
i as</w>
dy sp
id y</w>
R u
S chool</w>
typ ing</w>
anti fungal</w>
ple ts</w>
publ ications</w>
AI D</w>
cardi o
R K
pre frontal</w>
G CA
Wh ole</w>
ammon ia</w>
cohe rence</w>
is ely</w>
Fin dings</w>
institu tions</w>
not ably</w>
ti tr
adv ance</w>
in continence</w>
fil es</w>
so y
triglycer ide</w>
n t
N utri
k al
P ear
ti tan
trigg ering</w>
else where</w>
MC P</w>
gre w</w>
hist ones</w>
9 a</w>
B BB</w>
p neumo
ur able</w>
Ag il
anti coagul
retri eved</w>
R y
ti ves</w>
B W</w>
sy n</w>
lap se</w>
ro dents</w>
Res p
Ex amination</w>
my ocytes</w>
chic k
unc ture</w>
al c
fam ili
Initi al</w>
sk i</w>
w et</w>
ul ty</w>
proj ection</w>
utili ze</w>
ar ding</w>
P 0</w>
ge ographic</w>
hemorrh agic</w>
Li kewise</w>
hepat ocyte</w>
mo ve</w>
ser a
her pes</w>
survi ve</w>
av 1</w>
ch lo
Multi variate</w>
Agil ent</w>
mod ules</w>
pro pri
pe ro
h i</w>
per mis
i b
ol a</w>
en tered</w>
PC A</w>
ul us</w>
C le
coord inate</w>
3 F</w>
so ils</w>
path ologies</w>
g et</w>
p wise</w>
X L</w>
da iry</w>
or ic</w>
phosphor ylate</w>
exper t</w>
sera dish</w>
Ne twor
pros thetic</w>
autom atic</w>
tub ules</w>
oc ks</w>
yn x</w>
mark et</w>
Retro spective</w>
V S</w>
anastom osis</w>
co iled</w>
inf ectivity</w>
scav eng
Combin ed</w>
O M</w>
hor ses</w>
eth eless</w>
ta m</w>
exer ted</w>
cal modulin</w>
post ulated</w>
embol ization</w>
on omy</w>
8 S</w>
B 7</w>
synthe tase</w>
Th 2</w>
synap se</w>
pul l</w>
dish es</w>
inter play</w>
osteo arthritis</w>
M er
P i</w>
Tr yp
y e</w>
8 a</w>
adren oc
nan os
li ter</w>
ur ium</w>
rap h</w>
wor ms</w>
radi us</w>
wil d
sar co
Anti bodies</w>
r ational</w>
c GMP</w>
under goes</w>
sp ent</w>
erythem at
A 1c</w>
group ed</w>
intra ocular</w>
F A
s g
alk yl
lif es
cop e</w>
trimes ter</w>
fl am
d ated</w>
mening itis</w>
S 8</w>
mis match</w>
coun ter</w>
yl in</w>
pi x
sensiti zed</w>
neurom uscular</w>
hel per</w>
Plas modium</w>
bund le</w>
anc re
en es</w>
conjunc ti
fo rest</w>
onc ology</w>
lat tice</w>
g over
wor sen
persis ted</w>
qu ar
pre p
rein forc
transf err
1 st</w>
aff ective</w>
ap art</w>
MT s</w>
fraction ated</w>
PP 2A</w>
K e
ophthal m
her nia</w>
periph ery</w>
G AP</w>
pel lets</w>
in form</w>
gluc uron
diver gence</w>
plo idy</w>
B r</w>
uncer tain</w>
gly can</w>
verat rol</w>
pat ches</w>
RESUL T</w>
Schol ar</w>
ari al</w>
vir tual</w>
ect amine</w>
H1 N1</w>
M d
ep sin</w>
P ain</w>
g al</w>
sched ule</w>
produc tive</w>
Di st
prol actin</w>
pap ers</w>
D a
µ L</w>
D P
RA D5</w>
opath ology</w>
bel ong</w>
percent ages</w>
Pi er
rom ycin</w>
Organ ization</w>
p ation</w>
play ers</w>
SM C</w>
in ous</w>
con sumed</w>
F as
k ingly</w>
g aps</w>
spectro meter</w>
G DP</w>
ero n</w>
deter gent</w>
mon ic</w>
foll icle</w>
f ission</w>
ur idine</w>
traff ic</w>
P ulmonary</w>
e able</w>
wal ls</w>
ron es</w>
N 4</w>
corticostero ids</w>
th ous
1 G</w>
diaph rag
olec ules</w>
eng ue</w>
gli omas</w>
lac tam
Insul in</w>
transpor ted</w>
Experim ent</w>
bil ir
ex ha
N AC</w>
micro m</w>
assi stance</w>
lam b
waste water</w>
m 3</w>
ethn icity</w>
E duc
dodec yl</w>
detri mental</w>
Ad ult</w>
AB A</w>
b order</w>
S o</w>
no rep
ex tinc
PA H</w>
kill er</w>
form alin</w>
ph al
On c
s ular</w>
CD 6</w>
S HR</w>
cur cumin</w>
poll ut
T ub
Graph Pad</w>
pon ectin</w>
Tran si
load s</w>
intraven ously</w>
V L
compri ses</w>
ardi al</w>
deli ver
PA 1</w>
marg in</w>
acet onitrile</w>
G ST
prec eding</w>
homogen e
AS P</w>
u si
Im age
Cul ture</w>
om ide</w>
conduc ting</w>
sh unt</w>
ultra violet</w>
L ig
di e</w>
bi ologic</w>
pl au
O V
At g
glycos ylated</w>
inv ari
sph erical</w>
ly tic</w>
P art</w>
me tic</w>
s r
co valently</w>
M DS</w>
neuro endocrine</w>
com mit
beta 1</w>
br uary</w>
hydro chloride</w>
he avi
be it</w>
sy ring
N PC</w>
psych iat
Y oun
cl ock</w>
comorbi dities</w>
M ad
RO C</w>
M ale</w>
L uc
bri efly</w>
sub tle</w>
In hi
co dons</w>
oscill ations</w>
E ast</w>
De termination</w>
L I</w>
sp ite</w>
mean ing
Fe bruary</w>
norep inephrine</w>
v ast</w>
oc clud
reli es</w>
ri bo
was h</w>
Recombin ant</w>
cit abine</w>
pois oning</w>
Pri or</w>
Surviv al</w>
G li
mat ric
cer amide</w>
Cdc 2</w>
discrimin ate</w>
it ability</w>
hapl otypes</w>
erythro id</w>
ip 1</w>
homolog s</w>
Fluoresc ence</w>
br ady
em a</w>
Spr ague</w>
Kore a</w>
plex es</w>
cock tail</w>
L og
py ramidal</w>
ration ale</w>
os yl</w>
ul in
prote ome</w>
Ac c
palmit o
gra y</w>
al umin
m Glu
fin ite</w>
identi fies</w>
wor m</w>
ald osterone</w>
Electro n</w>
confir mation</w>
meth oxy
gener ations</w>
kinet och
ipsi lateral</w>
uni variate</w>
Gen omic</w>
rib ose</w>
C HO
var ic
access ory</w>
qu a
E Z
cur ative</w>
vom iting</w>
ph ant
res orption</w>
N M
gluc agon</w>
Daw ley</w>
h ind
quarti le</w>
m Cherry</w>
Larg e</w>
a ult</w>
L U
meio tic</w>
h r
estim ating</w>
po res</w>
remo te</w>
D ul
pro of</w>
i v</w>
neighb oring</w>
unifor m
saliv a</w>
Ne ther
M agnetic</w>
aut onom
r yst
recru it</w>
out growth</w>
Amer icans</w>
phosph at
EB P
regi stration</w>
impair ments</w>
N U
lig ated</w>
transferr in</w>
fil l</w>
bi omedical</w>
gradu ate</w>
p up
absc ess</w>
deman ds</w>
H CT1</w>
ST AT</w>
AL T</w>
odon tic</w>
ar ded</w>
sw ine</w>
L 5</w>
use a</w>
inhal ation</w>
JA K2</w>
I sl
Bam HI</w>
D ig
TL R
an o</w>
as tern</w>
arach id
Therap eu
atten ding</w>
w it
nor thern</w>
r ant</w>
ma ize</w>
exten ding</w>
adj unc
Datab ase</w>
Y AP</w>
caffe ine</w>
drom e</w>
under lie</w>
radi ographs</w>
st re
fet us</w>
st ated</w>
bron cho
Canadi an</w>
V p
pl ans</w>
potenti ation</w>
compe ting</w>
epith el
resus citation</w>
Scre ening</w>
azep ine</w>
ad ducts</w>
H3 K2</w>
osy stem</w>
path ogenicity</w>
pri or
Ma j
cardi opulmonary</w>
prec ed
anticip ated</w>
polyp eptides</w>
m u</w>
B V</w>
6 b</w>
medi as
ap on
P rism</w>
arsen ic</w>
tr ich
phosph amide</w>
rec all</w>
Li pof
bro mo
posi tes</w>
ic idal</w>
conduc tivity</w>
il st</w>
renew al</w>
Fam ily</w>
phosphoryl ates</w>
hierarch ical</w>
ific ations</w>
break down</w>
the red</w>
pair ing</w>
hum oral</w>
C 1
Tw elve</w>
M is
Im age</w>
ar bon
tin g
M an</w>
VE N
prec isely</w>
8 B</w>
haz ards</w>
In j
method ological</w>
Struc ture</w>
MEASU RES</w>
E B</w>
T g
inv asi
He tero
hy gi
jo b</w>
cycl ospor
M .
im plying</w>
sedi ment</w>
fl at</w>
negl igible</w>
proj ections</w>
fabric ated</w>
J ack
Fig. 1</w>
K i
re activation</w>
Nether lands</w>
rec ap
el em
od al</w>
rel ate</w>
Glob al</w>
NL S</w>
qu ine</w>
ER G</w>
S G
ar k
proper ly</w>
pro t
ro limus</w>
S of
stret ch</w>
eg al
e sian</w>
cy st
continu ing</w>
circum stances</w>
Hsp 7</w>
encephal itis</w>
im por
parathyro id</w>
tr unk</w>
fi able</w>
L N</w>
bor ns</w>
z a</w>
corro bor
wo od</w>
in o
nan o</w>
emis sions</w>
reciproc al</w>
anth rac
scenari os</w>
erythro po
Inhi bit
i ter
al beit</w>
C i</w>
broad ly</w>
s ure</w>
bran ching</w>
differenti ating</w>
emplo yment</w>
t tes</w>
um inal</w>
ang e</w>
ren ces</w>
ch ance</w>
conn ective</w>
nucle osome</w>
Posi tive</w>
sh ut
re tain</w>
ul tr
4 F</w>
h on
epid ural</w>
ub in</w>
ver age</w>
pos it
crosso ver</w>
CS C</w>
replic ated</w>
d B</w>
ang ina</w>
Pl us</w>
Intro duction</w>
cad mium</w>
r as
ri l</w>
sym metric</w>
-- a</w>
F il
sol vents</w>
adequ ately</w>
exclu sive</w>
li ves</w>
S 9</w>
se dim
PM L</w>
H elic
C BP</w>
T CT
omyel itis</w>
phy rin</w>
p t
D ou
bat ch</w>
end osomal</w>
re programming</w>
mir ro
DO X</w>
belie fs</w>
wan ted</w>
prote omics</w>
resul tant</w>
st ones</w>
vi ro
A sia</w>
DN ase</w>
landsc ape</w>
retin opathy</w>
toler ant</w>
Rel ati
inser t</w>
us sian</w>
Ca Cl2</w>
As perg
infer tility</w>
Four ier</w>
H L
cas cad
buil d</w>
addi tionally</w>
oscop ic</w>
diver gent</w>
F H</w>
prep are</w>
es h
analy se</w>
form at</w>
h t
b asi
Institu tes</w>
ron ary</w>
spermat ozo
gyr us</w>
auto antibodies</w>
gr ap
ophil ia</w>
lip ase</w>
uter us</w>
syn onymous</w>
vesti bular</w>
th elial</w>
bi o</w>
electrophore tic</w>
V D
Rel ative</w>
contrib ut
en teric</w>
C op
hom ocyste
encephal opathy</w>
epider mis</w>
design s</w>
hel ps</w>
mesen teric</w>
s er</w>
nanop article</w>
DS M</w>
synovi al</w>
CO S</w>
devi ations</w>
mo id</w>
c tomy</w>
K CN
perturb ation</w>
TGF β</w>
t ate</w>
lar yngeal</w>
sal ts</w>
P ap
F F</w>
C lo
B en
c f
integr ins</w>
vas opres
Di ego</w>
su ture</w>
e k</w>
oligom erization</w>
A β4</w>
tra p</w>
end otoxin</w>
ti a</w>
lymph ocytic</w>
correspon ded</w>
L C
in effective</w>
ap tam
characteri sed</w>
ho c</w>
nucle ase</w>
annot ated</w>
m ock</w>
Amer sham</w>
visc osity</w>
ech anical</w>
susp ici
hor seradish</w>
s outhern</w>
neo plasia</w>
war f
con flu
abor tion</w>
lifes pan</w>
dis appeared</w>
o ted</w>
impair s</w>
thrombocytop enia</w>
H s
L ong
F V</w>
μ mol</w>
in i</w>
b uc
or atory</w>
8 C</w>
toxic ities</w>
hyp oglyc
ex it</w>
person nel</w>
1 F</w>
reservo ir</w>
fas c
t ap
N H2</w>
an no
contex ts</w>
R FP</w>
T el
neut rop
no table</w>
ra f
carg o</w>
bra in
Dul bec
Pro ject</w>
radio active</w>
nic kel</w>
sis ter</w>
B on
pal sy</w>
Addi tion</w>
c all</w>
triglycer ides</w>
discrep ancy</w>
T2 DM</w>
G PCR</w>
matric es</w>
sh aring</w>
P W
tetra hydro
B A
antidepress ant</w>
wea kness</w>
Relati onsh
H 6</w>
multi disciplinary</w>
C t
sor ption</w>
co oling</w>
cDN As</w>
in tran
dig estive</w>
broad er</w>
AS E</w>
asym metry</w>
Le e</w>
A den
na usea</w>
ut ation</w>
ra ises</w>
mas ter</w>
um ination</w>
isom ers</w>
h exam
pa m</w>
amygdal a</w>
Y et</w>
conden sation</w>
G L</w>
trac er</w>
EM G</w>
ke ts</w>
s i</w>
fif th</w>
T i</w>
im posed</w>
min ority</w>
LT P</w>
di i</w>
fib rous</w>
at ology</w>
immunob lot</w>
tri phosphate</w>
E ph
Dulbec co</w>
rever si
immun omod
mon key</w>
cr u
physi ologically</w>
orth olog
determin es</w>
om s</w>
d ae</w>
MC F7</w>
fav our
cent res</w>
strati fication</w>
pri on</w>
R BC</w>
tic k</w>
en am
anti serum</w>
Sub sequent</w>
5 th</w>
calc ification</w>
iz er</w>
T or
hydr ated</w>
is ite</w>
G CC
cur ric
S pain</w>
preferen tial</w>
r ules</w>
soy bean</w>
rel ating</w>
cyt ology</w>
Pear son</w>
permeabil ized</w>
bo ard</w>
complem entation</w>
Co h
loc omotor</w>
Yor k</w>
seg mental</w>
deri ve</w>
inter cellular</w>
sp ong
K u
mag n
trop ical</w>
Un fortunately</w>
il lo
s h</w>
abro gated</w>
occup ied</w>
bro th</w>
ici encies</w>
coordin ates</w>
Ex trac
N S1</w>
bl ings</w>
chick ens</w>
dissemin ation</w>
Jack son</w>
produc tivity</w>
house hold</w>
Asperg illus</w>
STAT 1</w>
rex ate</w>
N MD
plic ity</w>
opoi esis</w>
4 G</w>
N R</w>
tic us</w>
st ressed</w>
crystalli zation</w>
tr al</w>
trans form
immun ocyto
V en
ro utes</w>
raz ole</w>
e us</w>
ati vity</w>
neuro transmitter</w>
to id</w>
sb ad</w>
L RR
Sev enty</w>
z ine</w>
Poten tial</w>
co operative</w>
Rap id</w>
6 -</w>
in ety</w>
d ust</w>
biotin ylated</w>
CE A</w>
Ran dom
se mic
dam aging</w>
recogn izes</w>
en ol
ad missions</w>
conf ers</w>
ect ories</w>
e NOS</w>
docum ent</w>
Carl sbad</w>
ad ec
ge ometric</w>
aug mentation</w>
de tox
add ressing</w>
exp and</w>
cl ath
fig ures</w>
cholec y
IK K
perox is
p all
er ship</w>
Le vels</w>
SP ECT</w>
accep tance</w>
ome res</w>
chemil uminescence</w>
inher itance</w>
re fr
belong s</w>
ac tors</w>
patho physiological</w>
anne aling</w>
U PR</w>
A pop
chit osan</w>
up uncture</w>
IR S</w>
shor t
HF R</w>
in tubation</w>
hydrol ase</w>
bre ast
R F
min i</w>
cogn ate</w>
synthe size</w>
H ip
anes thetic</w>
A uro
CR T</w>
Ta u</w>
sacrif iced</w>
W 2</w>
aut opsy</w>
new borns</w>
Y .</w>
cl ade</w>
sero type</w>
r ating</w>
Eco RI</w>
My o
G α
tw in</w>
K ir
Gen Bank</w>
menstr ual</w>
E GTA</w>
micro glial</w>
lac Z</w>
det achment</w>
S AM</w>
In flam
PBM Cs</w>
sal v
particip ant</w>
F AN
Sw it
ech o</w>
there after</w>
po d
eth ics</w>
modul ators</w>
ep sil
in ium</w>
osteoc las
osi des</w>
ran ts</w>
ot rexate</w>
gluc os
i ate</w>
cop olym
A ng</w>
App endix</w>
c yl
Reg ulation</w>
sc aling</w>
lenti viral</w>
pur su
pcDN A3</w>
re per
op posed</w>
pro vision</w>
Institu tional</w>
duod en
arg ue</w>
gen otyped</w>
V R</w>
B ody</w>
R N</w>
fibr in</w>
mat urity</w>
GT Pases</w>
thic k
soci o</w>
2 F</w>
M as
M es
virul ent</w>
zyg osity</w>
vi sions</w>
am ides</w>
bu b
ol l
circum ference</w>
at orial</w>
sil ent</w>
C SCs</w>
pol i
J ur
exclud ing</w>
en trop
man age</w>
br ac
Kore an</w>
radio activity</w>
re act</w>
F ri
excit ability</w>
intram olecular</w>
dri vers</w>
M ental</w>
le aving</w>
Ab out</w>
inter faces</w>
ds RNA</w>
Con tr
he dral</w>
dox in</w>
TL V</w>
M t
H 5
fung us</w>
radi os
alg ia</w>
complain ts</w>
T CA</w>
cyclo phosphamide</w>
epti dase</w>
N J</w>
dendri tes</w>
sp as
op eron</w>
chec ked</w>
thre at</w>
N GS</w>
ph orb
c .</w>
carb ons</w>
lo tinib</w>
AC h</w>
P Y
G 0</w>
h app
hypertroph ic</w>
b all</w>
t us
absor bed</w>
inflam mas
de bate</w>
SC I</w>
idel ity</w>
Syn drome</w>
d w
Mut ation</w>
win ter</w>
ferri tin</w>
adi ponectin</w>
cataly zes</w>
introduc ing</w>
er ia</w>
Auro ra</w>
co bal
sph ero
B loc
go rous</w>
har m
- ATPase</w>
E agle</w>
D ATA</w>
PT C</w>
meaning ful</w>
ograph ics</w>
8 F</w>
fing er
C 7</w>
ag it
att acks</w>
an te
ch ori
Ha em
suppor tive</w>
origin ating</w>
P re</w>
Car b
cataly sts</w>
pass ed</w>
con ferred</w>
ili ac</w>
mes h</w>
ent ric</w>
ver sions</w>
B J
a ur
wor th</w>
c p
us hing</w>
summar izes</w>
INTER VEN
Lym ph
En viron
m ang
def iciencies</w>
gem citabine</w>
ker atin</w>
in appropriate</w>
P relim
I AP</w>
expect ations</w>
f ell</w>
consum ing</w>
TN BC</w>
retino ic</w>
erythemat osus</w>
y er</w>
domin ated</w>
spati ally</w>
gro unds</w>
H U</w>
ty ph
cover slips</w>
dis playing</w>
micro RNA</w>
oc aine</w>
PF C</w>
carb oxy
brain stem</w>
in der</w>
thym ic</w>
ubiquit ous</w>
ar rested</w>
phorb ol</w>
M e</w>
vic tim
Caucasi an</w>
obacteri a</w>
en ters</w>
og aster</w>
pack aging</w>
scre ens</w>
coch lear</w>
im mort
an tero
prim ed</w>
er ies</w>
Th at</w>
D na
BR CA2</w>
Pier ce</w>
f MRI</w>
ten cies</w>
Prelim inary</w>
R ats</w>
reper to
judg ed</w>
volati le</w>
L t
p 8</w>
u als</w>
Post operative</w>
gen ous</w>
wor thy</w>
an il
E mer
Inf ection</w>
AB EL
A min
ipo protein</w>
com ycin</w>
inser tions</w>
function alized</w>
neur ite</w>
Suppor ting</w>
extinc tion</w>
AS H</w>
M ass</w>
os el
pp ing</w>
form al</w>
re di
4 R</w>
r DNA</w>
spermatozo a</w>
gra in</w>
ent ous</w>
ser ver</w>
clar ified</w>
F R</w>
bol us</w>
ABEL LED</w>
trac k</w>
sub populations</w>
ti fication</w>
e tax
fac torial</w>
MT X</w>
in trigu
chron ically</w>
CP T</w>
ton gue</w>
N u
consi st</w>
Vir us</w>
U NL
compri se</w>
cascad es</w>
it ating</w>
n id
ultrastruc tural</w>
idi c</w>
Wh it
PIK 3
e pam</w>
nod al</w>
impe dance</w>
L L</w>
e tine</w>
fruc tose</w>
ie ties</w>
kin e
syn thesi
re finement</w>
RE T</w>
S AM
lear ned</w>
conf ounding</w>
bro ught</w>
UNL ABELLED</w>
clos er</w>
S H2</w>
ec ology</w>
nar row
et ter</w>
K A</w>
Lipof ectamine</w>
them es</w>
L is
decom position</w>
r ication</w>
mel ting</w>
des cending</w>
l umin
traj ectories</w>
silic on</w>
cer tain
pro pan
G PCRs</w>
permis sive</w>
stri es</w>
A h
recap it
fracti onal</w>
ap 1</w>
i ri
car ni
homolog ue</w>
L ight</w>
medi ation</w>
osk eletal</w>
c ra
i us</w>
n ame</w>
plas ts</w>
His panic</w>
p B
ic on</w>
lamin in</w>
inf used</w>
cytos ine</w>
oste oblasts</w>
coll agen
sp p</w>
k at</w>
compens ation</w>
Q TL</w>
ie tin</w>
Ig G1</w>
titan ium</w>
etax el</w>
re ward</w>
al and</w>
d 2</w>
polys accharide</w>
RP 3</w>
TK I</w>
T K</w>
Stand ard</w>
AG E</w>
scre w</w>
S tri
cal cin
redund ant</w>
di ploid</w>
photo receptor</w>
iton in</w>
O s</w>
phosphat ases</w>
cros sing</w>
l ec
T BS</w>
CT C</w>
plau sible</w>
circu its</w>
e ties</w>
glyc ans</w>
vacu um</w>
E L</w>
Isol ation</w>
is tically</w>
NE L</w>
highligh ting</w>
re vascularization</w>
GF AP</w>
am ate</w>
chec k</w>
pac ing</w>
in consistent</w>
Taiw an</w>
On t
. 6</w>
ne in</w>
ar ri
disper sed</w>
s and
ass ing</w>
acqu ire</w>
recei ver</w>
hor se</w>
reconstruc ted</w>
Nor mal</w>
sol ar</w>
2 S</w>
S BP</w>
dec arbox
haem orrh
nat ri
1 beta</w>
sp p.</w>
er in</w>
I OP</w>
CO 3</w>
sph ere</w>
P S1</w>
immunosup pression</w>
nec rotic</w>
constitu tes</w>
egal ovirus</w>
bran ched</w>
fi tinib</w>
anti oxidants</w>
vulner ability</w>
ic acy</w>
az ide</w>
organ izations</w>
program mes</w>
over load</w>
al ised</w>
B ir
s un
om o
ACh R</w>
co m</w>
m erg
end oc
ann er</w>
S p1</w>
atax ia</w>
ref ined</w>
Ma xim
Pro f
V SV</w>
ic us</w>
FL D</w>
succ essive</w>
termin i</w>
Sof tware</w>
teri zation</w>
H SCs</w>
P ho
el ast
7 F</w>
inst ances</w>
distinc tive</w>
be vac
itud es</w>
end ocytic</w>
SU MO
hall mark</w>
tis h</w>
perm it</w>
pharmac ologic</w>
volun tary</w>
Com plex</w>
CA R
cap abilities</w>
Gen es</w>
sil enced</w>
F ab
ap nea</w>
exce eded</w>
Bi ol</w>
gal y</w>
re m
th ank</w>
Li u</w>
efficac ious</w>
encapsul ated</w>
applic ability</w>
g ar
yo u</w>
bevac izumab</w>
end onuclease</w>
pres s</w>
chic k</w>
protec ting</w>
altern ate</w>
multi variable</w>
surviv ing</w>
h ands</w>
K S</w>
free zing</w>
it a</w>
CA G</w>
refl ection</w>
depend ency</w>
c et
ac idosis</w>
fibr e</w>
ur gent</w>
insul in
le an</w>
he ated</w>
infiltr ating</w>
C yp
r at
reli ably</w>
b im
Me an
pof ol</w>
pa tes</w>
regul arly</w>
clath rin</w>
denat uration</w>
innov ative</w>
en g</w>
perfor ation</w>
sor ted</w>
mom ent</w>
her pes
co sis</w>
O E</w>
dist ur
tran ce</w>
Thir d</w>
cut aneously</w>
mim icking</w>
wa ters</w>
re min
af ter
Gl n</w>
dilu tions</w>
reg s</w>
in ia</w>
Ital ian</w>
hy alu
grad ual</w>
MS .</w>
An d</w>
melan ogaster</w>
d t</w>
ing dom</w>
posi tional</w>
par ad
visu alize</w>
V D</w>
pl ating</w>
te ach
di viding</w>
Bi ological</w>
splic ed</w>
G U
b in</w>
in spec
sim plex</w>
flav in</w>
AP 2</w>
cil ia</w>
ugh ter</w>
su ffer</w>
M W
L M</w>
effici encies</w>
infu l</w>
m y</w>
P d</w>
b ath</w>
chondro cytes</w>
L S
Del e
exper ts</w>
is op
col li
C .
el e</w>
ampl ify</w>
CCR 5</w>
P he
CD 9</w>
enlarg ed</w>
Ze aland</w>
- di
St age</w>
ectom ized</w>
dextr an</w>
thor ax</w>
An g
w i
Eff icacy</w>
PT P
choles tero
gen tam
acet one</w>
dis charged</w>
re vised</w>
res veratrol</w>
l actic</w>
P MS
im balance</w>
Sp anish</w>
meta phase</w>
M MR</w>
B lue</w>
Hb A1c</w>
th ly</w>
dis solution</w>
chro mo
M N
RA P</w>
lip idemia</w>
hypoten sion</w>
medic inal</w>
sex ually</w>
surro gate</w>
In di
u sions</w>
hab its</w>
retic ul
coloc alization</w>
ampl itudes</w>
pa ediatric</w>
am a</w>
mo ieties</w>
PC 3</w>
suspen sions</w>
ous ness</w>
hy ste
V P1</w>
C ellular</w>
U R
pop ular</w>
Networ k</w>
ter pen
tem plates</w>
ven om</w>
H H</w>
U SP
re sts</w>
sp ir
asci tes</w>
Al together</w>
bir ths</w>
or n
v on</w>
sl udge</w>
bi osens
lo oked</w>
L ap
T X</w>
sk y</w>
R he
H K</w>
R as
F N</w>
expec tedly</w>
sk ull</w>
GW AS</w>
B NP</w>
promp ted</w>
an os
on eph
consci ous</w>
sub cutaneously</w>
ic ol</w>
he te
R ING</w>
N ig
fac ing</w>
del ays</w>
S core</w>
Analy ses</w>
sti g
man aging</w>
enam el</w>
ocor tical</w>
PBM C</w>
um p</w>
Lu c</w>
z er
sel ecting</w>
thermod ynamic</w>
di latation</w>
un infected</w>
TU NEL</w>
si blings</w>
AB L</w>
replac e</w>
regi stry</w>
In strum
CB F</w>
H TLV</w>
vol ution</w>
d .</w>
ten si
bound aries</w>
GL P</w>
B 5</w>
D an
aut oradi
Therapeu tic</w>
F CS</w>
perc enti
lamin a</w>
throm ycin</w>
nan oc
design ing</w>
con sol
Loc al</w>
k an
collabor ation</w>
emphasi ze</w>
elu sive</w>
br achi
estro gens</w>
pharmac y</w>
mic ron
Obj ective</w>
Lit tle</w>
T O</w>
c ed</w>
B row
dop ed</w>
hyperglyc emia</w>
mod al</w>
adip ocyte</w>
p 9</w>
K I</w>
dissoci ated</w>
AN CE</w>
EC TS</w>
adsor bed</w>
expendit ure</w>
io sis</w>
kn oc
idi um</w>
Ab l</w>
so on</w>
inf eren
SC F</w>
at opic</w>
d al</w>
lipo proteins</w>
at ri
m .</w>
pseud o</w>
ac ycl
f a</w>
sen sor
lac ked</w>
sed ation</w>
TI R</w>
g es</w>
d engue</w>
inter acted</w>
seg mentation</w>
ak i</w>
insec tic
Pt d
angio plasty</w>
j ug
ax illary</w>
sex es</w>
otrop y</w>
ot opic</w>
B l
L ang
ogni tive</w>
ole ic</w>
W .</w>
Non etheless</w>
sum mer</w>
p H
n d</w>
ol ateral</w>
Ex peri
st och
e ast</w>
Swe den</w>
grad es</w>
pac king</w>
exha us
O lig
cath epsin</w>
S ES</w>
m .
H un
acti n
tel omeres</w>
Youn g</w>
ho u</w>
om ib</w>
mercap to
3 S</w>
T D</w>
supplem ents</w>
Q C</w>
F X
in osi
H G</w>
Th rom
Bi om
sel enium</w>
Jur kat</w>
micro satellite</w>
si onally</w>
W F</w>
Bay esian</w>
P ediatric</w>
eng aged</w>
co at</w>
AR F</w>
no id</w>
es cal
We b</w>
cur v
cholin esterase</w>
os elective</w>
CR F</w>
Helic obacter</w>
chape rones</w>
poly ethylene</w>
CYP 3
appropri ately</w>
T b
fi ers</w>
cor pus</w>
sp ut
entr icular</w>
hetero dimer</w>
gu n</w>
agre ed</w>
l avage</w>
IC C</w>
consul tation</w>
W 1</w>
aller gen</w>
T ables</w>
tro n</w>
soci ety</w>
DE NV</w>
D HA</w>
As n</w>
HB s
oph ore</w>
dom eth
roph yl
dy nein</w>
Sur face</w>
V alu
ec e</w>
ine al</w>
Per form
sw im
S H3</w>
ste pwise</w>
Sev ere</w>
ataly tic</w>
dro plets</w>
gro ove</w>
arbon ate</w>
protein uria</w>
nitro cellulose</w>
Dec re
addic tion</w>
er ated</w>
enanti om
end ovascular</w>
ogen y</w>
P 8</w>
st om</w>
hemisph ere</w>
fem ur</w>
GL U
Individ ual</w>
Ti O2</w>
guid eline</w>
ob enz
in distinguishable</w>
mim ics</w>
circul atory</w>
S ma
thal iana</w>
mean ing</w>
ocy t
glob in</w>
C 3
avi r</w>
Glc NAc</w>
oncogen es</w>
oma virus</w>
T rial</w>
salv age</w>
li sts</w>
diag nose</w>
Nat ural</w>
rel in</w>
on e
w el
transcrip tionally</w>
in clusions</w>
fresh ly</w>
c asp
notic ed</w>
L K
Sim ult
oste osarcoma</w>
modul ator</w>
h rs</w>
partici pates</w>
P it
dis location</w>
aden o
co chemical</w>
Ta q
cal ves</w>
Con centr
lamb da</w>
govern ment</w>
Medic are</w>
explo ited</w>
meth otrexate</w>
ing e</w>
Cor relation</w>
ha i</w>
mic rom
P P1</w>
fibro tic</w>
p R
AR s</w>
c ement</w>
ag ers</w>
free ze</w>
row s</w>
P in
et te</w>
ubiquitin ated</w>
dometh acin</w>
ell ul
SM Cs</w>
quen ching</w>
favour able</w>
a res</w>
V AS</w>
di str
ul as</w>
habit at</w>
manif ested</w>
m ati
DF T</w>
plex us</w>
mes oth
shar p</w>
Ch lamy
ul tra</w>
FL P</w>
perme able</w>
integr ate</w>
Commun ity</w>
incorpor ate</w>
E E</w>
dis continuation</w>
Sequ encing</w>
wid er</w>
resol ve</w>
provid er</w>
C amp
HC MV</w>
st y
caud al</w>
nit ros
mis sed</w>
streng th
secre tase</w>
g ains</w>
R CTs</w>
relap sed</w>
end points</w>
man ually</w>
f en
comp act</w>
c k</w>
co res</w>
EC L</w>
tub ule</w>
hemat ologic</w>
expl oring</w>
EZ H2</w>
im urium</w>
B E</w>
adv oc
z ol</w>
MA b</w>
eff usion</w>
S le
ex osomes</w>
w ire</w>
n 2</w>
art an</w>
EP O</w>
Ph il
Bacteri al</w>
concor dance</w>
x y</w>
b us
car inic</w>
we ar</w>
cycl ine</w>
ta vidin</w>
tras tuzumab</w>
p om
m ble</w>
occ ip
out breaks</w>
agit tal</w>
rib osomes</w>
her ni
b i</w>
F M</w>
fl ora</w>
requ isite</w>
dissemin ated</w>
buty rate</w>
T PA</w>
0 a</w>
II a</w>
me tro
presum ed</w>
fu el</w>
auth or
d h
up date</w>
sh i
Mean while</w>
Image J</w>
GABA ergic</w>
immobil ization</w>
ing ton</w>
l 1</w>
it or</w>
intrigu ing</w>
tal k</w>
stric tly</w>
dil ated</w>
ch ose</w>
re f</w>
afferen t</w>
Le ica</w>
bio tics</w>
hydr o</w>
s ter
CA SE</w>
asse mble</w>
eng age</w>
diame ters</w>
6 E</w>
ac upuncture</w>
exten ds</w>
Pol ym
defin ite</w>
sp ond
atmosph eric</w>
Chang e</w>
develop s</w>
cor n</w>
aggreg ated</w>
attenu ate</w>
scle ro
ge ographical</w>
de plo
Eigh ty</w>
bilir ubin</w>
SY BR</w>
Phosphor ylation</w>
pluri potent</w>
adop t</w>
prog ressed</w>
mac a
Fol low</w>
induc er</w>
pro vo
ocy cl
behavio urs</w>
tot ally</w>
Rem ark
quanti tation</w>
am ong
vasopres sin</w>
au to</w>
gran ular</w>
er lotinib</w>
acceler ation</w>
perturb ations</w>
am ylase</w>
sub family</w>
isol one</w>
4 H</w>
H SC</w>
CaMK II</w>
dem ographics</w>
ra ising</w>
fram es</w>
tas te</w>
mul tim
Syste matic</w>
vim entin</w>
Ri ver</w>
In duction</w>
ing u
Vit amin</w>
oxy cycline</w>
T regs</w>
Measure ment</w>
intr at
N CI</w>
hep ar
sph inc
agricul tural</w>
inflammas ome</w>
S ite</w>
doc etaxel</w>
LN CaP</w>
n ar</w>
illu strates</w>
s 2</w>
c iliary</w>
among st</w>
Perform ance</w>
PA F</w>
as i</w>
adolesc ence</w>
es us</w>
kin esis</w>
pa inful</w>
Nur sing</w>
op e
co operation</w>
mic elles</w>
te a</w>
po t</w>
prescri bing</w>
tumorig enic</w>
Q 2</w>
emplo ye
f ra
in tox
CL IN
in one</w>
Rep or
IQ R</w>
aw a</w>
pyri midine</w>
C 0</w>
e i</w>
nocic eptive</w>
i .</w>
Gib co</w>
ll er</w>
BC G</w>
Chil d</w>
homogene ity</w>
S mo
ran olol</w>
Ox y
bon ded</w>
dy es</w>
z omib</w>
ox ylin</w>
endometri osis</w>
por tions</w>
gener ic</w>
stabil izes</w>
expl oratory</w>
cortic osterone</w>
surve yed</w>
top ology</w>
Gu id
c ame</w>
il ian</w>
polym eric</w>
over t</w>
ome ga</w>
sal ic
CC K</w>
harm ful</w>
hemat ological</w>
b ox
inter viewed</w>
cl aims</w>
CH 3</w>
sequ el
T f
osens ory</w>
tol u
exp anding</w>
k o</w>
viri on</w>
Y 3</w>
amino transferase</w>
benz odi
metallo proteinase</w>
AT G</w>
G RA
HBs Ag</w>
tun ing</w>
SV 4</w>
lymph o
PO 4</w>
microsom es</w>
ox o</w>
MAL DI</w>
attenu ates</w>
ot roph
config ur
bic arbonate</w>
the ories</w>
expl ains</w>
Measure ments</w>
ou tw
prin ted</w>
carri es</w>
Q U
s tents</w>
R e</w>
cre ation</w>
nic he</w>
V III</w>
thromb us</w>
ec tual</w>
microsom al</w>
g ed</w>
e ver
tod ay</w>
NA FLD</w>
man nose</w>
sup plied</w>
pac ked</w>
two fold</w>
ifor m</w>
h at
cle ared</w>
lac tation</w>
myel ination</w>
acr ylate</w>
dis k</w>
tom ato</w>
Compo und</w>
S AR</w>
granul ocyte</w>
FGF 2</w>
3 c</w>
sti r
reg ime</w>
am il</w>
S ero
migr ating</w>
perf ect</w>
GSK 3β</w>
κ B
de formation</w>
F os</w>
inform ative</w>
ev ap
j e</w>
me trical</w>
pr int</w>
reg urg
sto res</w>
oste oblast</w>
ogen ously</w>
St ress</w>
exp ect</w>
un differentiated</w>
ner vation</w>
h an
bre ath</w>
dri ves</w>
K le
bac ter
at able</w>
D T</w>
mon e</w>
germin ation</w>
os um</w>
f idelity</w>
proteas omal</w>
D ys
O ut</w>
AM I</w>
gingi val</w>
gener a</w>
termin ally</w>
harb or</w>
chloro form</w>
phosph odi
z i</w>
hybri ds</w>
Pa ren
in haled</w>
atin gs</w>
aden ylate</w>
AD C</w>
D on
au x
ot om
pro pos
pac em
an ions</w>
sl ice</w>
infer red</w>
autonom ous</w>
par alysis</w>
moti vation</w>
pre y</w>
local izes</w>
g ia</w>
S RE
. .</w>
ec tory</w>
Ac et
dis ti
U 8</w>
en ter
creatin e</w>
re generative</w>
integr ating</w>
conven ient</w>
compu terized</w>
pre clud
Visu al</w>
pyr ro
lab elling</w>
nit rite</w>
sc ar</w>
h CG</w>
et ting</w>
K ar
dic ated</w>
zym es</w>
in version</w>
PD AC</w>
D ev
or ated</w>
PA S</w>
sup ra
grad ing</w>
me tri
R 6</w>
con azole</w>
Pre par
enlarg ement</w>
os per
lymph aden
insec ts</w>
Not ch
coupl es</w>
M H</w>
re paired</w>
cran i
sel ectin</w>
Le ishman
perm its</w>
vi x</w>
tom as</w>
Del ta
ucle otide</w>
d ol
Man n</w>
c us</w>
c ough</w>
neuro genesis</w>
D own</w>
C GG
F ab</w>
flo or</w>
Inv entory</w>
k D</w>
har bo
PP I</w>
H E</w>
Q T</w>
sig ma</w>
T ex
out lined</w>
tax a</w>
sec tor</w>
pri ority</w>
D o
Cx 4</w>
l ide</w>
Saf ety</w>
Physi ci
toler ability</w>
Cl on
electro ns</w>
co ded</w>
Reg arding</w>
et opo
der line</w>
mat ches</w>
neoplas m</w>
T an
de duced</w>
ex ome</w>
gen tly</w>
cerebro vascular</w>
plat forms</w>
ge fitinib</w>
Y 4</w>
dou b
el abor
diagnos tics</w>
ro ta
beg in</w>
sur prisingly</w>
k il
Th ough</w>
aqu atic</w>
ic os
bas ement</w>
mor ning</w>
cataly ze</w>
pl otted</w>
M ur
for k</w>
Pl ate
M G1</w>
co x
cann abin
cathe ters</w>
sh ed
Kn owledge</w>
ulcer ative</w>
ost at</w>
percep tual</w>
phen ols</w>
polyp s</w>
avoid ed</w>
er ation</w>
B K</w>
2 G</w>
V max</w>
air ways</w>
M am
RP A</w>
tus sis</w>
pl i
debri s</w>
P ublic</w>
our ce</w>
B L2</w>
Fig. 2</w>
Educ ation</w>
un folded</w>
emo tion</w>
transcrip tom
Che m</w>
G Y</w>
bur g
C at</w>
mar ri
reperto ire</w>
anno tation</w>
ir regular</w>
chemot axis</w>
topo isomerase</w>
d d
conflic ting</w>
vari ates</w>
C t</w>
RI G</w>
sulf on
HF D</w>
concer ned</w>
meas urable</w>
SP SS</w>
contracti lity</w>
Cs A</w>
des ensitization</w>
predn isolone</w>
gall bladder</w>
min d</w>
immun ogenicity</w>
AT P
ec k</w>
Lew is</w>
rec over</w>
attribu tes</w>
gr ant</w>
etopo side</w>
E SC</w>
e z
anti hypertensive</w>
nas cent</w>
Suc cess
eradic ation</w>
l ex
ter at
us ly</w>
t 2</w>
E 5</w>
f uc
TT P</w>
C ore</w>
V ascular</w>
ocy st</w>
phant om</w>
De sign</w>
v 2</w>
neuro toxicity</w>
Or th
carb onate</w>
warf arin</w>
eu tic
stero idal</w>
rig el</w>
exec utive</w>
enti ties</w>
u ve
B F</w>
ter ran
expres ses</w>
disrup ting</w>
pro pofol</w>
2 P</w>
evol ving</w>
S in
l i</w>
partic ulate</w>
sump tions</w>
M 5</w>
tr i</w>
tun nel</w>
termin ated</w>
O lym
ge o</w>
hydro gel</w>
lyso zyme</w>
AM PA</w>
telom eric</w>
clin ician</w>
TF II
or um</w>
spo res</w>
thalam ic</w>
hy ph
an cho
ep ic
hum an
replac ing</w>
MS I</w>
deacetyl ase</w>
D oes</w>
gentam icin</w>
lit ter
ICA L</w>
u ted</w>
Out come</w>
Δ 1</w>
metall ic</w>
f unding</w>
answ er</w>
V 4</w>
F v</w>
ati te</w>
neutrop enia</w>
tes tes</w>
phosphatidyl choline</w>
se man
natri uretic</w>
E .
cyt ogenetic</w>
S ph
H yp
n esses</w>
Pro ce
bi os
collap se</w>
MO I</w>
en dic
marg ins</w>
5 F</w>
P a</w>
amp icillin</w>
exis ted</w>
un folding</w>
K im</w>
comor bidity</w>
agen esis</w>
erc etin</w>
experi encing</w>
cri sis</w>
mon thly</w>
sti n</w>
eutic als</w>
D 7</w>
ds DNA</w>
p K
cytom egalovirus</w>
I U
avoid ing</w>
Cr y
NHE J</w>
deform ity</w>
re ferences</w>
C ognitive</w>
plate au</w>
inter molecular</w>
V O
homocyste ine</w>
SR C</w>
LRR K2</w>
Wa ter</w>
Sel ective</w>
sp ort</w>
ros ol</w>
assign ment</w>
ac illus</w>
Ac tive</w>
Maj or</w>
regul ations</w>
om eth
assum e</w>
K IT</w>
R ev
O .</w>
cas ein</w>
traj ectory</w>
Clo stri
apol ipoprotein</w>
arrhyth mia</w>
I L1</w>
spi ro
an ionic</w>
ir rig
secre ting</w>
initi s</w>
psycho sis</w>
ro ds</w>
ophar yngeal</w>
migr atory</w>
chim er
G B</w>
az ol</w>
heavi ly</w>
X R
Re verse</w>
inf ect</w>
obser ver</w>
fl aps</w>
arachid onic</w>
miner alization</w>
lin early</w>
res tin</w>
ari th
GC G</w>
neuro trophic</w>
hem i
PD GF
G EN
t ality</w>
im plement</w>
cu stom</w>
F requ
hom es</w>
mor bi
rest or
MR T</w>
hyper activity</w>
Peri ph
ill umination</w>
Min i</w>
phosph ates</w>
posit ron</w>
sequ entially</w>
0 B</w>
Remark ably</w>
V HL</w>
oligom eric</w>
Inter action</w>
age ing</w>
d yn
CC A</w>
Enh anced</w>
NF κB</w>
vil le</w>
repres s</w>
ev ity</w>
incub ating</w>
micro gram</w>
proj ects</w>
compens ate</w>
N umerous</w>
PM N</w>
si veness</w>
methyl ene</w>
c m2</w>
mosquit o</w>
al s.
is land</w>
w est</w>
star ved</w>
leuk aemia</w>
En dos
S ha
tele phone</w>
char t</w>
cal ls</w>
fail s</w>
ultras onic</w>
ar ises</w>
comb ine</w>
r ation</w>
1 2
tr o</w>
IC P</w>
4 ;</w>
&# 12
&#12 4;</w>
compromis e</w>
van comycin</w>
kin dly</w>
ME DL
S chem
on a</w>
exc ep
streng ths</w>
Hy po
eu than
U 2
rot ational</w>
V ector</w>
morph ologic</w>
Rec ur
F ree</w>
CLIN ICAL</w>
o venous</w>
S ensitivity</w>
pres entations</w>
FL T3</w>
W M</w>
2 L</w>
A 9</w>
SC ID</w>
e rec
parasi tic</w>
sha res</w>
An x
wh ilst</w>
Mon te</w>
nor adrenaline</w>
saf ely</w>
hygi ene</w>
I B</w>
R ac</w>
radiolab eled</w>
she ets</w>
physi cochemical</w>
sero logical</w>
fru its</w>
5 α</w>
PG C</w>
sci enti
gr u
1 d</w>
N HS</w>
TL R2</w>
u til
Z 1</w>
litter mates</w>
paren chym
contra dic
ak a</w>
fab rication</w>
meio sis</w>
c age</w>
r d</w>
contr as
R V
ton eu
xen o
SU MM
fol ds</w>
Carl o</w>
MEDL INE</w>
sub cloned</w>
ec ta
al located</w>
A Es</w>
muscul oskeletal</w>
cro p</w>
ch er</w>
5 Y</w>
mos aic</w>
E2 F</w>
tail ored</w>
TA TION</w>
abdom en</w>
Li br
enhanc ers</w>
D im
a king</w>
var s</w>
proced ural</w>
4 c</w>
e ases</w>
I RES</w>
transduc er</w>
Fc γ
6 J</w>
Ma ternal</w>
ou th
Al coh
B G</w>
og raph</w>
Met abolic</w>
glycoly tic</w>
ov ine</w>
gonad otropin</w>
curv ature</w>
ut ch</w>
IGF BP</w>
strep toc
Ch ol
rel ig
intra uterine</w>
N N
Braz ilian</w>
as cending</w>
Mitochond rial</w>
. 7</w>
SUMM ARY</w>
tim ely</w>
C aro
acceler ate</w>
V II</w>
PK R</w>
di chloro
C ha
micro wave</w>
expla ining</w>
Immunohisto chemical</w>
Dele tion</w>
I le</w>
Hist ological</w>
diagnos ing</w>
sta phyloc
dis appearance</w>
d oxycycline</w>
D oc
k ill</w>
intern alized</w>
K ingdom</w>
protein ases</w>
special ist</w>
7 b</w>
ill i</w>
ep ig
U U
sedim entation</w>
techn ological</w>
Regi stry</w>
an olamine</w>
ay ing</w>
des orption</w>
le af
ch a
GV HD</w>
U p</w>
ancho red</w>
vit re
ME NTS</w>
ol ate</w>
hor n</w>
ul i
id ene</w>
bi phasic</w>
nucle ation</w>
In s
Tra um
sp orts</w>
mono phosphate</w>
tab lets</w>
2 O</w>
adv ice</w>
ene m</w>
A 7</w>
depend ed</w>
pre operatively</w>
refr active</w>
hem olytic</w>
ag er</w>
C GT
depart ments</w>
corticostero id</w>
culti vation</w>
c esarean</w>
intell ectual</w>
culti vated</w>
p tive</w>
mus carinic</w>
Whit ney</w>
Mic ha
crystall ographic</w>
pal ate</w>
on azole</w>
TC GA</w>
T 5</w>
L TR</w>
concep tual</w>
non sense</w>
CH 2</w>
as sumptions</w>
lear n</w>
somat ostatin</w>
comp ete</w>
itone ally</w>
Inter net</w>
sor afenib</w>
bo y</w>
Lt d</w>
PD Z</w>
Cam bridge</w>
oneph ritis</w>
R en
di lation</w>
N ik
satis fied</w>
O B</w>
C K1</w>
predic table</w>
an eu
ma ze</w>
paren teral</w>
ou ts</w>
ati d</w>
Ser vice</w>
recogn izing</w>
F AD</w>
ti dine</w>
trans plants</w>
unc il</w>
cap ill
X X
breast feeding</w>
pollut ants</w>
f ent
photosyn thetic</w>
n if
2 Δ</w>
mon ocyt
Str at
Ele ven</w>
clinic opathological</w>
gen otoxic</w>
Meth od</w>
flu idic</w>
ali ve</w>
c ue</w>
phospho inosi
sequel ae</w>
we aning</w>
cer vix</w>
search es</w>
re mia</w>
Periph eral</w>
oc ul
energ etic</w>
stero l</w>
ogly co
F oc
benz o</w>
NS 3</w>
PD T</w>
Mor tality</w>
op re
we b
Ar e</w>
ex em
sug ars</w>
neo adjuvant</w>
K o
I κB
Ele vated</w>
phot os
e urin</w>
filam entous</w>
fram esh
A H</w>
toc in</w>
emb olic</w>
se men</w>
monocyt ogenes</w>
H3K 4
O D6</w>
pattern ing</w>
E ar
sub population</w>
PA C</w>
disc s</w>
G 9</w>
in domethacin</w>
ST E
Associ ated</w>
A E
ocarcin oma</w>
Characteri s
DR G</w>
sep tum</w>
Bio chemical</w>
sc ram
analy zer</w>
plac es</w>
U DP</w>
co variates</w>
shor tened</w>
endoth elin</w>
ul ins</w>
v able</w>
hy dri
j ing</w>
shed ding</w>
MI M</w>
AB I</w>
T SC
quad ru
opin ion</w>
cri bed</w>
Pop ulation</w>
ar yl
inten tion</w>
dis abilities</w>
alg ae</w>
intell ig
accompan ying</w>
ben ding</w>
Cl us
multi plex</w>
Success ful</w>
C K2</w>
us p
reconstitu tion</w>
neuro psychological</w>
caro teno
characteri zing</w>
Dou ble</w>
W nt
view ing</w>
cathe terization</w>
Ac cur
P u
gel atin</w>
mil l</w>
manif est</w>
omat osis</w>
guan osine</w>
T im
mon o</w>
ureth ral</w>
Spec tro
phar yngeal</w>
carbox ylic</w>
pur ine</w>
bri le</w>
se mb
kin son
homogen ates</w>
commit ment</w>
R un
A TION</w>
e 1</w>
al ge
medic ines</w>
ag ene</w>
am en</w>
micro RNAs</w>
necess ity</w>
de al</w>
Dis eases</w>
Pre gn
nec ro
ic al
PC OS</w>
C entre</w>
m A</w>
solubil ized</w>
h a</w>
inf ancy</w>
A 2
Bri tish</w>
Cardi ovascular</w>
oste ogenic</w>
Leishman ia</w>
O per
noc tur
ket amine</w>
TH P</w>
but yl</w>
inter neurons</w>
min us</w>
wild type</w>
sulph ate</w>
prof en</w>
meth oxy</w>
ri de</w>
adhe sions</w>
MD CK</w>
pul p</w>
s agittal</w>
de oxy</w>
ec onom
bor derline</w>
ob stac
os se
ensi tive</w>
D Y
Wil d</w>
occa sionally</w>
ri m</w>
R ock
grap h</w>
tic ated</w>
ing redi
B N</w>
po real</w>
af il
lys osome</w>
uni on</w>
approxim ate</w>
HN SCC</w>
ar restin</w>
y n</w>
bi ore
ME S</w>
Ser 1</w>
am phen
ocardi al</w>
Phy l
ogly can</w>
o chemical</w>
prec eded</w>
pro kary
j i</w>
scop ically</w>
vin yl
sedi ments</w>
h id
long evity</w>
poin ted</w>
earli est</w>
med ullary</w>
Cl 3</w>
embry ogenesis</w>
Fif teen</w>
sem ble</w>
in equ
5 R</w>
N inety</w>
c ub
arach noid</w>
strep tavidin</w>
D ar
d ym
exp iratory</w>
complem ented</w>
k Hz</w>
chamb ers</w>
alcoh ol
it ted</w>
ME NT</w>
mal e
opath ologic</w>
adenocarcin omas</w>
anti sera</w>
sero types</w>
mo toneu
con found
fail ures</w>
extrem ities</w>
B AC</w>
emul sion</w>
ri t</w>
th y
an der</w>
bu d</w>
ar abin
1 S</w>
lymph oblastic</w>
ste ric</w>
ol us</w>
te zomib</w>
inter active</w>
M em
U AS</w>
op eptide</w>
F ail
stoch astic</w>
epsil on</w>
sc anned</w>
PC P</w>
erox idase</w>
Dis cus
PT G</w>
tr apping</w>
d p
Re duced</w>
fil tering</w>
K en
parenchym a</w>
benz yl</w>
anticoagul ant</w>
casp ases</w>
col our</w>
t t</w>
Lev el</w>
osi tis</w>
tetram er</w>
ed om</w>
potenti ated</w>
Gr ade</w>
as certain</w>
TK Is</w>
A CT</w>
ep inephrine</w>
fo s</w>
extr insic</w>
i tion</w>
F LI
b and
br ing</w>
C CL2</w>
ri tic</w>
ch or
lnc RNAs</w>
iz ational</w>
Apop tosis</w>
it ro
His 6</w>
ad duct</w>
E ch
ith elial</w>
ser ving</w>
l as</w>
amphen icol</w>
prop ranolol</w>
ri fam
con ti
constra ined</w>
terran ean</w>
PL A</w>
pri mates</w>
vap or</w>
id ectomy</w>
L ower</w>
Rep e
thym ocytes</w>
catal og</w>
es thetic</w>
specific ities</w>
persi st</w>
mal formation</w>
Rec eptor</w>
M AR
P ak
simpl ified</w>
A SA</w>
melan omas</w>
transpos on</w>
Ne g
oupl ing</w>
be ad</w>
fer ring</w>
R S
Mex ico</w>
cal orim
ren sic</w>
chol angi
poin ting</w>
depic ted</w>
G O
ar bit
mercapto ethanol</w>
F D</w>
rin sed</w>
S anger</w>
chlo rophyl
micro arrays</w>
mig rate</w>
colle ge</w>
deoxy chol
W ar
Swe dish</w>
kin je</w>
C ac
fluo roph
p ran
transi t</w>
adap t</w>
prof loxacin</w>
un favorable</w>
conn ecting</w>
intraper itoneally</w>
isch aemic</w>
hyp oc
inter ventional</w>
AK I</w>
Le ft</w>
ple gia</w>
con temporary</w>
M 0</w>
fac ulty</w>
hyd rates</w>
inf requ
g ation</w>
Stre ptom
p ups</w>
ep tors</w>
uniform ly</w>
distur bed</w>
cl ients</w>
ro unds</w>
di hydroxy
du plicate</w>
4 S</w>
len ses</w>
centro some</w>
8 -</w>
alb umin
carbox y</w>
do ts</w>
Co ronary</w>
PIK3 CA</w>
n ested</w>
tho rough</w>
Quanti fication</w>
regurg itation</w>
rheum atic</w>
entrop y</w>
resid ence</w>
antagon ism</w>
con sequent</w>
st and</w>
le ak</w>
GE F</w>
spac es</w>
ocyan ate</w>
NL RP3</w>
CEN P</w>
Sp ont
di thio
b an
P ER
E v
Emer gency</w>
obar bital</w>
Syste mic</w>
trunc ation</w>
F ull</w>
pa id</w>
app endic
m p</w>
n u
ex ocytosis</w>
configur ations</w>
prim e</w>
MEASU RE
dro ught</w>
oper ator</w>
Cor rec
defini tions</w>
R 0</w>
P el
secre te</w>
Pur kinje</w>
dev oid</w>
P as
Fem ale</w>
scaveng ing</w>
b ent</w>
flavon oids</w>
ic ating</w>
ap atite</w>
sp aring</w>
ul timate</w>
E GF
Tol l</w>
shap es</w>
ST s</w>
4 h</w>
f are</w>
o idal</w>
agg ression</w>
T X
agglutin ation</w>
reser ve</w>
amni otic</w>
tri fluoro
obacteri um</w>
4 p</w>
coll ecting</w>
syn cy
Di etary</w>
eosinoph ils</w>
en sur
Cd k
spac er</w>
El mer</w>
off ice</w>
recur rences</w>
ep idi
6 R</w>
P SD</w>
cu red</w>
M b</w>
Pos sible</w>
od omain</w>
ther ing</w>
K r
ovari es</w>
R MS
In s</w>
infu sions</w>
orig inated</w>
ron ate</w>
m ere</w>
B lack</w>
bio physical</w>
hyste rectomy</w>
C AB
Ac id</w>
gir l</w>
bat tery</w>
possess ed</w>
Clostri dium</w>
rhyth ms</w>
Bas eline</w>
ec k
per tussis</w>
N ano
pro sta
was hes</w>
z ole</w>
on duc
cytom etric</w>
is te
anis otropy</w>
Swit zer
al location</w>
wri st</w>
mil itary</w>
Fig. 3</w>
fl ash</w>
sp in
bacteri oph
exem pl
graph s</w>
stress ors</w>
der al</w>
biom echanical</w>
man d
micro mol</w>
M CI</w>
pan demic</w>
Switzer land</w>
O SA</w>
de dicated</w>
hi t</w>
Met a</w>
ell er</w>
ris ing</w>
neuro pathic</w>
hypo thermia</w>
evolution arily</w>
Cr yp
di strict</w>
auto immunity</w>
mutagen ic</w>
Signific antly</w>
pestic ides</w>
sp ines</w>
rac ial</w>
ocy sts</w>
agg res
punc ture</w>
fluoro uracil</w>
GAT A</w>
T AC
hypo thyroidism</w>
trac ted</w>
real istic</w>
me trics</w>
S he
Cycl in</w>
calcul ating</w>
Vir al</w>
Tr ac
micro spheres</w>
d T</w>
C IN
ke ep</w>
op reser
analy tic</w>
um e</w>
B U
Pro bes</w>
epithel ia</w>
par allel
chlor o</w>
famili ar</w>
di one</w>
pel le
vic inity</w>
Ther mo
Co uncil</w>
F As</w>
gr ass</w>
main tains</w>
H ind
k m</w>
homolog ues</w>
wa ist</w>
conver t</w>
g ht</w>
bri o</w>
dis on</w>
up dated</w>
Pl ant</w>
1 alpha</w>
hydrox ylation</w>
G am
R ic
te worthy</w>
Zn O</w>
aspar ag
tw ins</w>
fi g</w>
dise ased</w>
br uc
denti n</w>
elong ated</w>
c n
Resi stance</w>
fel t</w>
mang anese</w>
bridg es</w>
scinti graphy</w>
end er</w>
nit ro</w>
interpre t</w>
degrad ing</w>
P PAR</w>
percenti le</w>
bi um</w>
H h</w>
har m</w>
or poreal</w>
Olym pus</w>
ill ing</w>
tur ning</w>
&apos; t</w>
S AS</w>
disrup ts</w>
arbit r
R p
ag ree</w>
ascor bic</w>
g ol
C ho
fore brain</w>
hol ding</w>
pa tency</w>
encour aging</w>
sched uled</w>
altern atives</w>
occip ital</w>
S en
G AG</w>
Con di
G 6
H an
doc tor</w>
anch or</w>
mas k</w>
T c
mechan ics</w>
hemat oma</w>
IR F</w>
Stra teg
carni tine</w>
AP S</w>
ra ft</w>
be red</w>
MD D</w>
cal pain</w>
ket o
an in</w>
Aut o
bas olateral</w>
su ited</w>
dis placed</w>
C e
ST 1</w>
t ar
dis abl
out flow</w>
eno ic</w>
. com</w>
vul g
e stration</w>
SH V</w>
gen omics</w>
N AM
cy tic</w>
Pre operative</w>
e igh
con gru
k man</w>
h ot
adrenoc eptor</w>
C P2</w>
glob ally</w>
phag ia</w>
re organization</w>
oci ties</w>
sial ic</w>
morph ologically</w>
ten s</w>
acu tely</w>
i ens</w>
curric ulum</w>
V L</w>
G AD
E PR</w>
explic it</w>
Relationsh ip</w>
immort alized</w>
M ass
imp acted</w>
trac ts</w>
S um
hyp er</w>
decom pression</w>
Clin ic</w>
do t</w>
Hy bri
g ing</w>
Schem e</w>
bio informatics</w>
a pro
c rest</w>
Coll ection</w>
glyc emic</w>
sol ving</w>
AL P</w>
suic idal</w>
equili brated</w>
th aw
ili ated</w>
glu con
ap amil</w>
emphasi zed</w>
op en
invasi veness</w>
tit ude</w>
P d
re ds</w>
hum idity</w>
N CB
homogen ized</w>
qui escent</w>
ob lig
fore arm</w>
d an
cholestero le
b umin</w>
Im plications</w>
in ward</w>
glutam ic</w>
re distribution</w>
Uni ver
V C</w>
contrac eptive</w>
macro scopic</w>
SU BJ
de grade</w>
resem bles</w>
H G
dent ate</w>
6 G</w>
P HO
attit ude</w>
prim ate</w>
omorph ic</w>
on ium</w>
hum idi
Gal 4</w>
S1 P</w>
be sides</w>
eng raf
Au th
Adv anced</w>
m g
she ath</w>
x L</w>
SI GN
den er
bridg ing</w>
Random ized</w>
c c</w>
epidemi ologic</w>
jo ining</w>
Strat agene</w>
DN As</w>
vel ocities</w>
un translated</w>
dec ided</w>
M Ps</w>
specific ation</w>
resem bling</w>
ac in
epidi dym
Kn ock
Investig ation</w>
Min im
le i
cop ic</w>
D B
T SA</w>
R UN
T om
histopath ology</w>
Memb rane</w>
h p
g in
ri dine</w>
yl transferase</w>
Sh ang
chloro plast</w>
M AC</w>
IV F</w>
htt ps</w>
ref er</w>
en semble</w>
VE GFR</w>
ph i</w>
Onc ology</w>
V acc
ob viously</w>
J AK</w>
st atins</w>
incre mental</w>
conflu ent</w>
sk olin</w>
penetr ating</w>
CC D</w>
ati zation</w>
loc omo
plac ing</w>
Al ph
E stim
l uminescence</w>
f us
phag ocytic</w>
rh esus</w>
protot ype</w>
bund les</w>
ul ae</w>
s ap
sub stitute</w>
mening i
Pur ification</w>
mo ved</w>
cho ices</w>
bl unt</w>
transform ants</w>
replic ative</w>
P ax
r 2</w>
P SC</w>
O VA</w>
implem enting</w>
ov a</w>
K I
de stro
te ar</w>
SM AD
Contro lled</w>
i ence</w>
ana phase</w>
pa tent</w>
trop ic</w>
st yle</w>
I RE
o chrom
sput um</w>
PT X</w>
swit ched</w>
pre disposition</w>
Ma terial</w>
in nervation</w>
hyp ere
echocardi ographic</w>
pl ei
immer sion</w>
o esophageal</w>
sim ulate</w>
f air
D L</w>
K ey</w>
IF ICA
o ic</w>
panc ies</w>
ion izing</w>
Lac tob
acetyl transferase</w>
G astro
hypoglyc emia</w>
coll ect</w>
leuk em
ne o</w>
0 K</w>
U GT
qualit atively</w>
pharmac ology</w>
an ia</w>
oder mal</w>
ste ctomy</w>
val ves</w>
R ou
i 1</w>
gam ma
aut ocrine</w>
S pe
trabec ular</w>
e GFP</w>
s ulation</w>
Classi fication</w>
Transcrip tion</w>
hetero chromatin</w>
v ox
P 9</w>
swim ming</w>
ari an</w>
as tically</w>
mid line</w>
Pur ified</w>
ic um</w>
M uc
P ul
it ative</w>
ot y
form ulated</w>
deep er</w>
Cal cium</w>
anti proliferative</w>
pass ages</w>
periodon titis</w>
an us</w>
war m</w>
Con sis
Spont aneous</w>
h ope</w>
un paired</w>
y our</w>
S ar
K 7</w>
disp arities</w>
docum entation</w>
person alized</w>
co al</w>
a o</w>
th ec
ate dly</w>
AG A</w>
bronch i
anc ing</w>
Anti body</w>
t z</w>
E st
Stim ulation</w>
M oder
Mg 2</w>
sulf oxide</w>
hel ped</w>
chloro quine</w>
c r</w>
T AP</w>
encomp assing</w>
Car cin
do si
Con genital</w>
meth an
V DR</w>
trans m
pon in</w>
F us
stain able</w>
Lap aro
qu ercetin</w>
robu st
gra vity</w>
immun ogenic</w>
m argin
ec osystem</w>
un controlled</w>
li poly
cle rosis</w>
I Q</w>
medul la</w>
te can</w>
ol uminescence</w>
eli oma</w>
HMG B1</w>
thre itol</w>
calcin eurin</w>
promp t</w>
distinguish ing</w>
H CT</w>
bio films</w>
TA M</w>
seman tic</w>
con fluence</w>
depri ved</w>
ca ution</w>
mim ic
Ob serv
Gluc ose</w>
cit r
Isol ated</w>
accum ulates</w>
T MS</w>
Ad olesc
represent ations</w>
MEASURE MENTS</w>
el bow</w>
y mo
auto phosphorylation</w>
id ol</w>
fol i
par a</w>
per i</w>
Y ang</w>
CD D</w>
parac rine</w>
d b</w>
3 L</w>
un labeled</w>
ov ulation</w>
Ur inary</w>
glucocortico ids</w>
cataly tically</w>
Hip p
method ologies</w>
R M</w>
ul ator</w>
was h
un covered</w>
res ses</w>
com mittee</w>
super vised</w>
surviv in</w>
cad aver
F 8</w>
Radi ation</w>
Q I
sequ estration</w>
sub clinical</w>
Fe w</w>
discus sions</w>
her bal</w>
cu ff</w>
un identified</w>
sol itary</w>
AC A</w>
AA G</w>
ven a</w>
capac ities</w>
FE V1</w>
SP s</w>
CTL A</w>
ater ally</w>
cyclo oxygenase</w>
recru its</w>
cyclohex imide</w>
me m
SN ARE</w>
ill nesses</w>
anti coagulation</w>
ann exin</w>
adi um</w>
H M</w>
PL A2</w>
stoichi ometry</w>
SC D</w>
endocardi tis</w>
gon dii</w>
D utch</w>
als. gov</w>
fav ored</w>
found ation</w>
resem ble</w>
AV P</w>
Re duction</w>
ar te
im umab</w>
ari o</w>
Biosci ence</w>
sty rene</w>
or ange</w>
Hepati tis</w>
asth matic</w>
steri li
H ER</w>
V IP</w>
ti ps</w>
re actor</w>
o vi
sor tium</w>
H5 N1</w>
emerg e</w>
immun ologic</w>
AS C</w>
Ir an</w>
arti facts</w>
Medi terranean</w>
polar izing</w>
For m
preser ve</w>
Shang hai</w>
S kin</w>
ren ol</w>
S po
MI P</w>
ca emia</w>
Gro ups</w>
mis folded</w>
kin em
amorph ous</w>
F E</w>
MP O</w>
dr ying</w>
eIF 4E</w>
opy ran
NP Y</w>
prosta tectomy</w>
semic onduc
cou ple</w>
vacu oles</w>
pa ro
search ing</w>
P RI
alumin um</w>
canc erous</w>
chlor amphenicol</w>
s A</w>
op y</w>
Tex as</w>
ever y
P ancre
TM Z</w>
ingu inal</w>
A verage</w>
D ual</w>
polymer ases</w>
wa ter
I l
d ac
0 M</w>
lay ered</w>
om in
tri bu
su red</w>
cam pa
oglyc ans</w>
tag s</w>
ti te</w>
approxim ation</w>
Is ra
thick ening</w>
distinc tion</w>
pros theses</w>
puber tal</w>
VE C</w>
en tering</w>
toc oph
unde restim
intrav ascular</w>
ci profloxacin</w>
back grounds</w>
il in</w>
multi functional</w>
atten ded</w>
thalam us</w>
mit ting</w>
5 G</w>
con clusive</w>
7 R</w>
gen it
ju ice</w>
G h
SUBJ ECTS</w>
o u</w>
h its</w>
he igh
cobal t</w>
instrum ental</w>
na ph
Tri als</w>
ky o</w>
ec ond</w>
bri ght</w>
C RP
sc anner</w>
b FGF</w>
N K1</w>
Bo ard</w>
hyp og
di chro
autom atically</w>
hem agglutinin</w>
2 d</w>
rec tum</w>
ra is
altern atively</w>
A z
vasodi l
migr ated</w>
ver satile</w>
TI MP</w>
pom be</w>
F g
olig o</w>
synchron ized</w>
P RA
ph atic</w>
Del ta</w>
T W
Inc idence</w>
con es</w>
Ann exin</w>
nan otubes</w>
ed ullary</w>
arg um
organ izational</w>
V ero</w>
reversi bly</w>
electro spray</w>
domin ance</w>
ae rosol</w>
orth og
kin esin</w>
ron ch
ex chang
CI S</w>
papill omavirus</w>
oxy tocin</w>
nan om
ter in</w>
ox etine</w>
cyto kinesis</w>
ene di
ex tern
sol ve</w>
succin ate</w>
RAG E</w>
S ho
H N</w>
adop tion</w>
un di
min i
u ation</w>
ak ary
ch in</w>
bre vi
accid ent</w>
strep to
an ni
nod ule</w>
Sw iss</w>
Environ mental</w>
re rs</w>
ome galy</w>
IC A</w>
state ment</w>
iz able</w>
preser ving</w>
iP SCs</w>
special ty</w>
osteoc last</w>
com positions</w>
ob sc
denat ured</w>
ten ess</w>
Ve ter
prob ing</w>
Discus sion</w>
acyl glycerol</w>
vin yl</w>
repe atedly</w>
ter rit
Stro ke</w>
carbo hydrates</w>
SIGN IFICA
P il
mal nutrition</w>
PP V</w>
capill aries</w>
g ates</w>
Immun ob
F I</w>
N F1</w>
cle an</w>
synerg istically</w>
Com mon</w>
post ural</w>
contamin ants</w>
I PTG</w>
al isation</w>
To kyo</w>
dro plet</w>
qu ick</w>
fe brile</w>
lid ocaine</w>
compati bility</w>
muc us</w>
T GT
intro ns</w>
sh rin
AC L</w>
synchron ous</w>
if ies</w>
refl ex
vo ice</w>
Ep stein</w>
Figure 1</w>
Bar r</w>
dis pers
semin al</w>
Neg ative</w>
D ental</w>
M cl</w>
pre eclampsia</w>
co w</w>
G ran
iP SC</w>
amin idase</w>
T Y
carb on
aliquo ts</w>
ul ing</w>
DE 3</w>
hybridi zed</w>
EC D</w>
responsi bility</w>
pran dial</w>
s ac</w>
nucle osomes</w>
erc ise</w>
ent rifug
qu asi</w>
Sc ot
V ic
cohe rent</w>
som es</w>
Pac ific</w>
detox ification</w>
d ural</w>
ure ly</w>
P h</w>
t ness</w>
In duced</w>
ecti ns</w>
SIGNIFICA NCE</w>
K L</w>
HSP 9</w>
assum ing</w>
rit uximab</w>
st ments</w>
B MD
sulf ide</w>
ho used</w>
qu ely</w>
per s</w>
umb er</w>
sel en
ACh E</w>
graph ic</w>
cet uximab</w>
V ie
com posites</w>
HP V1</w>
NK L</w>
proble matic</w>
du plic
sl ide</w>
D X
J .
ed ings</w>
PL C
M o</w>
oligos accharides</w>
noctur nal</w>
loc k</w>
un c</w>
y metri
0 b</w>
SH P</w>
scat tered</w>
corne a</w>
C an</w>
nec rop
fro g</w>
T N</w>
vibr ational</w>
M ill
age -</w>
arteri ovenous</w>
ab s</w>
Re action</w>
assemb lies</w>
P HA</w>
intox ication</w>
dithio threitol</w>
D AT</w>
blo od
per iton
im plication</w>
cortis one</w>
G 7</w>
un necessary</w>
Y 7</w>
anti psychotic</w>
is lands</w>
S Q
col lateral</w>
Prepar ation</w>
pre requisite</w>
Libr ary</w>
sup er</w>
GAL 4</w>
C ases</w>
h an</w>
on uc
ste atosis</w>
IκB α</w>
PMS F</w>
locomo tion</w>
HSP 7</w>
hepat oma</w>
En g
st on</w>
9 C</w>
Pre treatment</w>
meas les</w>
My D8</w>
pu romycin</w>
sub optimal</w>
Fail ure</w>
ent um</w>
medias tinal</w>
D Q
junc tional</w>
se tu
P ic
isom er</w>
mol ars</w>
Not e</w>
auth en
NCB I</w>
nicotin ic</w>
E W</w>
A di
prior iti
D ynamic</w>
id ative</w>
vi bration</w>
kinetoch ore</w>
s na
thir ds</w>
tri gem
prot ons</w>
fi l</w>
syn ergy</w>
ra ph
mic ally</w>
Lactob acillus</w>
til l</w>
co incid
Ac t</w>
men is
. 8</w>
peroxis ome</w>
Individ uals</w>
dis comfort</w>
sme ar</w>
en ess</w>
CA S</w>
counter part</w>
9 m</w>
te tan
pneum ococcal</w>
sa icin</w>
st ocks</w>
inter cal
ume tric</w>
O V</w>
post translational</w>
ud ine</w>
es teri
ad ed</w>
D e</w>
arrang ed</w>
A RE
cl amp
esti n</w>
end or
che m</w>
MC L</w>
mu mol</w>
Leu k
gran ulation</w>
laparo tomy</w>
CA A</w>
res ectable</w>
cl ient</w>
n ation
fir e</w>
rhod opsin</w>
fre ely</w>
veget ables</w>
re alized</w>
dis continued</w>
graf ted</w>
Cb l</w>
nod ular</w>
intram uscular</w>
G PI</w>
W D</w>
tradi tionally</w>
0 mg</w>
M ag
ymetri x</w>
tra vel
o b</w>
thir ty</w>
pix el</w>
d ying</w>
co oled</w>
R 7</w>
T S
neuron es</w>
ch al
en teri
CT A</w>
aller gens</w>
Mat rigel</w>
accid ents</w>
im etic</w>
M 6</w>
hist ocompatibility</w>
P le
disc ord
SA H</w>
inte rested</w>
ra fts</w>
worsen ing</w>
wri ting</w>
ron al</w>
ty ros
H AT</w>
neph rectomy</w>
robust ness</w>
0 L</w>
T 1
X ho
AR 1</w>
In trigu
antagon istic</w>
angi ographic</w>
special ists</w>
H SA</w>
cyclospor ine</w>
scienti sts</w>
da ughter</w>
po ul
e osin</w>
in activating</w>
Rh od
A gg
lea ve</w>
combin atorial</w>
collo idal</w>
anomal ous</w>
G B
endomet rium</w>
AB P</w>
y i</w>
Lip id</w>
cot ton</w>
tin s</w>
muc in</w>
ly l</w>
al op
inspec tion</w>
Ob esity</w>
appear ing</w>
sc rap
AP s</w>
im a</w>
on co
D B</w>
comorbi d</w>
H 4
Aff ymetrix</w>
in ally</w>
ran ked</w>
pelle ted</w>
d ay
fre edom</w>
ocy toma</w>
radi ography</w>
cry opreser
Immun e</w>
wal k</w>
IFN γ</w>
vacu ole</w>
Sle ep</w>
CHO P</w>
harv esting</w>
Cy t
sha king</w>
ab is</w>
C aspase</w>
m t</w>
ond on</w>
fibrill ar</w>
Fig. 4</w>
acidi fication</w>
Four teen</w>
sk eleton</w>
propor tion
coll ective</w>
is othi
2 K</w>
op posing</w>
swe red</w>
chlorophyl l</w>
cholecy stectomy</w>
oste otomy</w>
E SR
Ad he
Eth ics</w>
on i
collabor ative</w>
de hydration</w>
um b</w>
ro ad</w>
R u</w>
co oper
G PR
O G</w>
te ams</w>
8 R</w>
pacem aker</w>
initi ates</w>
denat uring</w>
chol est
hydro carbons</w>
L IN
Th yro
ercul osis</w>
a 3</w>
theore tically</w>
Transi ent</w>
Table 2</w>
yn e</w>
Re f</w>
nemat ode</w>
T Fs</w>
vacu olar</w>
so ph
cle an
ste m
un ting</w>
Inj ury</w>
ana emia</w>
Consis tently</w>
rhe a</w>
gri d</w>
l li
PD A</w>
NO D</w>
fa ec
anc estr
gro und
intr ad
D BP</w>
uni quely</w>
synap t
pa rox
tri mer</w>
TA L</w>
a g</w>
plan k
sed entary</w>
f er</w>
Resp iratory</w>
F DR</w>
L VE
F R
brachi al</w>
spec ially</w>
nan ow
F TIR</w>
I a</w>
tri meric</w>
out patients</w>
sto ol</w>
su stain</w>
trans position</w>
eIF 2α</w>
AN P</w>
Na OH</w>
op enia</w>
ne ar
linear ity</w>
rh initis</w>
Sy n</w>
ton si
sho t</w>
an swered</w>
Regi onal</w>
Co V</w>
nan ocom
in takes</w>
RA NKL</w>
um oral</w>
Simult aneous</w>
Fr anc
dis assembly</w>
G Ps</w>
PL ICA
top ics</w>
ri ver</w>
ed ges</w>
RA D</w>
ere bro
pa d</w>
poten tly</w>
. gov</w>
puber ty</w>
bor tezomib</w>
organ elle</w>
disc er
rs 3</w>
ox one</w>
prim itive</w>
o ils</w>
classi fy</w>
expl ants</w>
histopath ologic</w>
D ox</w>
ol k</w>
O ff
V ps
Op en</w>
k its</w>
or ac
c em
me ters</w>
rel la</w>
F OR</w>
wa iting</w>
catech ol
G 8</w>
antidepress ants</w>
G el</w>
ex ud
possess ing</w>
am ins</w>
enti nel</w>
suspici on</w>
Ap pro
h TERT</w>
ad ver
cat abolism</w>
I so
4 th</w>
Y east</w>
sh el
St ar
Isl and</w>
ile um</w>
PI P2</w>
o val
ti me
Mus cle</w>
dr astically</w>
herpes virus</w>
ch ap
3 d</w>
amp utation</w>
glyc ero
for skolin</w>
II A</w>
f lower</w>
For mation</w>
Ch ic
A 8</w>
postin f
k cat</w>
tr apped</w>
EM B
UT P</w>
Ga ussian</w>
don ation</w>
at tained</w>
meg akary
T OR
br a</w>
ER S</w>
psychiat ry</w>
extr apol
victim s</w>
ti dal</w>
ben ch
ll ment</w>
maxim ize</w>
e uc
discre pancies</w>
flo x</w>
Ch k1</w>
tryp sin
Al ter
hem odynamics</w>
he pa
orth odontic</w>
oc ap
employe es</w>
0 C</w>
isch aemia</w>
Ac cum
shif ting</w>
S CLC</w>
ing ent</w>
Sh ig
tur ns</w>
end urance</w>
moti v
im ine</w>
vascul itis</w>
disti lled</w>
late st</w>
carbo platin</w>
lam in</w>
carbox ylate</w>
scar ce</w>
re ality</w>
Intrigu ingly</w>
tetra zol
O X</w>
spar se</w>
L R
pati al</w>
Streptom yces</w>
Dist ribu
con ve
Nik on</w>
ancestr al</w>
bar s</w>
ol i
v in</w>
coc ul
au xin</w>
M ul
lnc RNA</w>
diarr ho
z i
De tailed</w>
D V</w>
B ei
ili brium</w>
HS CT</w>
C ell
Transf ection</w>
punc ta</w>
hn RNP</w>
B PA</w>
CO OH</w>
TRP V1</w>
cre ates</w>
sand w
sho ot</w>
ou red</w>
pa tell
fund ed</w>
5 c</w>
. 9</w>
prote renol</w>
home ostatic</w>
CN V</w>
H en
am ol</w>
bab ies</w>
D ose</w>
en sion</w>
lob es</w>
lo ts</w>
hydri de</w>
resi li
Ma dison</w>
ol i</w>
myel o
K V</w>
K 8</w>
incub ator</w>
ET s</w>
E2 F1</w>
A mb
non coding</w>
consol idation</w>
oper ational</w>
Rep ublic</w>
pro spec
parti tioning</w>
pig mentation</w>
X .</w>
Pro ble
ind ol
o yl</w>
co enzyme</w>
lei omy
2 nd</w>
l ay</w>
an ase</w>
plant able</w>
complex ed</w>
ti se</w>
no teworthy</w>
pi vac
electro poration</w>
c amp
tr ade</w>
at or
humidi fied</w>
kn owle
achiev ement</w>
R at</w>
dra w</w>
li er</w>
A do
diab etics</w>
W B</w>
flow s</w>
lig ases</w>
in er</w>
CH 1</w>
MM Ps</w>
ME F</w>
den sit
normo tensive</w>
cross linking</w>
yl amine</w>
see k</w>
HI F
ta to</w>
ophyl line</w>
o ks</w>
Ch i</w>
ear man</w>
h s</w>
tolu ene</w>
cros stalk</w>
ambig u
H 9</w>
som nia</w>
a virus</w>
W ol
L ar
ML L</w>
ug h</w>
magn ification</w>
un ted</w>
CD C</w>
obste tric</w>
ver apamil</w>
di electric</w>
se rous</w>
Re duc
HDAC 1</w>
M ig
beg ins</w>
AL Y
RE M</w>
CD K</w>
Compar ing</w>
the ast</w>
TL C</w>
H r
hem angi
Hep at
stere ot
dro pped</w>
accum ulating</w>
Sch wan
CDK N
C CL
Mon it
cong estive</w>
visi ted</w>
pivac aine</w>
Com p
hemat oxylin</w>
Com plications</w>
framesh ift</w>
e g</w>
Xho I</w>
Six teen</w>
mut ually</w>
br and</w>
inc is
tra vel</w>
ag eous</w>
recru iting</w>
fo rensic</w>
CD 7</w>
immunomod ulatory</w>
fri end
Intrac ellular</w>
In dic
ambig uous</w>
anc e
promis ed</w>
anomal y</w>
ma kers</w>
imid azol
Pro duction</w>
v ular</w>
analy tes</w>
T HE
astro cytom
Hind III</w>
un bound</w>
pertur bed</w>
K SHV</w>
poul try</w>
V TE</w>
id one</w>
conver gence</w>
squ ares</w>
propi dium</w>
M 7</w>
it ch</w>
pho to</w>
mand atory</w>
umin escent</w>
A F1</w>
m d
P b
cut ting</w>
ph ero
CO L
mig rants</w>
DN A
fum ig
hex a
capsul es</w>
carcin ogenic</w>
yn chron
g p4</w>
as in</w>
in dependence</w>
haem oglobin</w>
al ism</w>
perform ances</w>
rup tured</w>
peri o
parad ox
I G
SE N
A S1</w>
arch ae
l acti
K er
W A</w>
N ox
G ri
lactam ase</w>
b ig
CYP3 A4</w>
sphinc ter</w>
9 S</w>
robo tic</w>
le ishman
autophag osome</w>
Sign al</w>
d n
inde xes</w>
8 b</w>
ron i</w>
ho g</w>
Mar k
decarbox ylase</w>
Ex pl
D O</w>
deliver ing</w>
silic one</w>
AB C
Rec or
CAB G</w>
aro usal</w>
extr av
ater gic</w>
incor rec
Contin uous</w>
H CO3</w>
exerc ises</w>
mosquit oes</w>
T 6</w>
explan ations</w>
t acti
habit ats</w>
A r</w>
J 1</w>
F AC
rop s</w>
7 E</w>
Dis orders</w>
trigem inal</w>
DL BCL</w>
periton itis</w>
ab 1</w>
equ ine</w>
o zone</w>
Bu ffer</w>
H UV
hetero dimers</w>
F 0</w>
l ar</w>
CA 3</w>
astro cyte</w>
requ est</w>
in in</w>
PV DF</w>
Sp earman</w>
LO GY</w>
anaes the
D CM</w>
Practi ce</w>
h ap
B is
ac id
an di
cu stom
Ex tended</w>
post mortem</w>
Inc ub
D o</w>
py rene</w>
el lip
p ET
MU C1</w>
physe al</w>
lact one</w>
ir r
hyper thermia</w>
Pr inc
advant ageous</w>
No .</w>
di valent</w>
ti tle</w>
CI N</w>
os ystems</w>
reinforc ement</w>
con idi
g 2</w>
sy l
poly po
M IN
Ad verse</w>
Alcoh ol</w>
transmit ters</w>
t ases</w>
ac tu
Modi fied</w>
coll ectively</w>
ish ment</w>
E astern</w>
photo receptors</w>
n s
tro ponin</w>
di tis</w>
Guid elines</w>
t 3</w>
sten ting</w>
ubiquit ylation</w>
Ki 6</w>
Se x</w>
CH F</w>
lute al</w>
f arm</w>
paren chymal</w>
ar ization</w>
D 9</w>
C erebral</w>
anti le</w>
mit ogenic</w>
coloc alized</w>
continu ity</w>
no v</w>
L ondon</w>
nig ra</w>
de b
chem oradi
radi ologic</w>
veget ative</w>
iso flurane</w>
val ents</w>
hetero zygosity</w>
T AT
J our
M align
def ault</w>
h op
surro unded</w>
ill ed</w>
mo tions</w>
elim inating</w>
ST S</w>
v i</w>
su mo
n als</w>
choro idal</w>
c occus</w>
ir a</w>
L 6</w>
Schwan n</w>
sic kle</w>
R U
an um</w>
visu ally</w>
in sti
de x</w>
cry o
sup pressors</w>
En ergy</w>
determin ations</w>
G AA
orth otopic</w>
co activator</w>
conc eption</w>
x ine</w>
aden ylation</w>
T radi
amylo idosis</w>
fair ly</w>
sup ram
pel vis</w>
P Y</w>
PI s</w>
inf ective</w>
ash es</w>
leg is
num er
culti vars</w>
colon oscopy</w>
L ate</w>
radi o</w>
CA C</w>
TI C</w>
Emb ry
in tolerance</w>
sensiti vities</w>
bacter icidal</w>
rel ates</w>
in ations</w>
exacerb ation</w>
sk ill</w>
X P</w>
AI Ds</w>
ac ro
T 2D</w>
PA Hs</w>
1 .
expect ancy</w>
inter phase</w>
str atum</w>
si de
compens ated</w>
knoc ked</w>
Co ul
b y
Ne on
su stainable</w>
substitu ents</w>
olig o
enor hab
acet ab
modul us</w>
Sm ith</w>
Log istic</w>
M oun
mic s</w>
resi de</w>
schem es</w>
eas tern</w>
Monit oring</w>
lab our</w>
a etiology</w>
Long itudinal</w>
opo dia</w>
om atic</w>
po tato</w>
co transfected</w>
an ore
quanti fying</w>
AF M</w>
D DR</w>
5 K</w>
d ence</w>
dro ps</w>
OR Fs</w>
autoradi ography</w>
consum ers</w>
inter facial</w>
emplo y</w>
utili zes</w>
sc ol
sec urity</w>
sch ist
in struction</w>
degrad able</w>
or rho
B P2</w>
Er y
K idne
thrombo embolism</w>
perme ation</w>
ca va</w>
E B1</w>
RI PA</w>
S hi
min ing</w>
concentr ate</w>
prob abilities</w>
d as
C la
mas ked</w>
oc rit</w>
mechan ically</w>
f lowering</w>
P eptide</w>
diffic ile</w>
T 8</w>
neigh bor
ocyan in</w>
spo t
b p
S ul
per mitted</w>
G RP
opio ids</w>
C PR</w>
3 rd</w>
C ES</w>
sp ore</w>
electro my
DE Gs</w>
diaphrag m</w>
S an
s. c.</w>
orim etric</w>
son ication</w>
exac tly</w>
H an</w>
D G
dispers al</w>
Stat 3</w>
dys regulated</w>
aptam er</w>
disco ver
neuro imaging</w>
f un
Clon tech</w>
op eroxidase</w>
prolong ation</w>
m ari
fibrill ary</w>
mandi ble</w>
radio immunoassay</w>
Func tion</w>
enro llment</w>
ensur ing</w>
nicotin amide</w>
c .1</w>
h inge</w>
dec id
distor tion</w>
Phyl ogenetic</w>
Characteris tics</w>
en ses</w>
F O</w>
ophil us</w>
P c
F ast</w>
collagen ase</w>
conc ei
comp any</w>
lar yng
dim er
p tions</w>
Tum ors</w>
I E</w>
ord inary</w>
fing ers</w>
adap tations</w>
fer re
sarco idosis</w>
st ant</w>
orig inate</w>
restric tive</w>
- based</w>
pa res</w>
ec osystems</w>
waveleng ths</w>
D BD</w>
phil is</w>
ran es</w>
na vig
4 d</w>
pair wise</w>
tetrazol ium</w>
micro fluidic</w>
gri p</w>
bon y</w>
sci atic</w>
men op
id omide</w>
chemot actic</w>
Stri kingly</w>
vitre ous</w>
run s</w>
R ed
consci ousness</w>
Ser 2</w>
D n
er i</w>
de methylation</w>
arrhyth mic</w>
Nutri tion</w>
st ore</w>
f is
MA O</w>
Luc iferase</w>
pul l
spec ulated</w>
cap saicin</w>
recommend ation</w>
le aching</w>
tre ad
altern ating</w>
ox ane</w>
A FP</w>
PC C</w>
F U
un modified</w>
H ong</w>
stac king</w>
k a
Jo hn
phosphoinosi tide</w>
pe dic
lu c</w>
V H</w>
Thir teen</w>
lo os
ag gra
continu um</w>
mo ist
dec o
hypothe tical</w>
p p</w>
hist ories</w>
electro encephal
Pro vince</w>
E VI
at rop
p U
arom atase</w>
combin es</w>
Compo unds</w>
de methyl
STAT 5</w>
J A</w>
alkal oids</w>
micro bes</w>
HUV ECs</w>
granul osa</w>
R us
ER B
stret ching</w>
glutam atergic</w>
rem n
er mal</w>
proton ated</w>
Medic aid</w>
Bei jing</w>
polys accharides</w>
le pro
CF P</w>
9 b</w>
N TR</w>
PI P</w>
T BP</w>
facil itation</w>
se y</w>
top ically</w>
pe l</w>
Amin o</w>
ner ship</w>
B cl
B a</w>
cigare ttes</w>
sic ally</w>
Rel ated</w>
PE C</w>
d NT
cap sular</w>
ti bia</w>
CT P</w>
Ste m</w>
Po is
CT Cs</w>
reduc tive</w>
L ear
In flu
in bred</w>
biosens or</w>
veter inary</w>
om ial</w>
z ers</w>
hyper cholesterole
s angu
hydro carbon</w>
orth op
p a</w>
DF S</w>
G CG
v ices</w>
bif ur
ren dered</w>
d ant</w>
tempor ally</w>
PK D</w>
j apon
dextr in</w>
work place</w>
cri min
Par tial</w>
the ta</w>
implic ate</w>
CON T
bac tere
RO M</w>
l ose</w>
Me dium</w>
W s</w>
pea ked</w>
it orial</w>
ger iatric</w>
tho roughly</w>
S or
radi onuc
app rais
Ox idative</w>
cephal us</w>
obser vers</w>
stra ight</w>
fibri l</w>
near by</w>
X 5</w>
ast rectomy</w>
CG RP</w>
R 8</w>
gh relin</w>
prev ent
ul trac
R et
G M1</w>
Pro c
cru zi</w>
M W</w>
Anx iety</w>
SE T</w>
d re
GAB AA</w>
β 2
and a</w>
exper tise</w>
Par k</w>
g in</w>
clos ing</w>
a ided</w>
t ude</w>
ste ll
Lin ear</w>
os mol
P .
M Abs</w>
. ..</w>
new er</w>
vol umetric</w>
W NV</w>
4 T</w>
Endos copic</w>
dis ed</w>
tri plet</w>
teach ers</w>
hydro gels</w>
Combin ation</w>
D r</w>
remin is
har monic</w>
br ush</w>
anc ient</w>
ch ymo
Ca enorhab
lo sis</w>
r atic</w>
I 3</w>
N av1</w>
haemorrh age</w>
Md m2</w>
ID H1</w>
- mediated</w>
gyn ec
N Ac
C CT</w>
cul t</w>
Im proved</w>
M ol
re th
NI R</w>
par kinson
L in</w>
T I</w>
outw ard</w>
L PA</w>
Ne f</w>
psych ometric</w>
NS AIDs</w>
o temporal</w>
ket one</w>
atten tional</w>
5 H</w>
practition er</w>
manufac turing</w>
6 F</w>
R emo
Ultras ound</w>
se eding</w>
Spec ial</w>
en velop
vulg aris</w>
per itone
setu p</w>
mal on
SN AP</w>
E Na
lo oking</w>
mirro r</w>
er ve</w>
H3K 9
R L</w>
Th i
f p</w>
estr us</w>
Den mark</w>
Tra ining</w>
B H3</w>
e V</w>
F ts
gl and
ac clim
obut y
eti ological</w>
ati s</w>
CY P1</w>
dichro ism</w>
i ang</w>
I O
encour age</w>
oc occus</w>
surg eries</w>
opa edic</w>
Caenorhab ditis</w>
trem or</w>
Immun oprecip
Re v</w>
Taq Man</w>
T AT</w>
NMD AR</w>
inte rests</w>
lipos ome</w>
H ill</w>
M r</w>
cer amic</w>
AR C</w>
Pro state</w>
kan amycin</w>
ca vities</w>
s av
inter ro
anten atal</w>
add resses</w>
h il
proce ed</w>
Gr ant</w>
ail s</w>
a .
ip ping</w>
IK K</w>
Bio tech</w>
M ulti</w>
tab let</w>
moti le</w>
p. i.</w>
M ec
review ers</w>
ca ver
is one</w>
hund reds</w>
L ep
is oc
be ha
sec t</w>
ana phyl
F US</w>
L etter</w>
reg ards</w>
attrac ted</w>
k ling</w>
V F</w>
aud i</w>
y olk</w>
H2 B</w>
ol ding</w>
usp id</w>
f ec
im es</w>
metabol ized</w>
rema inder</w>
R ot
hams ters</w>
CT X</w>
is o</w>
s acc
as tal</w>
is otype</w>
Initi ally</w>
Hepati c</w>
elem ental</w>
R h</w>
V 7</w>
pec uli
glut ar
stero id
CL s</w>
H PA</w>
th ecal</w>
ore mentioned</w>
il eal</w>
HDAC s</w>
id er</w>
ey el
K B</w>
Instrum ents</w>
cl o
Sym ptom
S6 K</w>
E I</w>
Qu al
RE VI
parti tion</w>
U 0</w>
form ic</w>
fresh water</w>
dyst roph
So dium</w>
pluri potency</w>
m C</w>
E AE</w>
prolifer ate</w>
O rig
En zyme</w>
SY 5Y</w>
Impro vement</w>
Col um
N L</w>
dur ations</w>
en sing</w>
osteoclas ts</w>
edi pine</w>
Ad d
ortholog s</w>
af orementioned</w>
NT A</w>
T GG
sc Fv</w>
m ur
t ying</w>
truc ture</w>
P rec
alcoh ols</w>
PA M</w>
a sive</w>
autophag osomes</w>
scal p</w>
tri ed</w>
bur ns</w>
en te
AT 2</w>
RG D</w>
R FLP</w>
sarcom as</w>
interfe res</w>
cl op
T AL
Sh h</w>
un altered</w>
TC C</w>
ADAM 1</w>
Ad ap
he ads</w>
en sed</w>
si ella</w>
tom ographic</w>
thin king</w>
H LH</w>
pro vince</w>
quin oline</w>
mun ici
ent h</w>
Knock down</w>
S AP</w>
sub arachnoid</w>
tw elve</w>
Un it</w>
ori entations</w>
re modelling</w>
Fox p3</w>
atin e</w>
pos ity</w>
c rops</w>
o 1</w>
re aches</w>
be st
xanth ine</w>
si vity</w>
tread mill</w>
sens ation</w>
fa ther</w>
k A</w>
dou bling</w>
hemat opoiesis</w>
Ta king</w>
m ut</w>
nas opharyngeal</w>
fac ed</w>
Mechanis ms</w>
si aly
H T2</w>
propos al</w>
andro gens</w>
R .
em physe
og l
pec ific</w>
small est</w>
ure teral</w>
dec lines</w>
p n
cos metic</w>
J 2</w>
io tic</w>
st ation</w>
ph e
diver tic
nucle olar</w>
ga uge</w>
co factors</w>
NE T</w>
cho ose</w>
fer ro
O m
vit amins</w>
S ARS</w>
fe et</w>
plei otropic</w>
ill umin
ic o
L OS</w>
h 2</w>
CC s</w>
I AV</w>
Pe ople</w>
C ros
pa re
W all
phosphodi esterase</w>
Targ eting</w>
le gs</w>
Inter leukin</w>
stra ight
far ms</w>
kin d
bro ken</w>
Am pl
laparo scopy</w>
al titude</w>
neuro peptide</w>
ti i</w>
ME K1</w>
GL UT
D .
somat osensory</w>
T AC</w>
inferen ce</w>
V PA</w>
ad o</w>
D ES</w>
acin ar</w>
catech olamine</w>
d y</w>
B AL</w>
war ming</w>
ter p
elev ations</w>
Ra ther</w>
D SS</w>
H 2A</w>
N HL</w>
intra -</w>
c ing
Ont ario</w>
in ates</w>
bo ost</w>
Rec on
M aster</w>
tryp an
duoden um</w>
b a</w>
carri age</w>
E GCG</w>
P lac
orthog onal</w>
thal asse
align ments</w>
S 1A</w>
UV B</w>
comp ul
intr ap
Sampl e</w>
Pharmac o
fent anyl</w>
G AS</w>
multi plicity</w>
op ac
af t</w>
sta ke
ther mic</w>
M Cs</w>
chimer as</w>
elucid ation</w>
S to
affor ded</w>
RO CK</w>
menop ause</w>
scat ter</w>
inser ts</w>
iste in</w>
abs tin
bi an</w>
v 3</w>
iso proterenol</w>
repres ses</w>
phosph on
aug ment</w>
neo vascularization</w>
easi er</w>
evol ve</w>
biom a
chromo ph
c ep
CY P</w>
cros ses</w>
dysp nea</w>
radi ology</w>
substanti a</w>
in di
constitu ent</w>
3 BP1</w>
U2 OS</w>
C SA</w>
ti zing</w>
r amine</w>
pol es</w>
Ex ercise</w>
mid brain</w>
NT D</w>
CD K4</w>
jour nals</w>
d amp
poli tical</w>
or f
Com pe
E Vs</w>
immunocom promised</w>
log arith
Re actions</w>
bec tomy</w>
coron al</w>
CR 1</w>
chim era</w>
ric h
w ro
Coh ort</w>
RB Cs</w>
in dispensable</w>
PA RP1</w>
E ss
flu xes</w>
PLICA TIONS</w>
micro biological</w>
pl en
ste el</w>
vir in</w>
hyper methylation</w>
ab ain</w>
perform s</w>
tocoph erol</w>
tax onomic</w>
J ak
W at
individu alized</w>
deline ate</w>
Co om
cran io
dig it
gonad al</w>
li ve
B asic</w>
b us</w>
lead ership</w>
ER β</w>
sugges tions</w>
zyg ote</w>
B ub
inter quartile</w>
t 4</w>
U A</w>
di ethyl
ex por
plasm on</w>
G old</w>
frag mented</w>
Rec over
co expression</w>
di as
enc h</w>
encoun ter</w>
oc ele</w>
- UTR</w>
aim ing</w>
ed u</w>
le a</w>
L OH</w>
Laparo scopic</w>
OR s</w>
Met S</w>
com pares</w>
hospital izations</w>
Gene tics</w>
ic ide</w>
On line</w>
explo res</w>
M erc
α -</w>
V P
glob ular</w>
ju x
pe red</w>
sti tis</w>
s u</w>
th am</w>
si fied</w>
contex tual</w>
um ps</w>
c ities</w>
soph is
di aldehyde</w>
assi e</w>
pi eces</w>
calc itonin</w>
V ery</w>
TL Rs</w>
Rab 1</w>
son ography</w>
calorim etry</w>
cave olin</w>
cul turing</w>
ac ters</w>
del ta
IC H</w>
intim al</w>
crow n</w>
osse ous</w>
hydrophob icity</w>
shor tly</w>
ot ocin</w>
meth icillin</w>
stere o
ENa C</w>
Op tical</w>
I le
RE GI
Phot o
Brow n</w>
merg ed</w>
AC 1</w>
plant ar</w>
Cac o</w>
bi g</w>
app end
colli sion</w>
di visions</w>
W u</w>
fol ic</w>
be ef</w>
Vi brio</w>
nal oxone</w>
is ogenic</w>
res or
te nosis</w>
E BP</w>
op eptidase</w>
lo l</w>
val ine</w>
Erb B2</w>
mul tin
accommod ate</w>
resid ential</w>
enteri tis</w>
U s</w>
care er</w>
im possible</w>
lenti virus</w>
S on
Ser vices</w>
w et
son icated</w>
administr ative</w>
ho using</w>
E x</w>
controver sy</w>
Las tly</w>
it an</w>
U M</w>
ple tion</w>
a w</w>
phen otyp
carb am
brac hy
dys functional</w>
R L
investig ates</w>
lit ter</w>
pro lapse</w>
gi um</w>
encap sulation</w>
T 3
therap ists</w>
MIC s</w>
in nerv
kary otype</w>
my oblasts</w>
is ometric</w>
AR CH</w>
ad ate</w>
d l
de structive</w>
irrig ation</w>
transi tional</w>
lact ose</w>
clea ve</w>
a sion</w>
in ve
T ow
consum er</w>
exce eding</w>
sho p</w>
S us
prob and</w>
manip ulated</w>
o plasma</w>
harv est</w>
Kidne y</w>
proton ation</w>
str ingent</w>
stig ma</w>
Inter actions</w>
out line</w>
HO X
ipl atin</w>
An der
do ing</w>
disco ver</w>
alg inate</w>
Pri mers</w>
d 3</w>
confound ers</w>
W C</w>
ac ia</w>
ke to</w>
as cer
1 B1</w>
spi kes</w>
ge hog</w>
T h</w>
Epidemi ology</w>
Wh ere</w>
aspar tic</w>
op eptides</w>
I G</w>
in ol</w>
lab ile</w>
CH 2
ling ual</w>
bro il
convul s
pig mented</w>
in yl</w>
tubercul ous</w>
adjunc t</w>
1 A2</w>
op ened</w>
ug g
CA GG
invari ant</w>
exce ed</w>
reminis cent</w>
SI I</w>
din ucleotide</w>
Compu ted</w>
rel oc
Lis teria</w>
BL M</w>
pa ternal</w>
for ks</w>
ero sion</w>
ap eptide</w>
1 Δ
uter o</w>
X 7</w>
ja w</w>
til t</w>
arbitr ary</w>
Ta q</w>
pum ps</w>
F ran
repres sive</w>
g astrectomy</w>
inf ecting</w>
PD E</w>
Sch iz
RP 2</w>
erythropo ietin</w>
bot t
lead er</w>
Con tribu
Nig eria</w>
anch oring</w>
top ological</w>
neut ron</w>
T yp
3 K</w>
opportun istic</w>
immun o</w>
ape x</w>
en a</w>
k el
ter t</w>
ot u
tic ks</w>
Tem per
8 G</w>
[...]
