{
  "!</w>": 12855,
  "#</w>": 2045,
  "$</w>": 3970,
  "%</w>": 43,
  "&#124;</w>": 9501,
  "&#91;</w>": 68,
  "&#93;</w>": 69,
  "&amp;</w>": 1342,
  "&apos;": 5326,
  "&apos;</w>": 169,
  "&apos;S</w>": 25293,
  "&apos;s</w>": 158,
  "&apos;t</w>": 10202,
  "&gt;</w>": 7,
  "&lt;</w>": 6,
  "&quot;</w>": 66,
  "(</w>": 16,
  ")</w>": 15,
  "*</w>": 1123,
  "+</w>": 67,
  ",": 24540,
  ",</w>": 5,
  "-": 283,
  "--": 2089,
  "----": 29354,
  "--1</w>": 17412,
  "--2</w>": 30826,
  "--3</w>": 40747,
  "--</w>": 6268,
  "--a</w>": 7828,
  "--an</w>": 28091,
  "--and</w>": 34305,
  "--in</w>": 33829,
  "--the</w>": 15493,
  "-0</w>": 1657,
  "-1-</w>": 30538,
  "-1</w>": 696,
  "-1H</w>": 34651,
  "-2-</w>": 24918,
  "-2</w>": 1896,
  "-3-</w>": 30728,
  "-3</w>": 2695,
  "-4-</w>": 40713,
  "-4</w>": 3783,
  "-5-</w>": 37194,
  "-5</w>": 3976,
  "-6</w>": 4528,
  "-7</w>": 5451,
  "-8</w>": 5573,
  "-9</w>": 6470,
  "-</w>": 141,
  "-AC": 30370,
  "-AG": 23611,
  "-AT": 19934,
  "-ATPase</w>": 8241,
  "-B</w>": 29202,
  "-C</w>": 21056,
  "-CA": 32562,
  "-CAC": 40617,
  "-CAT": 42724,
  "-CC": 24707,
  "-CCT": 38298,
  "-CG": 37892,
  "-CT": 16954,
  "-D</w>": 35331,
  "-GAT": 36819,
  "-GCT": 35333,
  "-GFP</w>": 30955,
  "-GG": 12818,
  "-GGT": 43051,
  "-GT": 24097,
  "-H</w>": 26359,
  "-K</w>": 26141,
  "-L</w>": 33401,
  "-N-</w>": 43340,
  "-N</w>": 15067,
  "-O-</w>": 43041,
  "-O</w>": 16528,
  "-OH</w>": 21894,
  "-PCR</w>": 41461,
  "-SD</w>": 40794,
  "-T": 33812,
  "-TG": 36229,
  "-TT": 22795,
  "-UTR</w>": 12182,
  "-activated</w>": 20822,
  "-alpha</w>": 22328,
  "-associated</w>": 28249,
  "-based</w>": 11620,
  "-beta</w>": 22608,
  "-bi": 44403,
  "-binding</w>": 14875,
  "-bipyridine</w>": 42643,
  "-bis</w>": 38089,
  "-bound</w>": 37543,
  "-catalyzed</w>": 37628,
  "-conjugated</w>": 25945,
  "-containing</w>": 22070,
  "-cyclic</w>": 28689,
  "-deficient</w>": 36991,
  "-deoxy": 28022,
  "-deoxy</w>": 41858,
  "-deoxycytidine</w>": 39989,
  "-deoxyguanosine</w>": 42773,
  "-deoxyuridine</w>": 31658,
  "-dependent</w>": 6242,
  "-derived</w>": 31395,
  "-di": 9326,
  "-dichloro": 42915,
  "-end</w>": 14148,
  "-expressing</w>": 30329,
  "-flanking</w>": 27977,
  "-free</w>": 19159,
  "-independent</w>": 16071,
  "-induced</w>": 6108,
  "-infected</w>": 32196,
  "-labeled</w>": 27988,
  "-like</w>": 18464,
  "-linked</w>": 35512,
  "-mediated</w>": 11798,
  "-methyl": 37450,
  "-monophosphate</w>": 26570,
  "-negative</w>": 31402,
  "-nitro</w>": 34835,
  "-nucleotidase</w>": 38969,
  "-one</w>": 39079,
  "-phosphate</w>": 24554,
  "-positive</w>": 18740,
  "-related</w>": 26870,
  "-resistant</w>": 36573,
  "-sensitive</w>": 29719,
  "-specific</w>": 25283,
  "-stimulated</w>": 26573,
  "-tagged</w>": 35537,
  "-terminal</w>": 29643,
  "-treated</w>": 24408,
  "-tri": 41622,
  "-triphosphate</w>": 27650,
  "-type</w>": 41011,
  "-untranslated</w>": 23369,
  "-α</w>": 24684,
  "-β</w>": 24533,
  ".": 1011,
  ".-": 30204,
  "...</w>": 11774,
  "..</w>": 22287,
  ".0</w>": 830,
  ".1</w>": 2844,
  ".1A</w>": 19143,
  ".1B</w>": 20409,
  ".1C</w>": 28177,
  ".1D</w>": 39907,
  ".2</w>": 3497,
  ".2A</w>": 19665,
  ".2B</w>": 20806,
  ".2C</w>": 28545,
  ".2D</w>": 40889,
  ".3</w>": 4849,
  ".3A</w>": 20347,
  ".3B</w>": 21498,
  ".3C</w>": 29952,
  ".3D</w>": 42316,
  ".4</w>": 5952,
  ".4A</w>": 21421,
  ".4B</w>": 22663,
  ".4C</w>": 31544,
  ".5</w>": 7287,
  ".5A</w>": 23587,
  ".5B</w>": 24764,
  ".5C</w>": 34615,
  ".6</w>": 8428,
  ".6A</w>": 27725,
  ".6B</w>": 29037,
  ".6C</w>": 40550,
  ".7</w>": 9599,
  ".7A</w>": 37304,
  ".7B</w>": 39539,
  ".8</w>": 10869,
  ".9</w>": 11187,
  ".</w>": 4,
  ".B</w>": 37746,
  ".The</w>": 14563,
  ".This</w>": 32746,
  ".ac.uk</w>": 31266,
  ".com</w>": 11489,
  ".edu</w>": 13695,
  ".gov</w>": 34204,
  ".ht": 40780,
  ".html</w>": 23221,
  ".kg</w>": 39792,
  ".min</w>": 35019,
  ".net</w>": 44236,
  ".org</w>": 6425,
  "/</w>": 12,
  "0": 1077,
  "0-</w>": 6745,
  "0.": 24377,
  "0.1</w>": 40063,
  "0</w>": 18,
  "0A1</w>": 19446,
  "0A4</w>": 26175,
  "0A8</w>": 31508,
  "0A9</w>": 36073,
  "0A</w>": 3677,
  "0B</w>": 9461,
  "0C</w>": 11146,
  "0Cas</w>": 44028,
  "0D</w>": 16804,
  "0E</w>": 6982,
  "0F</w>": 19374,
  "0G</w>": 16264,
  "0H</w>": 27007,
  "0I</w>": 30246,
  "0K</w>": 10407,
  "0L</w>": 10941,
  "0M</w>": 10607,
  "0N</w>": 21156,
  "0P</w>": 17983,
  "0Q</w>": 23314,
  "0R</w>": 13471,
  "0S6K</w>": 21302,
  "0S</w>": 5541,
  "0T1</w>": 34711,
  "0T</w>": 17237,
  "0V</w>": 24852,
  "0W</w>": 27632,
  "0X</w>": 19426,
  "0Y</w>": 33837,
  "0a</w>": 8924,
  "0b</w>": 10795,
  "0bp</w>": 41958,
  "0c</w>": 16469,
  "0d</w>": 38400,
  "0e</w>": 43421,
  "0g</w>": 12787,
  "0h</w>": 37356,
  "0i</w>": 42716,
  "0m</w>": 43350,
  "0mM</w>": 13344,
  "0mg</w>": 10916,
  "0min</w>": 20974,
  "0mm</w>": 32705,
  "0nM</w>": 26032,
  "0ng</w>": 24822,
  "0nm</w>": 22739,
  "0p</w>": 16276,
  "0s</w>": 3704,
  "0th</w>": 7223,
  "0x</w>": 19704,
  "0Δ</w>": 29264,
  "0α</w>": 16704,
  "0β</w>": 21686,
  "0δ</w>": 40784,
  "0μM</w>": 22672,
  "0μg</w>": 25750,
  "0μl</w>": 40064,
  "1": 797,
  "1----": 44307,
  "1--</w>": 21715,
  "1-</w>": 3925,
  "1.": 13065,
  "1.1</w>": 20253,
  "1.</w>": 21791,
  "1.min</w>": 41512,
  "12": 53187,
  "1</w>": 19,
  "1A": 28498,
  "1A1</w>": 11994,
  "1A1A</w>": 36010,
  "1A2</w>": 17835,
  "1A</w>": 1165,
  "1B": 24152,
  "1B1</w>": 16768,
  "1B1B</w>": 38620,
  "1B2</w>": 37437,
  "1B</w>": 1809,
  "1BB</w>": 34167,
  "1C</w>": 2365,
  "1Cr</w>": 35848,
  "1D</w>": 3334,
  "1E</w>": 5520,
  "1F</w>": 7942,
  "1G</w>": 7518,
  "1H</w>": 2307,
  "1I</w>": 12966,
  "1In</w>": 36454,
  "1J</w>": 38638,
  "1K</w>": 15820,
  "1L1</w>": 36546,
  "1L</w>": 7794,
  "1M</w>": 14277,
  "1N</w>": 16115,
  "1P</w>": 12973,
  "1Q</w>": 27672,
  "1R</w>": 4331,
  "1Ra</w>": 39843,
  "1S</w>": 9885,
  "1T</w>": 15587,
  "1V</w>": 25911,
  "1W</w>": 38115,
  "1X</w>": 15019,
  "1Y</w>": 39170,
  "1a1</w>": 25370,
  "1a</w>": 1904,
  "1alpha</w>": 10175,
  "1b</w>": 2300,
  "1beta</w>": 8439,
  "1c</w>": 4568,
  "1d</w>": 10982,
  "1e</w>": 14292,
  "1f</w>": 22259,
  "1g</w>": 22798,
  "1h</w>": 17660,
  "1i</w>": 38312,
  "1l</w>": 44206,
  "1mM</w>": 22389,
  "1mg</w>": 33420,
  "1p1</w>": 34359,
  "1p3</w>": 40972,
  "1p</w>": 2651,
  "1q1</w>": 40771,
  "1q2</w>": 23482,
  "1q</w>": 26731,
  "1r</w>": 32262,
  "1ra</w>": 39024,
  "1s</w>": 12976,
  "1st</w>": 7466,
  "1th</w>": 38364,
  "1x</w>": 22842,
  "1Δ": 12352,
  "1Δ</w>": 4779,
  "1α</w>": 2724,
  "1β</w>": 3090,
  "1γ</w>": 34628,
  "2": 744,
  "2-</w>": 2939,
  "2.": 16695,
  "2.1</w>": 19927,
  "2.2</w>": 35363,
  "2.</w>": 21852,
  "2</w>": 22,
  "2A1</w>": 23044,
  "2A</w>": 1275,
  "2AP</w>": 39513,
  "2B": 26316,
  "2B1</w>": 28504,
  "2B2B</w>": 40140,
  "2B4</w>": 40226,
  "2B</w>": 1940,
  "2C1</w>": 30296,
  "2C</w>": 2484,
  "2D": 19403,
  "2D3</w>": 14471,
  "2D</w>": 1996,
  "2DG</w>": 39655,
  "2E1</w>": 36973,
  "2E</w>": 5652,
  "2F5</w>": 36583,
  "2F</w>": 8187,
  "2Fe</w>": 38243,
  "2G1</w>": 33896,
  "2G</w>": 9278,
  "2H2O</w>": 44140,
  "2H3</w>": 42557,
  "2H</w>": 3609,
  "2HG</w>": 38230,
  "2I</w>": 18543,
  "2J</w>": 21199,
  "2K</w>": 10994,
  "2L1</w>": 37738,
  "2L</w>": 9522,
  "2M</w>": 12460,
  "2N": 40898,
  "2N</w>": 16361,
  "2O": 21459,
  "2O3</w>": 28672,
  "2O4</w>": 35659,
  "2O</w>": 23849,
  "2P</w>": 9342,
  "2Q</w>": 20438,
  "2R": 20620,
  "2R</w>": 5634,
  "2Rv1</w>": 40305,
  "2S</w>": 8437,
  "2SO4</w>": 36748,
  "2T</w>": 14153,
  "2V6</w>": 48881,
  "2V</w>": 14398,
  "2W</w>": 28531,
  "2X</w>": 19998,
  "2Y</w>": 27711,
  "2a</w>": 2672,
  "2alpha</w>": 17844,
  "2b</w>": 3715,
  "2c</w>": 7197,
  "2d</w>": 10649,
  "2e</w>": 13357,
  "2f</w>": 22750,
  "2g</w>": 25062,
  "2h</w>": 13014,
  "2i</w>": 30763,
  "2k</w>": 40366,
  "2m</w>": 28392,
  "2mM</w>": 37700,
  "2n</w>": 24029,
  "2nd</w>": 11211,
  "2p4</w>": 40542,
  "2p</w>": 5364,
  "2q1</w>": 19541,
  "2q</w>": 41296,
  "2s</w>": 22529,
  "2th</w>": 26106,
  "2x": 35136,
  "2x</w>": 27025,
  "2Δ": 22772,
  "2Δ</w>": 9700,
  "2α</w>": 8519,
  "2β</w>": 21713,
  "3": 839,
  "3&apos;": 34906,
  "3&apos;UTR</w>": 34714,
  "3-</w>": 3967,
  "3.": 24543,
  "3.1</w>": 33847,
  "3.</w>": 26431,
  "3</w>": 25,
  "3A1</w>": 33798,
  "3A2</w>": 39206,
  "3A4</w>": 36469,
  "3A</w>": 1423,
  "3B1</w>": 44633,
  "3B</w>": 2475,
  "3BP1</w>": 12120,
  "3C</w>": 2479,
  "3D": 19250,
  "3D7</w>": 40028,
  "3D</w>": 1478,
  "3E</w>": 6299,
  "3F</w>": 7389,
  "3G</w>": 8612,
  "3H</w>": 2262,
  "3I</w>": 14266,
  "3J</w>": 39145,
  "3K</w>": 12379,
  "3L</w>": 10500,
  "3M</w>": 16743,
  "3N</w>": 16729,
  "3O4</w>": 45460,
  "3P</w>": 15921,
  "3Q</w>": 23050,
  "3R": 33452,
  "3R</w>": 7142,
  "3S</w>": 8735,
  "3T3</w>": 5916,
  "3T</w>": 3410,
  "3TC</w>": 31549,
  "3V</w>": 24509,
  "3W</w>": 39732,
  "3X</w>": 19244,
  "3Y</w>": 37186,
  "3a</w>": 3275,
  "3alpha</w>": 37026,
  "3b</w>": 4708,
  "3beta</w>": 21126,
  "3c</w>": 9128,
  "3d</w>": 11116,
  "3e</w>": 17016,
  "3f</w>": 23538,
  "3g</w>": 28374,
  "3h</w>": 22802,
  "3i</w>": 42909,
  "3p</w>": 5174,
  "3q2</w>": 41346,
  "3q</w>": 38307,
  "3rd</w>": 11560,
  "3s</w>": 26345,
  "3x": 21825,
  "3x</w>": 32873,
  "3xTg</w>": 37028,
  "3Δ": 31645,
  "3Δ</w>": 15621,
  "3α</w>": 13095,
  "3β</w>": 7688,
  "3ζ</w>": 38412,
  "3σ</w>": 43875,
  "4": 1024,
  "4-</w>": 4874,
  "4.": 35447,
  "4.1</w>": 34122,
  "4.</w>": 33996,
  "4</w>": 31,
  "4A": 39605,
  "4A1</w>": 21142,
  "4A4A</w>": 38496,
  "4A</w>": 1810,
  "4B</w>": 2584,
  "4C</w>": 2618,
  "4D</w>": 4256,
  "4E1</w>": 37559,
  "4E</w>": 4796,
  "4EBP1</w>": 30514,
  "4F</w>": 8526,
  "4Fe</w>": 34538,
  "4G</w>": 10105,
  "4H</w>": 8989,
  "4I</w>": 18421,
  "4J</w>": 44101,
  "4K": 45373,
  "4K</w>": 15355,
  "4L</w>": 13827,
  "4M</w>": 22202,
  "4N</w>": 17293,
  "4P</w>": 17829,
  "4Q</w>": 29164,
  "4R</w>": 9675,
  "4S</w>": 9984,
  "4T1</w>": 17611,
  "4T</w>": 11779,
  "4V</w>": 14324,
  "4W</w>": 36561,
  "4X</w>": 34133,
  "4Y</w>": 36584,
  "4a</w>": 4250,
  "4b</w>": 5869,
  "4c</w>": 9579,
  "4d</w>": 11625,
  "4e</w>": 18196,
  "4f</w>": 23428,
  "4g</w>": 32672,
  "4h</w>": 10051,
  "4p</w>": 10056,
  "4s</w>": 28762,
  "4th</w>": 11108,
  "4Δ</w>": 18670,
  "4α</w>": 37574,
  "5": 1082,
  "5&apos;": 22427,
  "5-</w>": 5410,
  "5.": 32012,
  "5.1</w>": 34658,
  "5.</w>": 38714,
  "5</w>": 24,
  "5A1</w>": 29367,
  "5A2</w>": 39587,
  "5A</w>": 1938,
  "5B</w>": 3180,
  "5C</w>": 3759,
  "5Ca</w>": 40816,
  "5D</w>": 4617,
  "5E</w>": 7274,
  "5F</w>": 9385,
  "5FU</w>": 33632,
  "5G</w>": 10630,
  "5H</w>": 11816,
  "5HT</w>": 28978,
  "5I</w>": 6410,
  "5K</w>": 11524,
  "5L</w>": 15213,
  "5M</w>": 18828,
  "5N</w>": 12806,
  "5NTR</w>": 39039,
  "5P</w>": 18314,
  "5Q</w>": 27698,
  "5R</w>": 9865,
  "5RA</w>": 30216,
  "5RO</w>": 36569,
  "5S</w>": 5677,
  "5T</w>": 14136,
  "5V</w>": 33481,
  "5W</w>": 34235,
  "5X": 41217,
  "5X</w>": 28538,
  "5Y</w>": 24765,
  "5a</w>": 4613,
  "5alpha</w>": 28257,
  "5b</w>": 5624,
  "5c</w>": 11186,
  "5d</w>": 13637,
  "5e</w>": 21065,
  "5f</w>": 29107,
  "5g</w>": 28557,
  "5h</w>": 31870,
  "5hmC</w>": 26484,
  "5i</w>": 42207,
  "5mC</w>": 31309,
  "5mM</w>": 24970,
  "5mg</w>": 21210,
  "5min</w>": 35710,
  "5mm</w>": 37283,
  "5p</w>": 5546,
  "5q1</w>": 41164,
  "5q</w>": 30631,
  "5s</w>": 31731,
  "5th</w>": 8016,
  "5x</w>": 40182,
  "5Δ</w>": 25908,
  "5α</w>": 13956,
  "5β</w>": 32783,
  "5μM</w>": 43227,
  "6": 1249,
  "6-</w>": 8081,
  "6.": 32843,
  "6</w>": 37,
  "6A1</w>": 32787,
  "6A</w>": 2410,
  "6B</w>": 4241,
  "6C</w>": 4783,
  "6D</w>": 6672,
  "6E</w>": 8951,
  "6F1</w>": 21833,
  "6F</w>": 11819,
  "6G</w>": 10305,
  "6H</w>": 12878,
  "6I</w>": 22506,
  "6J</w>": 9582,
  "6K</w>": 14691,
  "6L1</w>": 27461,
  "6L</w>": 18353,
  "6M</w>": 22316,
  "6N</w>": 21022,
  "6P</w>": 16934,
  "6Q</w>": 29463,
  "6R</w>": 10069,
  "6S</w>": 4621,
  "6T</w>": 17591,
  "6V</w>": 20275,
  "6W</w>": 35948,
  "6X</w>": 43337,
  "6Y</w>": 37590,
  "6a</w>": 5567,
  "6b</w>": 7724,
  "6c</w>": 13537,
  "6d</w>": 21351,
  "6e</w>": 25514,
  "6f</w>": 30184,
  "6g</w>": 40770,
  "6h</w>": 21529,
  "6me3</w>": 33509,
  "6p</w>": 16247,
  "6q2</w>": 40614,
  "6s</w>": 42054,
  "6th</w>": 15068,
  "6x": 46891,
  "6xHis</w>": 42457,
  "6Δ</w>": 35619,
  "6α</w>": 30194,
  "7": 1486,
  "7-</w>": 12589,
  "7</w>": 39,
  "7A1</w>": 18920,
  "7A</w>": 2840,
  "7B": 45261,
  "7B1</w>": 36604,
  "7B</w>": 6293,
  "7BL6</w>": 41950,
  "7BL</w>": 4061,
  "7Bl</w>": 24734,
  "7C</w>": 6012,
  "7Cs</w>": 42705,
  "7D</w>": 6266,
  "7E</w>": 11363,
  "7F</w>": 8477,
  "7G</w>": 14222,
  "7H</w>": 17716,
  "7I</w>": 27563,
  "7K</w>": 16187,
  "7L</w>": 16594,
  "7M</w>": 22952,
  "7MG</w>": 22694,
  "7N</w>": 20850,
  "7P</w>": 32946,
  "7Q</w>": 28632,
  "7R</w>": 11963,
  "7Rv</w>": 33610,
  "7S</w>": 14212,
  "7SK</w>": 40605,
  "7T</w>": 12841,
  "7V</w>": 31463,
  "7X</w>": 40264,
  "7a</w>": 6614,
  "7ac</w>": 26899,
  "7alpha</w>": 38090,
  "7b</w>": 9625,
  "7beta</w>": 19194,
  "7c</w>": 16339,
  "7d</w>": 23028,
  "7e</w>": 30250,
  "7f</w>": 43073,
  "7me3</w>": 12406,
  "7p1</w>": 38671,
  "7p</w>": 14157,
  "7q2</w>": 39501,
  "7q</w>": 36274,
  "7th</w>": 15133,
  "7Δ</w>": 30750,
  "7α</w>": 26763,
  "7β</w>": 16081,
  "8": 1802,
  "8-</w>": 9988,
  "8</w>": 40,
  "8A</w>": 3819,
  "8B</w>": 7747,
  "8C</w>": 7938,
  "8D</w>": 12671,
  "8E</w>": 15711,
  "8F</w>": 8248,
  "8G</w>": 12386,
  "8H</w>": 19421,
  "8I</w>": 29148,
  "8K</w>": 16446,
  "8L</w>": 21794,
  "8M</w>": 26859,
  "8MAPK</w>": 26107,
  "8N</w>": 24789,
  "8P</w>": 32922,
  "8Q</w>": 23588,
  "8R</w>": 11010,
  "8S</w>": 7414,
  "8T</w>": 16176,
  "8V</w>": 29278,
  "8W</w>": 39309,
  "8X</w>": 42480,
  "8Y</w>": 36078,
  "8a</w>": 7430,
  "8b</w>": 11341,
  "8c</w>": 20126,
  "8d</w>": 40491,
  "8del</w>": 27956,
  "8h</w>": 19604,
  "8p</w>": 18723,
  "8q2</w>": 34396,
  "8q</w>": 40007,
  "8s</w>": 43110,
  "8th</w>": 15328,
  "8Δ</w>": 42710,
  "8α</w>": 15977,
  "9": 2047,
  "9-</w>": 16854,
  "9</w>": 36,
  "9A1</w>": 37578,
  "9A</w>": 4828,
  "9B</w>": 12984,
  "9C</w>": 10838,
  "9D</w>": 15478,
  "9E1</w>": 34236,
  "9E</w>": 16474,
  "9F</w>": 17193,
  "9G</w>": 17422,
  "9H1</w>": 38091,
  "9H</w>": 20526,
  "9I</w>": 34052,
  "9K</w>": 17693,
  "9L</w>": 17731,
  "9M</w>": 31209,
  "9N</w>": 29983,
  "9P</w>": 33354,
  "9Q</w>": 28901,
  "9R</w>": 17028,
  "9S</w>": 11335,
  "9T</w>": 20401,
  "9V</w>": 22239,
  "9W</w>": 44271,
  "9X</w>": 29410,
  "9a</w>": 8814,
  "9b</w>": 11705,
  "9c</w>": 24919,
  "9d</w>": 41630,
  "9m</w>": 10878,
  "9mT": 48099,
  "9mTc</w>": 13154,
  "9p2</w>": 39109,
  "9p</w>": 21028,
  "9q</w>": 31728,
  "9th</w>": 16093,
  "9Δ</w>": 40975,
  ":</w>": 52,
  ";</w>": 53,
  "</s>": 2,
  "<pad>": 1,
  "<s>": 0,
  "<unk>": 3,
  "=</w>": 64,
  "?</w>": 752,
  "@-@</w>": 11,
  "@</w>": 6993,
  "A": 507,
  "A-</w>": 13391,
  "A.": 7777,
  "A.</w>": 1422,
  "A0</w>": 15129,
  "A1": 20993,
  "A1</w>": 1354,
  "A1C</w>": 28461,
  "A1c</w>": 26178,
  "A2": 13609,
  "A2</w>": 1460,
  "A2A</w>": 18283,
  "A2AR</w>": 37359,
  "A3": 25734,
  "A3</w>": 2826,
  "A3A</w>": 25021,
  "A3G</w>": 16716,
  "A4</w>": 4639,
  "A5</w>": 2805,
  "A5A</w>": 43693,
  "A6</w>": 6980,
  "A7</w>": 9642,
  "A8</w>": 13446,
  "A9</w>": 12059,
  "A</w>": 59,
  "AA": 3310,
  "AA0</w>": 40645,
  "AA1</w>": 24159,
  "AA</w>": 2239,
  "AAA</w>": 6362,
  "AAAA": 38063,
  "AAAC": 24431,
  "AAAG": 19104,
  "AAAT": 17831,
  "AAC": 6755,
  "AAC</w>": 13692,
  "AACT": 27396,
  "AAD</w>": 21502,
  "AAF</w>": 35601,
  "AAG": 6315,
  "AAG</w>": 10525,
  "AAGCT": 40166,
  "AAGT": 22908,
  "AAH</w>": 46829,
  "AAO</w>": 32877,
  "AAP</w>": 31430,
  "AAR</w>": 30965,
  "AAS</w>": 23203,
  "AAT": 5928,
  "AAT</w>": 12652,
  "AAV": 34675,
  "AAV2</w>": 17789,
  "AAV8</w>": 43884,
  "AAV9</w>": 36919,
  "AAV</w>": 7283,
  "AAs</w>": 22026,
  "AB": 2679,
  "AB0</w>": 37783,
  "AB1</w>": 16986,
  "AB2</w>": 22725,
  "AB3</w>": 33677,
  "AB</w>": 3813,
  "ABA</w>": 7535,
  "ABC": 32799,
  "ABC</w>": 5357,
  "ABCA1</w>": 18441,
  "ABCB": 32963,
  "ABCB1</w>": 13722,
  "ABCC": 42274,
  "ABCC1</w>": 37183,
  "ABCG2</w>": 13650,
  "ABD</w>": 30779,
  "ABE</w>": 34976,
  "ABEL": 50914,
  "ABELLED</w>": 50637,
  "ABI</w>": 9760,
  "ABL1</w>": 17403,
  "ABL</w>": 8660,
  "ABO</w>": 19423,
  "ABP</w>": 14735,
  "ABR</w>": 18969,
  "ABS</w>": 30382,
  "ABSTRA": 49836,
  "ABSTRACT</w>": 38,
  "ABT</w>": 13375,
  "ABTS</w>": 33377,
  "ABs</w>": 41301,
  "AC": 1524,
  "AC0</w>": 39746,
  "AC1</w>": 15197,
  "AC2</w>": 30345,
  "AC</w>": 2908,
  "ACA</w>": 10524,
  "ACAC": 23995,
  "ACAG": 17900,
  "ACAT": 17029,
  "ACC</w>": 5922,
  "ACCT": 17159,
  "ACD</w>": 21747,
  "ACE2</w>": 28859,
  "ACE</w>": 5894,
  "ACEI</w>": 41526,
  "ACF</w>": 29009,
  "ACG</w>": 26067,
  "ACH</w>": 26472,
  "ACI</w>": 37134,
  "ACID</w>": 38803,
  "ACL": 24470,
  "ACL</w>": 10731,
  "ACM</w>": 36367,
  "ACN</w>": 25160,
  "ACP</w>": 13081,
  "ACR</w>": 15924,
  "ACS</w>": 7839,
  "ACSF</w>": 34357,
  "ACT": 5704,
  "ACT</w>": 9912,
  "ACTB</w>": 40533,
  "ACTH</w>": 6549,
  "ACTION</w>": 39482,
  "ACTIV": 38047,
  "ACTT": 18088,
  "ACV</w>": 30119,
  "ACh": 24716,
  "ACh</w>": 8222,
  "AChE</w>": 10781,
  "AChR</w>": 18192,
  "AChRs</w>": 33817,
  "ACs</w>": 13940,
  "AD": 2257,
  "AD1</w>": 19375,
  "AD2</w>": 30458,
  "AD</w>": 1056,
  "ADA</w>": 13267,
  "ADAM": 26690,
  "ADAM1</w>": 11972,
  "ADAM</w>": 28883,
  "ADAMT": 44921,
  "ADAMTS1</w>": 26164,
  "ADAMTS</w>": 32870,
  "ADAR1</w>": 30928,
  "ADC</w>": 9167,
  "ADCC</w>": 14827,
  "ADCs</w>": 29984,
  "ADD</w>": 33687,
  "ADE</w>": 29600,
  "ADF</w>": 26586,
  "ADG</w>": 34535,
  "ADH</w>": 13897,
  "ADHD</w>": 6123,
  "ADI</w>": 33258,
  "ADL</w>": 15815,
  "ADM</w>": 17490,
  "ADMA</w>": 26354,
  "ADO</w>": 43818,
  "ADP</w>": 3078,
  "ADPKD</w>": 23241,
  "ADPR</w>": 32129,
  "ADR</w>": 13958,
  "ADRs</w>": 26591,
  "ADS</w>": 36847,
  "ADSCs</w>": 31398,
  "ADT</w>": 19122,
  "ADV</w>": 36555,
  "ADs</w>": 16981,
  "AE": 14288,
  "AE1</w>": 30827,
  "AE</w>": 6869,
  "AEA</w>": 26579,
  "AEC": 42130,
  "AEC</w>": 26061,
  "AED</w>": 25193,
  "AEDs</w>": 23680,
  "AEG</w>": 42521,
  "AEP</w>": 35411,
  "AER</w>": 40831,
  "AES</w>": 38383,
  "AEs</w>": 9567,
  "AF": 5864,
  "AF0</w>": 36170,
  "AF1</w>": 15911,
  "AF2</w>": 25524,
  "AF3</w>": 38220,
  "AF4</w>": 29953,
  "AF6</w>": 36438,
  "AF9</w>": 35272,
  "AF</w>": 3042,
  "AFB1</w>": 24786,
  "AFB</w>": 35719,
  "AFC</w>": 33620,
  "AFLP</w>": 34403,
  "AFM</w>": 11522,
  "AFP</w>": 11662,
  "AFS</w>": 43136,
  "AG": 2269,
  "AG0</w>": 43473,
  "AG1</w>": 14562,
  "AG2</w>": 34909,
  "AG3</w>": 40211,
  "AG</w>": 4476,
  "AGA</w>": 13193,
  "AGAC": 40300,
  "AGAG": 29439,
  "AGAT": 15529,
  "AGC</w>": 13607,
  "AGCT": 12654,
  "AGE</w>": 11905,
  "AGEN</w>": 49509,
  "AGEs</w>": 21451,
  "AGG</w>": 19915,
  "AGGG": 43534,
  "AGGT": 34677,
  "AGO2</w>": 39303,
  "AGO</w>": 43679,
  "AGP</w>": 34522,
  "AGS</w>": 19310,
  "AGT": 6694,
  "AGT</w>": 15677,
  "AH": 17957,
  "AH1</w>": 36243,
  "AH</w>": 9729,
  "AHA</w>": 25155,
  "AHI</w>": 22261,
  "AHL</w>": 42616,
  "AHP</w>": 32112,
  "AHR</w>": 14082,
  "AI": 4225,
  "AI1</w>": 27112,
  "AI</w>": 4982,
  "AIC</w>": 32984,
  "AICAR</w>": 19711,
  "AICD</w>": 33097,
  "AID</w>": 9660,
  "AIDS</w>": 3402,
  "AIDs</w>": 48558,
  "AIF</w>": 19263,
  "AIH</w>": 32277,
  "AII</w>": 19744,
  "AIII</w>": 41634,
  "AIM2</w>": 35684,
  "AIM</w>": 3575,
  "AIMS</w>": 4384,
  "AIN</w>": 26669,
  "AIP</w>": 20049,
  "AIR</w>": 26018,
  "AIRE</w>": 35686,
  "AIS</w>": 12526,
  "AIT</w>": 28193,
  "AIV</w>": 27101,
  "AIs</w>": 25709,
  "AJ": 29440,
  "AJ</w>": 27351,
  "AJCC</w>": 35020,
  "AK": 6273,
  "AK1</w>": 28703,
  "AK</w>": 13068,
  "AKAP1</w>": 33567,
  "AKAP</w>": 34992,
  "AKI</w>": 9975,
  "AKO</w>": 47688,
  "AKR": 40212,
  "AKR1": 29786,
  "AKR</w>": 34170,
  "AKT1</w>": 19154,
  "AKT2</w>": 39913,
  "AKT</w>": 2911,
  "AL": 2575,
  "AL1</w>": 28181,
  "AL</w>": 4006,
  "ALA</w>": 13165,
  "ALC</w>": 38604,
  "ALCL</w>": 30269,
  "ALD": 46037,
  "ALD</w>": 18795,
  "ALDH": 23737,
  "ALDH1</w>": 34471,
  "ALDH2</w>": 27458,
  "ALDH</w>": 18662,
  "ALE</w>": 44879,
  "ALF</w>": 32373,
  "ALG</w>": 42249,
  "ALI</w>": 17072,
  "ALK": 31493,
  "ALK</w>": 5485,
  "ALL</w>": 4550,
  "ALP</w>": 10271,
  "ALS</w>": 3553,
  "ALT</w>": 7674,
  "ALY": 47330,
  "ALY</w>": 46310,
  "ALYs</w>": 46150,
  "AM": 2864,
  "AM1</w>": 20932,
  "AM2</w>": 31215,
  "AM</w>": 3947,
  "AMA</w>": 21205,
  "AMB</w>": 41421,
  "AMC</w>": 20721,
  "AMD3</w>": 38885,
  "AMD</w>": 6897,
  "AME</w>": 43096,
  "AMF</w>": 30786,
  "AMG</w>": 37775,
  "AMH</w>": 22676,
  "AMI</w>": 9156,
  "AMIN": 43078,
  "AML1</w>": 21102,
  "AML</w>": 3171,
  "AMM</w>": 37929,
  "AMP</w>": 3491,
  "AMPA</w>": 9352,
  "AMPAR</w>": 19763,
  "AMPARs</w>": 26373,
  "AMPH</w>": 37195,
  "AMPK": 22978,
  "AMPK</w>": 3518,
  "AMPKα</w>": 33470,
  "AMPs</w>": 24646,
  "AMR</w>": 29080,
  "AMS</w>": 20779,
  "AMT</w>": 34351,
  "AMs</w>": 21996,
  "AN": 3142,
  "AN1</w>": 38447,
  "AN</w>": 5560,
  "ANA</w>": 19785,
  "ANALY": 47529,
  "ANALYSIS</w>": 16487,
  "ANC</w>": 23858,
  "ANCA</w>": 19110,
  "ANCE</w>": 31944,
  "AND</w>": 759,
  "ANES</w>": 45412,
  "ANF</w>": 21147,
  "ANG": 26968,
  "ANG</w>": 14796,
  "ANGP": 49825,
  "ANGPTL": 32825,
  "ANIM": 48231,
  "ANIMALS</w>": 28921,
  "ANK</w>": 29669,
  "ANN</w>": 26813,
  "ANO": 22560,
  "ANOVA</w>": 4195,
  "ANP</w>": 11054,
  "ANS": 43111,
  "ANS</w>": 13938,
  "ANT</w>": 16449,
  "ANTI": 27922,
  "ANX": 25796,
  "AO": 12813,
  "AO</w>": 12509,
  "AOM</w>": 23868,
  "AOR</w>": 13804,
  "AP": 2631,
  "AP1</w>": 7236,
  "AP2</w>": 9613,
  "AP3</w>": 27780,
  "AP4</w>": 26715,
  "AP5</w>": 24899,
  "AP7</w>": 29003,
  "AP</w>": 1685,
  "APA": 44876,
  "APA</w>": 14975,
  "APACHE</w>": 27451,
  "APAP</w>": 23175,
  "APB</w>": 23354,
  "APC</w>": 3815,
  "APCs</w>": 17550,
  "APD</w>": 21657,
  "APE1</w>": 17532,
  "APE</w>": 23925,
  "APH</w>": 36295,
  "API</w>": 19058,
  "APL</w>": 16192,
  "APN</w>": 27987,
  "APO": 15873,
  "APO</w>": 28931,
  "APOB": 47614,
  "APOBEC": 24807,
  "APOBEC3G</w>": 37591,
  "APOBEC</w>": 41213,
  "APOE</w>": 14575,
  "APP": 44930,
  "APP</w>": 3561,
  "APPRO": 49788,
  "APPROACH</w>": 34692,
  "APPs": 36974,
  "APR</w>": 33434,
  "APRIL</w>": 41817,
  "APS</w>": 12322,
  "APT</w>": 34502,
  "APTT</w>": 41541,
  "APV</w>": 30572,
  "APs</w>": 12354,
  "AQ": 12499,
  "AQ</w>": 22125,
  "AQP1</w>": 34530,
  "AQP2</w>": 26806,
  "AQP4</w>": 24075,
  "AQP</w>": 43391,
  "AR": 2445,
  "AR1</w>": 16184,
  "AR2</w>": 22578,
  "AR</w>": 1525,
  "ARA": 24233,
  "ARA</w>": 27896,
  "ARB</w>": 28542,
  "ARBs</w>": 40517,
  "ARC</w>": 11861,
  "ARCH</w>": 48750,
  "ARD</w>": 20914,
  "ARDS</w>": 14146,
  "ARDs</w>": 49327,
  "ARE": 28597,
  "ARE</w>": 10681,
  "AREAS</w>": 40761,
  "AREG</w>": 36272,
  "AREs</w>": 41726,
  "ARF1</w>": 34099,
  "ARF6</w>": 30251,
  "ARF</w>": 8748,
  "ARG</w>": 35251,
  "ARH": 36463,
  "ARI": 21472,
  "ARI</w>": 28381,
  "ARID": 35334,
  "ARID1A</w>": 29852,
  "ARM</w>": 25723,
  "ARMS</w>": 29366,
  "ARN": 28464,
  "ARNT</w>": 31825,
  "ARP": 32249,
  "ARP</w>": 18165,
  "ARPE</w>": 36129,
  "ARR</w>": 36119,
  "ARS</w>": 13568,
  "ART</w>": 5065,
  "ARV</w>": 25735,
  "ARY</w>": 16383,
  "ARs</w>": 12991,
  "AS": 2925,
  "AS1</w>": 13022,
  "AS2</w>": 20959,
  "AS</w>": 2742,
  "ASA</w>": 9944,
  "ASC": 16356,
  "ASC</w>": 10570,
  "ASCO</w>": 44280,
  "ASCT</w>": 33951,
  "ASCs</w>": 20945,
  "ASD</w>": 5531,
  "ASDs</w>": 39308,
  "ASE</w>": 16398,
  "ASES</w>": 35799,
  "ASF</w>": 26043,
  "ASFV</w>": 38836,
  "ASH</w>": 21935,
  "ASI": 14828,
  "ASI</w>": 26817,
  "ASK1</w>": 19602,
  "ASL</w>": 19151,
  "ASM</w>": 20188,
  "ASO</w>": 21254,
  "ASOs</w>": 43021,
  "ASP": 13290,
  "ASP</w>": 14750,
  "ASR</w>": 39265,
  "ASS</w>": 27737,
  "AST": 25029,
  "AST</w>": 9143,
  "ASXL1</w>": 35804,
  "ASs</w>": 30062,
  "AT": 1747,
  "AT1</w>": 7150,
  "AT1R</w>": 26182,
  "AT2</w>": 14916,
  "AT3</w>": 31633,
  "AT</w>": 2561,
  "ATA</w>": 17106,
  "ATAC</w>": 39679,
  "ATAT": 38517,
  "ATC</w>": 12799,
  "ATCC</w>": 5729,
  "ATCT": 29620,
  "ATD</w>": 32452,
  "ATE</w>": 22757,
  "ATED</w>": 36795,
  "ATF2</w>": 30899,
  "ATF3</w>": 25543,
  "ATF4</w>": 15712,
  "ATF6</w>": 23158,
  "ATF</w>": 19395,
  "ATG": 30904,
  "ATG1</w>": 16501,
  "ATG5</w>": 22889,
  "ATG7</w>": 34353,
  "ATG</w>": 9075,
  "ATGL</w>": 36633,
  "ATI": 24574,
  "ATION</w>": 13980,
  "ATIONS</w>": 26656,
  "ATL": 31204,
  "ATL</w>": 19465,
  "ATM</w>": 4824,
  "ATO</w>": 25306,
  "ATP": 14284,
  "ATP1</w>": 44251,
  "ATP7B</w>": 37405,
  "ATP</w>": 864,
  "ATPase</w>": 3084,
  "ATPases</w>": 16514,
  "ATPγS</w>": 41891,
  "ATR</w>": 7014,
  "ATRA</w>": 13986,
  "ATRX</w>": 27731,
  "ATS</w>": 20318,
  "ATT</w>": 21905,
  "ATTT": 37616,
  "ATV</w>": 37763,
  "ATX": 28702,
  "ATX</w>": 31498,
  "ATs</w>": 25376,
  "AU": 5143,
  "AU</w>": 13453,
  "AUC0</w>": 32823,
  "AUC</w>": 4830,
  "AUCs</w>": 40582,
  "AUD</w>": 35077,
  "AUF1</w>": 43411,
  "AUG</w>": 21993,
  "AURK": 44943,
  "AURKA</w>": 29281,
  "AUTHO": 50288,
  "AUTHORS</w>": 35852,
  "AV": 5561,
  "AV</w>": 7633,
  "AVAI": 52711,
  "AVAILAB": 51118,
  "AVAILABILITY</w>": 39669,
  "AVE</w>": 31471,
  "AVF</w>": 28894,
  "AVM</w>": 24310,
  "AVMs</w>": 33283,
  "AVP</w>": 10556,
  "AVR</w>": 23192,
  "AVs</w>": 38701,
  "AW": 39747,
  "AW</w>": 40238,
  "AX": 20538,
  "AX</w>": 16608,
  "AXL</w>": 24972,
  "AY": 33745,
  "AZ": 9073,
  "AZ</w>": 22959,
  "AZA</w>": 26167,
  "AZD1</w>": 43535,
  "AZD6</w>": 42858,
  "AZT</w>": 18187,
  "Aa": 30596,
  "Aa</w>": 33305,
  "Ab": 4648,
  "Ab1</w>": 39707,
  "Ab</w>": 4696,
  "Abbot": 50047,
  "Abbott</w>": 25824,
  "Abbrevi": 46549,
  "Abbreviations</w>": 32707,
  "Abcam</w>": 6107,
  "Abdom": 49307,
  "Abdominal</w>": 15462,
  "Aberr": 46472,
  "Aberrant</w>": 19001,
  "Abeta</w>": 14544,
  "Abi": 37784,
  "Ability</w>": 38403,
  "Abl": 45067,
  "Abl</w>": 8697,
  "Ablation</w>": 30079,
  "Abnormal</w>": 13335,
  "Abnormalities</w>": 26755,
  "Abo": 48434,
  "Aboriginal</w>": 22173,
  "About</w>": 8203,
  "Above</w>": 30806,
  "Abr": 38867,
  "Abra": 39023,
  "Abs": 46958,
  "Abs</w>": 8275,
  "Absence</w>": 20542,
  "Absolute</w>": 24520,
  "Absorb": 48967,
  "Absorbance</w>": 33446,
  "Absorption</w>": 23628,
  "Abstr": 49108,
  "Abstract</w>": 29239,
  "Abstracts</w>": 18476,
  "Abund": 37462,
  "Abuse</w>": 33309,
  "Ac": 2872,
  "Ac</w>": 7005,
  "Aca": 47043,
  "Acad</w>": 21828,
  "Academ": 47228,
  "Academic</w>": 17925,
  "Academy</w>": 13627,
  "Acanth": 41861,
  "Acanthamoeba</w>": 31988,
  "Acar": 39043,
  "Acc": 17142,
  "Accel": 29086,
  "Accelerated</w>": 37822,
  "Accep": 27087,
  "Access</w>": 16798,
  "Accession</w>": 28472,
  "Accor": 50073,
  "According</w>": 3735,
  "Accordingly</w>": 5214,
  "Accred": 52348,
  "Accreditation</w>": 34054,
  "Accum": 45382,
  "Accumulating</w>": 21900,
  "Accumulation</w>": 18348,
  "Accur": 45049,
  "Accuracy</w>": 18431,
  "Accurate</w>": 16433,
  "Acet": 16090,
  "Acetyl": 35425,
  "Acetyl</w>": 37268,
  "Acetylation</w>": 37619,
  "Acetylcholine</w>": 43187,
  "Ach": 29365,
  "Achi": 43657,
  "Achieving</w>": 39871,
  "Achilles</w>": 19276,
  "Aci": 38116,
  "Acid</w>": 10082,
  "Acids</w>": 28288,
  "Acin": 46600,
  "Acinetobacter</w>": 16646,
  "Acous": 49139,
  "Acoustic</w>": 34743,
  "Acqu": 44560,
  "Acquired</w>": 22478,
  "Acquisition</w>": 25769,
  "Acr": 19052,
  "Acro": 38664,
  "Across</w>": 16637,
  "Act": 22556,
  "Act</w>": 10868,
  "Acta</w>": 38435,
  "Acti": 35033,
  "Actin": 19442,
  "Actin</w>": 14958,
  "Actino": 38159,
  "Actinobacteria</w>": 42198,
  "Action</w>": 14876,
  "Activ": 32614,
  "Activated</w>": 13072,
  "Activating</w>": 33852,
  "Activation</w>": 5279,
  "Active</w>": 9415,
  "Activin</w>": 35608,
  "Activities</w>": 19301,
  "Activity</w>": 6627,
  "Actually</w>": 39979,
  "Acupuncture</w>": 37079,
  "Acute</w>": 3598,
  "Ad": 3113,
  "Ad.": 37800,
  "Ad5</w>": 17238,
  "Ad</w>": 6323,
  "AdV</w>": 35784,
  "Adams</w>": 30833,
  "Adap": 28187,
  "Adaptation</w>": 27957,
  "Adaptive</w>": 23056,
  "Add": 38302,
  "Addgene</w>": 17387,
  "Addi": 32467,
  "Addic": 48227,
  "Addiction</w>": 43510,
  "Adding</w>": 22083,
  "Addition</w>": 7960,
  "Additional</w>": 2634,
  "Additionally</w>": 1817,
  "Addressing</w>": 35391,
  "Ade": 46026,
  "Ade</w>": 42493,
  "Aden": 13603,
  "Adenocarcinoma</w>": 37522,
  "Adenosine</w>": 20833,
  "Adenovirus</w>": 33181,
  "Adequ": 47516,
  "Adequate</w>": 28397,
  "Adhe": 29475,
  "Adherence</w>": 19968,
  "Adhesion</w>": 25071,
  "Adi": 41423,
  "Adip": 35061,
  "Adipo": 31063,
  "Adiponectin</w>": 36473,
  "Adipose</w>": 29112,
  "Adju": 45676,
  "Adjus": 44391,
  "Adjusted</w>": 24861,
  "Adjustment</w>": 35584,
  "Adjuvant</w>": 21639,
  "Admin": 30910,
  "Administration</w>": 5675,
  "Ado": 29960,
  "Ado</w>": 37382,
  "AdoMet</w>": 26397,
  "Adobe</w>": 20001,
  "Adolesc": 46391,
  "Adolescent</w>": 18504,
  "Adolescents</w>": 17940,
  "Adop": 35364,
  "Adren": 21359,
  "Adrenal</w>": 31846,
  "Adriamycin</w>": 36415,
  "Adsorption</w>": 25689,
  "Adult</w>": 7534,
  "Adults</w>": 13808,
  "Adv": 24460,
  "Advance</w>": 43286,
  "Advanced</w>": 10312,
  "Advances</w>": 12926,
  "Advant": 45420,
  "Advantages</w>": 35448,
  "Adverse</w>": 11411,
  "Advis": 49584,
  "Advisory</w>": 33682,
  "Ae": 30330,
  "Ae.</w>": 22042,
  "Aedes</w>": 17135,
  "Aero": 32673,
  "Aerobic</w>": 36096,
  "Aeromonas</w>": 25925,
  "Af": 15056,
  "Aff": 13417,
  "Affairs</w>": 23870,
  "Affect</w>": 42854,
  "Affected</w>": 34797,
  "Affiliated</w>": 37383,
  "Affinity</w>": 20009,
  "Affymetrix</w>": 10969,
  "Afgh": 48477,
  "Afghan": 52041,
  "Afghanistan</w>": 40945,
  "Afr": 44798,
  "Africa</w>": 4590,
  "African</w>": 3104,
  "Africans</w>": 32759,
  "After": 39057,
  "After</w>": 456,
  "Afterwards</w>": 26820,
  "Ag": 5233,
  "Ag</w>": 3942,
  "AgCl</w>": 40044,
  "AgNPs</w>": 20795,
  "AgRP</w>": 43524,
  "Again</w>": 12609,
  "Against</w>": 22149,
  "Agarose</w>": 36441,
  "Age": 35687,
  "Age</w>": 5482,
  "Aged</w>": 37089,
  "Ageing</w>": 41506,
  "Agency</w>": 14914,
  "Agents</w>": 28312,
  "Agg": 25783,
  "Aggreg": 32743,
  "Aggregation</w>": 27923,
  "Aggressive</w>": 32170,
  "Agil": 50719,
  "Agilent</w>": 7382,
  "Aging</w>": 13663,
  "Ago": 45564,
  "Ago2</w>": 29134,
  "Ago</w>": 43493,
  "Agon": 31368,
  "Agr": 36011,
  "Agre": 47732,
  "Agreement</w>": 24708,
  "Agricul": 51352,
  "Agricultural</w>": 37728,
  "Agriculture</w>": 35488,
  "Agro": 45087,
  "Agrobacterium</w>": 17191,
  "Ags</w>": 38847,
  "Ah": 15380,
  "Ah</w>": 32132,
  "AhR</w>": 12748,
  "Ai": 41057,
  "Aid</w>": 32162,
  "Aim": 38601,
  "Aim</w>": 20775,
  "Aims</w>": 35480,
  "Air": 26566,
  "Air</w>": 15862,
  "Airway</w>": 24770,
  "Aj": 41542,
  "Ak": 9761,
  "Akt1</w>": 15629,
  "Akt2</w>": 27289,
  "Akt</w>": 1705,
  "Al": 1853,
  "Al2O3</w>": 31966,
  "Al</w>": 6280,
  "Ala": 25643,
  "Ala1</w>": 30019,
  "Ala2</w>": 32458,
  "Ala</w>": 4641,
  "Alab": 47453,
  "Alabama</w>": 40087,
  "Alam": 33516,
  "Alanine</w>": 34134,
  "Alaska</w>": 29687,
  "Alb": 35506,
  "Alb</w>": 34967,
  "Alber": 46139,
  "Albert</w>": 43840,
  "Alberta</w>": 28271,
  "Albumin</w>": 31862,
  "Alcoh": 28659,
  "Alcohol</w>": 11412,
  "Ald": 37187,
  "Alder</w>": 34891,
  "Aldrich</w>": 3014,
  "Ale": 36214,
  "Alex": 17050,
  "Alexa": 45208,
  "Alexa</w>": 5639,
  "AlexaFluor</w>": 42561,
  "Alexander</w>": 36839,
  "Alg": 28564,
  "Algorith": 46089,
  "Algorithm</w>": 36916,
  "Ali": 23659,
  "Align": 36135,
  "Alignment</w>": 25630,
  "Aliquo": 50612,
  "Aliquots</w>": 21579,
  "Alk": 18764,
  "Alkaline</w>": 30799,
  "All": 9850,
  "All</w>": 416,
  "Allele</w>": 32524,
  "Allen</w>": 32054,
  "Allergic</w>": 26926,
  "Allergy</w>": 28352,
  "Alli": 45046,
  "Alliance</w>": 41807,
  "Allo": 29542,
  "Allogeneic</w>": 39566,
  "Almost</w>": 13286,
  "Alo": 42013,
  "Along</w>": 16705,
  "Alph": 39924,
  "Alpha": 32656,
  "Alpha</w>": 14050,
  "Also</w>": 2830,
  "Alter": 49902,
  "Alteration</w>": 30095,
  "Alterations</w>": 13886,
  "Altered</w>": 16204,
  "Altern": 27175,
  "Alternaria</w>": 37167,
  "Alternative</w>": 14273,
  "Alternatively</w>": 6159,
  "Although</w>": 428,
  "Altman</w>": 24327,
  "Alto</w>": 29380,
  "Altogether</w>": 8622,
  "Alu</w>": 21778,
  "Alumin": 40804,
  "Alve": 48715,
  "Alveolar</w>": 34888,
  "Alz": 45617,
  "Alzheimer</w>": 2847,
  "Am": 6087,
  "Am</w>": 14330,
  "AmB</w>": 35290,
  "Amar": 43893,
  "Amax": 51839,
  "Amaxa</w>": 40976,
  "Amaz": 39122,
  "Amazon</w>": 30875,
  "Amb": 16666,
  "Ambi": 44409,
  "Ambion</w>": 14748,
  "Ambly": 43835,
  "Ambulatory</w>": 27762,
  "Amer": 44439,
  "Americ": 49088,
  "America</w>": 6357,
  "American</w>": 1882,
  "Americans</w>": 7662,
  "Americas</w>": 36630,
  "Amersham</w>": 7921,
  "Ames</w>": 34472,
  "Ami": 32295,
  "Amic": 47906,
  "Amicon</w>": 29537,
  "Amin": 22344,
  "Amino": 38886,
  "Amino</w>": 11710,
  "Ammon": 30701,
  "Amni": 40890,
  "Amo": 34162,
  "Amon": 50513,
  "Among</w>": 1267,
  "Amongst</w>": 29549,
  "Amp": 20808,
  "Amp</w>": 28219,
  "AmpC</w>": 40223,
  "Amph": 37564,
  "Amphi": 33022,
  "Ampl": 33210,
  "Ampli": 42835,
  "Amplic": 40693,
  "Amplification</w>": 17718,
  "Amplified</w>": 40790,
  "Amster": 52218,
  "Amsterdam</w>": 27769,
  "Amy": 27597,
  "Amyloid</w>": 22830,
  "Amyotrophic</w>": 39752,
  "An": 2454,
  "An.</w>": 20646,
  "An</w>": 580,
  "Ana": 14183,
  "Anab": 49506,
  "Anabaena</w>": 42118,
  "Anaerobic</w>": 38279,
  "Anal</w>": 30542,
  "Analog": 24516,
  "Analogous</w>": 40312,
  "Analy": 16365,
  "Analyses</w>": 8644,
  "Analysis</w>": 1520,
  "Analytical</w>": 18387,
  "Analyzer</w>": 17933,
  "Analyzing</w>": 32121,
  "Anat": 45925,
  "Anatom": 44772,
  "Anatomic</w>": 36524,
  "Anatomical</w>": 25556,
  "Anatomy</w>": 35169,
  "And": 27582,
  "And</w>": 8554,
  "Ander": 46810,
  "Andersen</w>": 41431,
  "Anderson</w>": 15286,
  "Andre": 34556,
  "Andro": 26587,
  "Androgen</w>": 29350,
  "Ane": 48703,
  "Anemia</w>": 29237,
  "Anesthesi": 46162,
  "Anesthesia</w>": 24454,
  "Anesthesiologists</w>": 39103,
  "Aneurys": 41717,
  "Aneurysm</w>": 39646,
  "Ang": 12325,
  "Ang</w>": 8162,
  "AngII</w>": 22107,
  "Angel": 28054,
  "Angeles</w>": 23544,
  "Angi": 14956,
  "Angio": 42558,
  "Angiogenesis</w>": 27135,
  "Angiography</w>": 33413,
  "Angiotensin</w>": 19257,
  "Angle</w>": 39194,
  "Ani": 32768,
  "Anim": 48115,
  "Animal</w>": 4809,
  "Animals</w>": 6764,
  "Anis": 43799,
  "Ank": 19994,
  "Ankle</w>": 32676,
  "Ann": 20267,
  "Ann</w>": 23308,
  "Annexin</w>": 10665,
  "Annotation</w>": 37548,
  "Annual</w>": 16290,
  "Ano": 22812,
  "Anomal": 45400,
  "Anomalous</w>": 42666,
  "Anoph": 49991,
  "Anopheles</w>": 18766,
  "Another</w>": 3407,
  "Ant": 17684,
  "Antarctic</w>": 29014,
  "Anten": 36267,
  "Anterior</w>": 16974,
  "Anth": 24316,
  "Anthro": 48924,
  "Anthrop": 44516,
  "Anthropometric</w>": 35909,
  "Anti": 4865,
  "Anti</w>": 4339,
  "Antibacterial</w>": 35204,
  "Antibiotic</w>": 16897,
  "Antibiotics</w>": 29666,
  "Antibodies</w>": 7435,
  "Antibody</w>": 10449,
  "Antic": 28367,
  "Antigen</w>": 16931,
  "Antigenic</w>": 44030,
  "Antim": 36153,
  "Antimicrobial</w>": 16138,
  "Antioxidant</w>": 23300,
  "Antisense</w>": 38092,
  "Antitumor</w>": 42695,
  "Antiviral</w>": 36215,
  "Anton": 27566,
  "Anx": 25410,
  "Anxiety</w>": 11762,
  "Any</w>": 14922,
  "Ao": 42283,
  "Aor": 42880,
  "Aortic</w>": 15786,
  "Ap": 4607,
  "Ap</w>": 30491,
  "Apa": 46662,
  "ApaI</w>": 42807,
  "Apaf</w>": 33078,
  "Apart</w>": 13037,
  "Apc</w>": 21468,
  "Ape": 35212,
  "Apgar</w>": 27286,
  "Aph": 24272,
  "Aplysia</w>": 35219,
  "Apo": 8830,
  "Apo</w>": 19093,
  "ApoE</w>": 16027,
  "Apol": 48761,
  "Apolipoprotein</w>": 33129,
  "Apop": 46454,
  "Apoptosis</w>": 9919,
  "Apoptotic</w>": 28032,
  "App": 13957,
  "Apparent</w>": 31249,
  "Apparently</w>": 26560,
  "Appendix</w>": 8163,
  "Application</w>": 6908,
  "Applications</w>": 19718,
  "Applied</w>": 4720,
  "Applying</w>": 20129,
  "Appro": 41596,
  "Approach</w>": 16834,
  "Approaches</w>": 27126,
  "Appropri": 46025,
  "Appropriate</w>": 19236,
  "Approxim": 45887,
  "Approximately</w>": 6595,
  "April</w>": 5816,
  "Apro": 47218,
  "Apropos</w>": 22983,
  "Aqu": 20411,
  "Aqueous</w>": 26822,
  "Ar": 2751,
  "Ar</w>": 11361,
  "ArH</w>": 41710,
  "Ara": 24586,
  "Ara</w>": 23232,
  "AraC</w>": 41385,
  "Arab": 41587,
  "Arab</w>": 25674,
  "Arabia</w>": 19418,
  "Arabian</w>": 44038,
  "Arabic</w>": 39335,
  "Arabidopsis</w>": 3281,
  "Arach": 34374,
  "Arbor</w>": 30275,
  "Arc": 28801,
  "Arc</w>": 21471,
  "Arch": 35140,
  "Arch</w>": 43919,
  "Archaea</w>": 34069,
  "Archi": 43966,
  "Architec": 43205,
  "Archive</w>": 43876,
  "Arctic</w>": 23324,
  "Are": 45490,
  "Are</w>": 9721,
  "Area</w>": 14983,
  "Areas</w>": 20641,
  "Arf1</w>": 36515,
  "Arf6</w>": 28228,
  "Arf</w>": 18143,
  "Arg": 12278,
  "Arg1</w>": 12856,
  "Arg2</w>": 19330,
  "Arg3</w>": 21234,
  "Arg4</w>": 31073,
  "Arg5</w>": 36539,
  "Arg6</w>": 40572,
  "Arg7</w>": 40191,
  "Arg</w>": 3785,
  "Argen": 41696,
  "Argentina</w>": 19204,
  "Arginine</w>": 27973,
  "Argon": 31438,
  "Ari": 19140,
  "Arizona</w>": 34334,
  "Arm": 43254,
  "Arm</w>": 22942,
  "Army</w>": 26076,
  "Arn": 35380,
  "Aro": 27171,
  "Around</w>": 32037,
  "Arp2</w>": 19007,
  "Array</w>": 15121,
  "Arrays</w>": 41093,
  "Arrh": 50973,
  "Arrhenius</w>": 39410,
  "Arsen": 46232,
  "Arsenic</w>": 32395,
  "Art</w>": 36101,
  "Arte": 36497,
  "Artem": 50272,
  "Artemis</w>": 44183,
  "Arteri": 27558,
  "Arterial</w>": 14787,
  "Artery</w>": 22332,
  "Arth": 44351,
  "Arthritis</w>": 24179,
  "Arthro": 22854,
  "Arthroplasty</w>": 41944,
  "Arthroscopic</w>": 39860,
  "Arti": 44737,
  "Article</w>": 27472,
  "Articles</w>": 32643,
  "Artificial</w>": 22131,
  "As": 4605,
  "As2O3</w>": 40003,
  "As</w>": 300,
  "Asc": 17681,
  "Ascaris</w>": 34712,
  "Ash": 16990,
  "Ashken": 49958,
  "Ashkenazi</w>": 40485,
  "Asi": 37568,
  "Asia</w>": 7848,
  "Asian</w>": 5236,
  "Asians</w>": 17167,
  "Aside</w>": 33635,
  "Asn": 23461,
  "Asn1</w>": 29448,
  "Asn2</w>": 39401,
  "Asn</w>": 8781,
  "Asp": 9499,
  "Asp1</w>": 18445,
  "Asp2</w>": 23902,
  "Asp3</w>": 31310,
  "Asp</w>": 5085,
  "Aspects</w>": 30682,
  "Asperg": 47342,
  "Aspergillus</w>": 8065,
  "Aspirin</w>": 28462,
  "Ass": 32358,
  "Assay</w>": 6607,
  "Assays</w>": 14834,
  "Assemb": 44470,
  "Assembly</w>": 21782,
  "Assess": 46680,
  "Assessing</w>": 15431,
  "Assessment</w>": 4126,
  "Assessments</w>": 36709,
  "Assi": 29326,
  "Assis": 48010,
  "Assisted</w>": 26362,
  "Associ": 29411,
  "Associated</w>": 9741,
  "Association</w>": 3434,
  "Associations</w>": 12871,
  "Assuming</w>": 21511,
  "Asth": 47221,
  "Asthma</w>": 16256,
  "Astr": 43972,
  "Astro": 33515,
  "Astrocytes</w>": 34687,
  "Asymmetric</w>": 30676,
  "Asymptomatic</w>": 33510,
  "At": 3233,
  "At1": 43310,
  "At5": 43778,
  "At</w>": 710,
  "Atax": 49903,
  "Ataxia</w>": 44005,
  "Atg": 19062,
  "Atg1</w>": 12552,
  "Atg3</w>": 38347,
  "Atg5</w>": 21046,
  "Atg7</w>": 24489,
  "Atg8</w>": 26681,
  "Ath": 31486,
  "Athero": 44861,
  "Atherosclerosis</w>": 24742,
  "Athle": 43064,
  "Atl": 47092,
  "Atlanta</w>": 32178,
  "Atlantic</w>": 13664,
  "Atlas</w>": 15858,
  "Atm</w>": 37410,
  "Atmosph": 42691,
  "Ato": 42260,
  "Atomic</w>": 23458,
  "Atp": 41297,
  "Atrial</w>": 16561,
  "Att": 43074,
  "Attachment</w>": 34484,
  "Attemp": 45129,
  "Attempts</w>": 21551,
  "Atten": 23738,
  "Attention</w>": 17780,
  "Attenuation</w>": 41550,
  "Attitudes</w>": 25318,
  "Attribu": 47268,
  "Attribution</w>": 43351,
  "Atypical</w>": 22128,
  "Au": 8627,
  "Au</w>": 6580,
  "AuNP</w>": 39458,
  "AuNPs</w>": 19611,
  "Aud": 47796,
  "Audi": 28947,
  "Auditory</w>": 24920,
  "Aug": 18508,
  "August</w>": 6788,
  "Aur": 25867,
  "Auro": 48946,
  "Aurora</w>": 8239,
  "Aus": 45527,
  "Austin</w>": 29251,
  "Austr": 49243,
  "Austral": 43180,
  "Australi": 50504,
  "Australia</w>": 5205,
  "Australian</w>": 6883,
  "Australians</w>": 43854,
  "Austri": 50633,
  "Austria</w>": 19734,
  "Austrian</w>": 35514,
  "Aut": 12298,
  "Auth": 46980,
  "Author</w>": 27180,
  "Authority</w>": 41157,
  "Authors</w>": 15899,
  "Autism</w>": 21884,
  "Auto": 12762,
  "Autoimmune</w>": 25985,
  "Autologous</w>": 28580,
  "Autom": 45454,
  "Automated</w>": 18592,
  "Automatic</w>": 28602,
  "Autonomic</w>": 39223,
  "Autophagy</w>": 13674,
  "Autopsy</w>": 37729,
  "Autoradi": 39211,
  "Autosomal</w>": 38734,
  "Av": 13052,
  "Avail": 51525,
  "Availability</w>": 38584,
  "Available</w>": 5908,
  "Average</w>": 10604,
  "Avi": 39857,
  "Avian</w>": 39939,
  "Avo": 38704,
  "Avr": 17272,
  "Awa": 49012,
  "Award</w>": 22521,
  "Awareness</w>": 24333,
  "Ax": 9164,
  "Axi": 39083,
  "Axin</w>": 26068,
  "Axio": 21505,
  "Axiovert</w>": 35630,
  "Axis</w>": 33217,
  "Axl</w>": 25473,
  "Axon</w>": 28443,
  "Ay": 26774,
  "Az": 10653,
  "Aza</w>": 31999,
  "Aβ": 25024,
  "Aβ1</w>": 12655,
  "Aβ4</w>": 7908,
  "Aβ</w>": 2303,
  "AβPP</w>": 43663,
  "B": 287,
  "B-</w>": 22921,
  "B.": 13398,
  "B.</w>": 1843,
  "B0</w>": 21842,
  "B1</w>": 1312,
  "B2": 35265,
  "B2</w>": 2533,
  "B3": 29192,
  "B3</w>": 5122,
  "B3B</w>": 41328,
  "B3LYP</w>": 22481,
  "B4</w>": 6098,
  "B5</w>": 8668,
  "B6": 25048,
  "B6.": 34750,
  "B6</w>": 6380,
  "B7</w>": 7417,
  "B8</w>": 15636,
  "B9</w>": 17667,
  "B</w>": 148,
  "BA": 9990,
  "BA</w>": 5199,
  "BAC": 12622,
  "BAC</w>": 9883,
  "BACE1</w>": 13555,
  "BACE</w>": 35815,
  "BACKG": 51382,
  "BACKGROU": 48478,
  "BACKGROUND</w>": 501,
  "BAD</w>": 22703,
  "BAF": 33156,
  "BAF</w>": 23336,
  "BAFF</w>": 21440,
  "BAG3</w>": 35156,
  "BAG</w>": 38005,
  "BAK1</w>": 41782,
  "BAK</w>": 27626,
  "BAL": 29104,
  "BAL</w>": 12065,
  "BALB</w>": 6261,
  "BALF</w>": 19569,
  "BAM</w>": 33986,
  "BAP": 45328,
  "BAP1</w>": 24218,
  "BAP</w>": 35356,
  "BAPTA</w>": 24661,
  "BAR": 44292,
  "BAR</w>": 20629,
  "BARD1</w>": 37795,
  "BAS": 34885,
  "BAS</w>": 35695,
  "BAT</w>": 13261,
  "BAX</w>": 15542,
  "BAY</w>": 29812,
  "BB": 12553,
  "BB</w>": 7543,
  "BBB</w>": 7358,
  "BBP</w>": 40973,
  "BBR</w>": 38992,
  "BBS</w>": 29291,
  "BC": 6300,
  "BC0</w>": 34324,
  "BC1</w>": 37620,
  "BC</w>": 3438,
  "BCA": 29613,
  "BCA</w>": 14497,
  "BCAA</w>": 34987,
  "BCC</w>": 18493,
  "BCCs</w>": 43773,
  "BCD</w>": 26459,
  "BCG</w>": 9042,
  "BCI</w>": 30412,
  "BCL": 24103,
  "BCL1</w>": 30877,
  "BCL2</w>": 15728,
  "BCL6</w>": 26172,
  "BCL</w>": 9322,
  "BCN": 48369,
  "BCNU</w>": 36114,
  "BCO</w>": 46445,
  "BCP</w>": 23945,
  "BCR</w>": 5007,
  "BCRP</w>": 21397,
  "BCS</w>": 19190,
  "BCT</w>": 43267,
  "BCVA</w>": 24340,
  "BCa</w>": 43144,
  "BChE</w>": 35489,
  "BCs</w>": 21815,
  "BD": 9593,
  "BD</w>": 2404,
  "BDD</w>": 37137,
  "BDE</w>": 20864,
  "BDI</w>": 23176,
  "BDL</w>": 41099,
  "BDNF</w>": 4525,
  "BDV</w>": 44521,
  "BE": 8732,
  "BE</w>": 8900,
  "BEAS</w>": 36159,
  "BEC": 48033,
  "BECN1</w>": 30388,
  "BED</w>": 33795,
  "BER</w>": 12681,
  "BET": 30444,
  "BET</w>": 16799,
  "BEZ2</w>": 30564,
  "BF": 23089,
  "BF</w>": 9336,
  "BFA</w>": 21919,
  "BFU</w>": 39866,
  "BG</w>": 11313,
  "BH": 36676,
  "BH3</w>": 11839,
  "BH4</w>": 21474,
  "BH</w>": 14631,
  "BHI</w>": 32706,
  "BHK</w>": 16855,
  "BHT</w>": 39756,
  "BI": 6473,
  "BI</w>": 5829,
  "BIA</w>": 25322,
  "BIC</w>": 32488,
  "BID</w>": 20054,
  "BIM</w>": 21047,
  "BIO": 20507,
  "BIO</w>": 28430,
  "BIR": 26526,
  "BIR</w>": 33101,
  "BIS</w>": 22055,
  "BIT</w>": 41096,
  "BJ": 22472,
  "BJ</w>": 25277,
  "BK": 16977,
  "BK</w>": 9277,
  "BKV</w>": 39634,
  "BL": 6185,
  "BL1</w>": 37569,
  "BL2</w>": 9285,
  "BL6</w>": 39404,
  "BL</w>": 7239,
  "BLA</w>": 30442,
  "BLAST": 31216,
  "BLAST</w>": 13573,
  "BLE": 48014,
  "BLI</w>": 34804,
  "BLM</w>": 12347,
  "BLO": 35066,
  "BLOOD</w>": 37533,
  "BLV</w>": 36327,
  "BLs</w>": 33382,
  "BM": 4009,
  "BM</w>": 3254,
  "BMA</w>": 31451,
  "BMAL1</w>": 26045,
  "BMC</w>": 18298,
  "BMD": 34258,
  "BMD</w>": 5725,
  "BMDCs</w>": 28583,
  "BMDM</w>": 35413,
  "BMDMs</w>": 22189,
  "BME</w>": 30622,
  "BMI1</w>": 32750,
  "BMI</w>": 2369,
  "BMMCs</w>": 41337,
  "BMMs</w>": 38959,
  "BMP2</w>": 22028,
  "BMP4</w>": 21647,
  "BMP7</w>": 42994,
  "BMP</w>": 5476,
  "BMPR": 41277,
  "BMPR2</w>": 43430,
  "BMPs</w>": 25775,
  "BMS</w>": 15962,
  "BMSC</w>": 31761,
  "BMSCs</w>": 15005,
  "BMT</w>": 13440,
  "BMV</w>": 36563,
  "BMs</w>": 30315,
  "BN": 18785,
  "BN</w>": 9839,
  "BNI": 46892,
  "BNIP3</w>": 33235,
  "BNP</w>": 11841,
  "BO": 9290,
  "BO</w>": 23425,
  "BODI": 47397,
  "BODIPY</w>": 25708,
  "BOLD</w>": 19908,
  "BOS</w>": 43546,
  "BP": 15030,
  "BP1</w>": 5203,
  "BP2</w>": 11539,
  "BP3</w>": 23851,
  "BP4</w>": 37451,
  "BP5</w>": 42910,
  "BP</w>": 2064,
  "BPA</w>": 11178,
  "BPD</w>": 13144,
  "BPH</w>": 14555,
  "BPI</w>": 37868,
  "BPS</w>": 33343,
  "BPV</w>": 36687,
  "BPs</w>": 14447,
  "BQ</w>": 31225,
  "BR": 5089,
  "BR3</w>": 44885,
  "BR</w>": 6149,
  "BRA": 15432,
  "BRA</w>": 31741,
  "BRAF</w>": 3912,
  "BRC</w>": 37108,
  "BRCA": 41263,
  "BRCA1</w>": 4159,
  "BRCA2</w>": 8302,
  "BRCA</w>": 14895,
  "BRCT</w>": 27005,
  "BRD4</w>": 17959,
  "BRET</w>": 25084,
  "BRG1</w>": 23816,
  "BRI": 27197,
  "BRI1</w>": 40045,
  "BRL</w>": 19287,
  "BRM</w>": 34823,
  "BRS</w>": 30892,
  "BS": 39346,
  "BS</w>": 5741,
  "BSA</w>": 3232,
  "BSC</w>": 36877,
  "BSE</w>": 28117,
  "BSI</w>": 25797,
  "BSO</w>": 31547,
  "BSP</w>": 32747,
  "BSS</w>": 41781,
  "BST</w>": 28831,
  "BT": 9508,
  "BT4</w>": 29240,
  "BT</w>": 7191,
  "BTB": 37912,
  "BTB</w>": 24905,
  "BTC</w>": 39694,
  "BTK</w>": 23429,
  "BTV</w>": 27788,
  "BTX</w>": 28802,
  "BU": 12306,
  "BU</w>": 38027,
  "BUN</w>": 28121,
  "BV": 35122,
  "BV2</w>": 43005,
  "BV</w>": 9504,
  "BVD": 48356,
  "BVDV</w>": 25530,
  "BW": 43542,
  "BW</w>": 9168,
  "BY": 38492,
  "BY4</w>": 32834,
  "BY</w>": 15450,
  "BZ": 15998,
  "BZ</w>": 27564,
  "Ba": 5488,
  "Ba2</w>": 41635,
  "Ba</w>": 11711,
  "BaP</w>": 24997,
  "Bab": 19450,
  "Babe": 49898,
  "Babesia</w>": 32837,
  "Bac": 10677,
  "Bac</w>": 23638,
  "Bach": 34139,
  "Bacillus</w>": 5636,
  "Back": 31626,
  "Back</w>": 26173,
  "Background</w>": 6913,
  "Bacteri": 16942,
  "Bacteria</w>": 14440,
  "Bacterial</w>": 8910,
  "Bactero": 48241,
  "Bacteroides</w>": 20948,
  "Bacteroidetes</w>": 38567,
  "Bad</w>": 19196,
  "Bag": 32422,
  "Bail": 40633,
  "Bak": 40700,
  "Bak</w>": 14901,
  "Baker</w>": 28264,
  "Bal": 12326,
  "Balance</w>": 29420,
  "Balb</w>": 21499,
  "Ball": 43500,
  "Balloon</w>": 40154,
  "Baltic</w>": 41369,
  "Baltimore</w>": 28560,
  "Bam": 19662,
  "BamHI</w>": 7683,
  "Ban": 20723,
  "Band</w>": 27812,
  "Bands</w>": 43859,
  "Bang": 34557,
  "Banglad": 45996,
  "Bangladesh</w>": 19489,
  "Bank</w>": 9441,
  "Bar": 5921,
  "Bar</w>": 24998,
  "Barcel": 50301,
  "Barcelona</w>": 31166,
  "Barr": 45101,
  "Barr</w>": 10737,
  "Barrett</w>": 17024,
  "Barriers</w>": 27600,
  "Barré</w>": 32891,
  "Bart": 35692,
  "Barthel</w>": 41623,
  "Bartonella</w>": 36394,
  "Bas": 14462,
  "Basal</w>": 13859,
  "Base</w>": 17494,
  "Based</w>": 1405,
  "Basel</w>": 24614,
  "Baseline</w>": 10091,
  "Basi": 29131,
  "Basic</w>": 12164,
  "Basin</w>": 31580,
  "Bat": 16971,
  "Battery</w>": 39719,
  "Bax": 40514,
  "Bax</w>": 5238,
  "Bay": 26696,
  "Bay</w>": 16059,
  "Bayer</w>": 39832,
  "Bayes</w>": 28118,
  "Bayesian</w>": 8745,
  "Bb</w>": 38360,
  "Bc": 28595,
  "Bcl": 23860,
  "Bcl1</w>": 39521,
  "Bcl2</w>": 20658,
  "Bcl</w>": 2723,
  "Bcr</w>": 20128,
  "Be": 4909,
  "Be</w>": 23863,
  "Bead": 31867,
  "Beads</w>": 19113,
  "Bec": 23655,
  "Because</w>": 1258,
  "Beck</w>": 21219,
  "Becker</w>": 33741,
  "Beckman</w>": 12575,
  "Beclin1</w>": 33592,
  "Beclin</w>": 14509,
  "Becton</w>": 15479,
  "Bed": 30593,
  "Bedford</w>": 31767,
  "Before</w>": 7198,
  "Beg": 45487,
  "Beginning</w>": 38745,
  "Beh": 31367,
  "Behavi": 35747,
  "Behavior</w>": 12971,
  "Behavioral</w>": 12838,
  "Behaviour</w>": 36309,
  "Behavioural</w>": 38741,
  "Behçet</w>": 25501,
  "Bei": 47177,
  "Beijing</w>": 11701,
  "Being</w>": 17587,
  "Bel": 12648,
  "Belgian</w>": 30331,
  "Belgium</w>": 16406,
  "Belie": 36732,
  "Bell</w>": 27437,
  "Below</w>": 33861,
  "Bem": 42729,
  "Ben": 13102,
  "Ben</w>": 42039,
  "Bene": 20830,
  "Benefits</w>": 31456,
  "Beng": 46677,
  "Bengal</w>": 41963,
  "Benign</w>": 23172,
  "Benj": 46839,
  "Benjamini</w>": 33119,
  "Bennett</w>": 42782,
  "Benz": 15314,
  "Ber": 8532,
  "Berg": 18665,
  "Berkeley</w>": 39691,
  "Berlin</w>": 21939,
  "Bern": 24131,
  "Bertani</w>": 31538,
  "Beside</w>": 40681,
  "Besides</w>": 5635,
  "Best</w>": 21578,
  "Bet": 21936,
  "Beta": 40268,
  "Beta</w>": 13019,
  "Beth": 47860,
  "Bethesda</w>": 19152,
  "Bethyl</w>": 34713,
  "Better</w>": 18963,
  "Between</w>": 5050,
  "Bev": 48577,
  "Bevacizumab</w>": 36913,
  "Bever": 49178,
  "Beverly</w>": 23867,
  "Bey": 48206,
  "Beyo": 51205,
  "Beyond</w>": 15891,
  "Beyotime</w>": 35503,
  "Bgl": 43026,
  "BglII</w>": 20947,
  "Bh": 29395,
  "Bi": 3153,
  "Bi</w>": 15584,
  "BiFC</w>": 27254,
  "BiP</w>": 16791,
  "Biacore</w>": 39995,
  "Bic": 21754,
  "Bid</w>": 17246,
  "Bif": 43802,
  "Bifid": 48076,
  "Bifidobacterium</w>": 29490,
  "Big": 38984,
  "Big</w>": 25935,
  "BigDye</w>": 43547,
  "Bil": 22735,
  "Bilateral</w>": 13023,
  "Bile</w>": 29383,
  "Biliary</w>": 31634,
  "Bill": 41507,
  "Billerica</w>": 19279,
  "Bim": 26902,
  "Bim</w>": 13745,
  "Bin": 18965,
  "Binary</w>": 41278,
  "Binding</w>": 5656,
  "Bio": 3398,
  "Bio</w>": 3669,
  "BioLabs</w>": 42055,
  "BioLegend</w>": 30280,
  "BioRad</w>": 21222,
  "BioTek</w>": 40387,
  "Bioanalyzer</w>": 33158,
  "Biob": 38608,
  "Bioch": 33763,
  "Biochem</w>": 19854,
  "Biochemical</w>": 9747,
  "Biochemicals</w>": 32700,
  "Biochemistry</w>": 22501,
  "Bioconductor</w>": 39753,
  "Biofilm</w>": 40239,
  "Bioinformatic</w>": 42331,
  "Bioinformatics</w>": 19150,
  "Biol</w>": 8498,
  "Biolabs</w>": 13854,
  "Biole": 50340,
  "Biolegend</w>": 33983,
  "Biolog": 45529,
  "Biological</w>": 8559,
  "Biologicals</w>": 27013,
  "Biology</w>": 14052,
  "Biom": 14517,
  "Biomar": 50362,
  "Biomarker</w>": 40147,
  "Biomarkers</w>": 24403,
  "Biomechanical</w>": 36453,
  "Biomedic": 49524,
  "Biomedical</w>": 20547,
  "Biomedicals</w>": 42123,
  "Biophys</w>": 34607,
  "Biopsies</w>": 37510,
  "Biopsy</w>": 23882,
  "Bior": 46781,
  "Biorad</w>": 40405,
  "Bios": 15694,
  "Biosci": 50577,
  "Bioscience</w>": 14842,
  "Biosciences</w>": 4593,
  "Biosynthesis</w>": 30780,
  "Biosystems</w>": 5399,
  "Biotec</w>": 27627,
  "Biotech</w>": 11877,
  "Biotechnologies</w>": 39414,
  "Biotechnology</w>": 4406,
  "Biotin": 47222,
  "Biotin</w>": 26614,
  "Biotinylated</w>": 41892,
  "Bipolar</w>": 32975,
  "Bir": 15545,
  "BirA</w>": 43812,
  "Birmingham</w>": 31876,
  "Birth</w>": 19791,
  "Bis": 11383,
  "Bis</w>": 17253,
  "Bit": 41649,
  "Bivariate</w>": 42390,
  "Bj": 35396,
  "Bl": 10898,
  "Bla": 27108,
  "Blac": 49025,
  "Black": 33958,
  "Black</w>": 10078,
  "Blacks</w>": 35793,
  "Bladder</w>": 23029,
  "Blan": 42589,
  "Bland</w>": 24982,
  "Blas": 30903,
  "Blast": 35840,
  "Ble": 27702,
  "Bleeding</w>": 28267,
  "Blim": 41084,
  "Blin": 26811,
  "Blo": 25873,
  "Bloc": 23325,
  "Block</w>": 23745,
  "Blockade</w>": 26371,
  "Blocking</w>": 18350,
  "Blood</w>": 3314,
  "Bloom": 41833,
  "Bloom</w>": 40751,
  "Blot</w>": 20379,
  "Blots</w>": 22598,
  "Blotting</w>": 33314,
  "Blu": 31926,
  "Blue</w>": 8593,
  "Blun": 40361,
  "Bm": 14700,
  "Bmal1</w>": 35976,
  "Bmax</w>": 24451,
  "Bmi1</w>": 39496,
  "Bmp": 30648,
  "Bn": 35664,
  "Bo": 4614,
  "BoNT</w>": 20223,
  "Board</w>": 10646,
  "Boc</w>": 26801,
  "Body</w>": 8179,
  "Boeh": 47793,
  "Boehringer</w>": 29254,
  "Bog": 38076,
  "Bol": 21672,
  "Boltz": 50455,
  "Boltzmann</w>": 23446,
  "Bom": 35347,
  "Bomby": 50854,
  "Bombyx</w>": 35959,
  "Bon": 14130,
  "Bond</w>": 19830,
  "Bone</w>": 6025,
  "Bonferroni</w>": 12490,
  "Bor": 13846,
  "Borde": 47322,
  "Bordetella</w>": 30066,
  "Born</w>": 41214,
  "Borrelia</w>": 21235,
  "Bortezomib</w>": 38105,
  "Bos": 21602,
  "Bos</w>": 35923,
  "Bost": 49792,
  "Boston</w>": 13306,
  "Bot": 18275,
  "Both</w>": 952,
  "Botry": 41145,
  "Botulinum</w>": 42741,
  "Bou": 26957,
  "Bound</w>": 23045,
  "Bour": 39115,
  "Bovine</w>": 17014,
  "Bow": 22665,
  "Bowel</w>": 29538,
  "Bowman</w>": 41727,
  "Box": 40486,
  "Box</w>": 17585,
  "Boy": 45416,
  "Boyden</w>": 35227,
  "Bq</w>": 27903,
  "Br": 3656,
  "Br</w>": 8006,
  "Bra": 12873,
  "Braak</w>": 39050,
  "Brac": 42649,
  "Brachy": 32587,
  "Brad": 30536,
  "Bradford</w>": 16687,
  "Bragg</w>": 29729,
  "Brain": 42472,
  "Brain</w>": 5970,
  "Brains</w>": 34430,
  "Bran": 17626,
  "Branch</w>": 39956,
  "Brassi": 45742,
  "Brassica</w>": 22310,
  "Braz": 45809,
  "Brazil</w>": 5972,
  "Brazilian</w>": 9595,
  "Brca1</w>": 33547,
  "Brd": 30761,
  "Brd4</w>": 29511,
  "BrdU</w>": 7273,
  "Bre": 10551,
  "Brea": 26320,
  "Break": 39062,
  "Breast": 49106,
  "Breast</w>": 6799,
  "Breastfeeding</w>": 43827,
  "Bren": 28874,
  "Bres": 37570,
  "Brg1</w>": 36495,
  "Bri": 10437,
  "Brief</w>": 17967,
  "Briefly</w>": 3344,
  "Brig": 40707,
  "Bright</w>": 39151,
  "Brilliant</w>": 38455,
  "Bris": 41572,
  "Bristol</w>": 26333,
  "Brit": 45722,
  "Britain</w>": 24424,
  "British</w>": 9810,
  "Bro": 8384,
  "Broad</w>": 26760,
  "Brom": 25400,
  "Bromo": 43149,
  "Bron": 22464,
  "Bronch": 33019,
  "Bronchial</w>": 35476,
  "Brow": 44944,
  "Brown</w>": 12237,
  "Brownian</w>": 32005,
  "Browser</w>": 38500,
  "Bru": 39328,
  "Bruc": 31596,
  "Brucella</w>": 18528,
  "Brug": 44722,
  "Brugada</w>": 37230,
  "Bruker</w>": 17481,
  "Brun": 20584,
  "Bs": 25772,
  "Bs</w>": 6768,
  "Bst": 42659,
  "Bt": 29471,
  "Bt</w>": 22881,
  "Btk</w>": 24832,
  "Bu": 8318,
  "Bu</w>": 14843,
  "Bub": 25580,
  "Bub1</w>": 27251,
  "BubR1</w>": 26855,
  "Buc": 18964,
  "Buch": 37321,
  "Bud": 17171,
  "Buff": 29252,
  "Buffer</w>": 11371,
  "Buil": 44488,
  "Building</w>": 22790,
  "Bul": 18029,
  "Bulg": 38960,
  "Bun": 32618,
  "Bur": 6946,
  "Burden</w>": 34452,
  "Bureau</w>": 40127,
  "Burk": 47495,
  "Burkhol": 50044,
  "Burkholderia</w>": 23472,
  "Burkitt</w>": 21196,
  "Burling": 44993,
  "Burlingame</w>": 27418,
  "Burn</w>": 42863,
  "Bus": 22634,
  "But": 16454,
  "But</w>": 6635,
  "Bx": 36425,
  "BxPC</w>": 41846,
  "By": 41426,
  "By</w>": 1170,
  "Byp": 44110,
  "Bz": 37249,
  "C": 447,
  "C-</w>": 17995,
  "C.": 9341,
  "C.</w>": 569,
  "C.I.</w>": 42194,
  "C0</w>": 14863,
  "C1": 11051,
  "C1</w>": 1078,
  "C1q</w>": 15596,
  "C2": 10150,
  "C2</w>": 1860,
  "C2A</w>": 44258,
  "C2B</w>": 43902,
  "C2C1</w>": 14023,
  "C3": 10850,
  "C3</w>": 2471,
  "C3H1</w>": 38255,
  "C3H</w>": 14830,
  "C3a</w>": 32498,
  "C3b</w>": 16901,
  "C3d</w>": 40949,
  "C4": 18509,
  "C4</w>": 3862,
  "C5": 16998,
  "C5</w>": 2098,
  "C5a</w>": 19806,
  "C5b</w>": 39054,
  "C6": 17608,
  "C6</w>": 4266,
  "C7": 38945,
  "C7</w>": 8249,
  "C8</w>": 7185,
  "C9": 43388,
  "C9</w>": 9023,
  "C9ORF7</w>": 42214,
  "C9orf7</w>": 34686,
  "C</w>": 91,
  "CA": 1439,
  "CA0</w>": 33074,
  "CA1</w>": 4810,
  "CA2</w>": 14359,
  "CA3</w>": 11374,
  "CA4</w>": 21097,
  "CA5</w>": 38778,
  "CA</w>": 890,
  "CAA</w>": 12691,
  "CAAC": 24222,
  "CAAG": 16792,
  "CAAT": 17665,
  "CAAX</w>": 39171,
  "CAB": 37367,
  "CAB</w>": 32346,
  "CABG</w>": 11349,
  "CAC": 6464,
  "CAC</w>": 11479,
  "CACNA": 32681,
  "CACT": 24992,
  "CAD</w>": 4741,
  "CAE</w>": 35513,
  "CAF1</w>": 39514,
  "CAF</w>": 15176,
  "CAFs</w>": 18506,
  "CAG</w>": 8520,
  "CAGCT": 38124,
  "CAGG": 14374,
  "CAGT": 14714,
  "CAH</w>": 25017,
  "CAI</w>": 33729,
  "CAL": 25113,
  "CAL</w>": 13170,
  "CALR</w>": 37100,
  "CAM1</w>": 38635,
  "CAM</w>": 6515,
  "CAMK": 43689,
  "CAMs</w>": 41110,
  "CAN</w>": 19452,
  "CANC": 43034,
  "CAP</w>": 7524,
  "CAPD</w>": 24547,
  "CAPE</w>": 39813,
  "CAPS</w>": 30248,
  "CAR": 12827,
  "CAR</w>": 5554,
  "CARD1</w>": 36015,
  "CARD</w>": 21679,
  "CARDI": 31343,
  "CARE</w>": 38466,
  "CARM1</w>": 35232,
  "CART</w>": 29830,
  "CARs</w>": 39502,
  "CAS": 41074,
  "CAS</w>": 10875,
  "CASE</w>": 8946,
  "CASES</w>": 38392,
  "CASP": 24444,
  "CAST</w>": 34306,
  "CAT": 5288,
  "CAT</w>": 5265,
  "CATION</w>": 39568,
  "CAU": 36075,
  "CAV1</w>": 35681,
  "CAV</w>": 33644,
  "CAs</w>": 25703,
  "CB": 4349,
  "CB1</w>": 9834,
  "CB1R</w>": 32763,
  "CB2</w>": 18948,
  "CB</w>": 5846,
  "CBA</w>": 18519,
  "CBC</w>": 29656,
  "CBCT</w>": 18251,
  "CBD</w>": 12465,
  "CBF": 40994,
  "CBF</w>": 10340,
  "CBG</w>": 40017,
  "CBL</w>": 27846,
  "CBM": 32626,
  "CBM</w>": 26909,
  "CBP</w>": 7838,
  "CBS</w>": 15172,
  "CBT</w>": 14031,
  "CBV</w>": 31992,
  "CBZ</w>": 24164,
  "CBs</w>": 33631,
  "CC": 2061,
  "CC1</w>": 15152,
  "CC2</w>": 16497,
  "CC3</w>": 21108,
  "CC4</w>": 33524,
  "CC5</w>": 32322,
  "CC</w>": 2666,
  "CCA": 7704,
  "CCA</w>": 9466,
  "CCAAT</w>": 23989,
  "CCAC": 14903,
  "CCAT": 13470,
  "CCC</w>": 13233,
  "CCCA": 36719,
  "CCCP</w>": 27950,
  "CCCT": 17267,
  "CCD": 29454,
  "CCD</w>": 10348,
  "CCG</w>": 21662,
  "CCGG": 34339,
  "CCGT": 35551,
  "CCI</w>": 19013,
  "CCK</w>": 9062,
  "CCL": 20196,
  "CCL1</w>": 23914,
  "CCL2</w>": 9917,
  "CCL3</w>": 38541,
  "CCL5</w>": 22422,
  "CCL</w>": 23986,
  "CCM</w>": 23357,
  "CCN": 18084,
  "CCN</w>": 31709,
  "CCND1</w>": 23827,
  "CCP4</w>": 42785,
  "CCP</w>": 22679,
  "CCR": 12365,
  "CCR1</w>": 43540,
  "CCR2</w>": 21763,
  "CCR4</w>": 31542,
  "CCR5</w>": 8573,
  "CCR7</w>": 26082,
  "CCR</w>": 27358,
  "CCS</w>": 18467,
  "CCSD</w>": 36726,
  "CCT": 5404,
  "CCT</w>": 11800,
  "CCl4</w>": 19912,
  "CCl</w>": 43324,
  "CCs</w>": 15912,
  "CD": 2656,
  "CD1</w>": 1537,
  "CD1d</w>": 32971,
  "CD2</w>": 2352,
  "CD3": 19411,
  "CD3</w>": 1874,
  "CD4": 24350,
  "CD4</w>": 838,
  "CD5</w>": 7158,
  "CD6</w>": 7544,
  "CD7</w>": 11275,
  "CD8": 41578,
  "CD8</w>": 1805,
  "CD9</w>": 8575,
  "CD</w>": 2011,
  "CDA</w>": 25899,
  "CDC2</w>": 15695,
  "CDC4</w>": 25602,
  "CDC</w>": 11244,
  "CDCl3</w>": 13167,
  "CDD</w>": 37292,
  "CDDP</w>": 13501,
  "CDE</w>": 31267,
  "CDF</w>": 36357,
  "CDG</w>": 40805,
  "CDH1</w>": 16853,
  "CDH</w>": 20027,
  "CDI</w>": 15163,
  "CDK": 18409,
  "CDK1</w>": 13452,
  "CDK2</w>": 13600,
  "CDK4</w>": 12131,
  "CDK5</w>": 26194,
  "CDK6</w>": 26503,
  "CDK8</w>": 39553,
  "CDK9</w>": 23038,
  "CDK</w>": 11253,
  "CDKN": 28836,
  "CDKN1A</w>": 33163,
  "CDKN2A</w>": 18175,
  "CDKs</w>": 25948,
  "CDP</w>": 20800,
  "CDR1</w>": 44252,
  "CDR3</w>": 27919,
  "CDR</w>": 17929,
  "CDS</w>": 17288,
  "CDT</w>": 28202,
  "CDV</w>": 31350,
  "CDX2</w>": 39272,
  "CDs</w>": 13749,
  "CE": 4279,
  "CE</w>": 4908,
  "CEA</w>": 8087,
  "CEAC": 39237,
  "CEACAM1</w>": 39304,
  "CEB": 45424,
  "CEBPA</w>": 39440,
  "CEC</w>": 29556,
  "CED</w>": 20541,
  "CEF</w>": 38779,
  "CEL": 39292,
  "CEL</w>": 34631,
  "CEM</w>": 18115,
  "CEN": 22429,
  "CEN</w>": 31331,
  "CENP</w>": 10019,
  "CENT</w>": 49822,
  "CENTRA": 48517,
  "CENTRAL</w>": 29698,
  "CEP1</w>": 42146,
  "CEP</w>": 23291,
  "CER": 23891,
  "CER</w>": 30602,
  "CES</w>": 17974,
  "CETP</w>": 29761,
  "CEUS</w>": 33099,
  "CEs</w>": 40156,
  "CF": 5009,
  "CF1</w>": 42001,
  "CF3</w>": 33805,
  "CF</w>": 3530,
  "CFA</w>": 14736,
  "CFC</w>": 29203,
  "CFD</w>": 38974,
  "CFDA</w>": 48348,
  "CFH</w>": 18846,
  "CFI</w>": 36815,
  "CFP</w>": 11704,
  "CFR</w>": 33430,
  "CFS</w>": 19727,
  "CFSE</w>": 29334,
  "CFTR</w>": 5035,
  "CFU</w>": 6318,
  "CFUs</w>": 43501,
  "CFs</w>": 31977,
  "CG": 3712,
  "CG1</w>": 38467,
  "CG</w>": 5926,
  "CGA</w>": 20706,
  "CGAC": 31840,
  "CGAG": 25491,
  "CGAT": 27990,
  "CGC</w>": 23909,
  "CGCT": 26300,
  "CGD</w>": 33478,
  "CGG": 9220,
  "CGG</w>": 20093,
  "CGGT": 34130,
  "CGH</w>": 19722,
  "CGI</w>": 25428,
  "CGM</w>": 42453,
  "CGP</w>": 30072,
  "CGRP</w>": 11754,
  "CGS</w>": 34761,
  "CGT": 9649,
  "CGT</w>": 32022,
  "CH": 2804,
  "CH1</w>": 16317,
  "CH2": 16362,
  "CH2</w>": 9667,
  "CH2Cl2</w>": 27333,
  "CH3": 20260,
  "CH3</w>": 10354,
  "CH3CN</w>": 42919,
  "CH4</w>": 19028,
  "CH5</w>": 41706,
  "CH</w>": 4004,
  "CHA</w>": 34041,
  "CHAPS</w>": 28875,
  "CHAR": 28005,
  "CHB</w>": 21141,
  "CHC": 20897,
  "CHC</w>": 20125,
  "CHCl3</w>": 33770,
  "CHD</w>": 6998,
  "CHE": 24704,
  "CHE</w>": 45077,
  "CHEK2</w>": 41267,
  "CHF</w>": 11427,
  "CHI": 14482,
  "CHI</w>": 31034,
  "CHIKV</w>": 15560,
  "CHILD": 39954,
  "CHIP</w>": 16263,
  "CHK1</w>": 23032,
  "CHK2</w>": 35158,
  "CHL</w>": 38862,
  "CHMP": 40135,
  "CHN</w>": 37721,
  "CHNO</w>": 41650,
  "CHO": 15320,
  "CHO</w>": 5312,
  "CHOP</w>": 10983,
  "CHR</w>": 34327,
  "CHRO": 40155,
  "CHS</w>": 21076,
  "CHT</w>": 43522,
  "CHX</w>": 15245,
  "CI": 3566,
  "CI</w>": 418,
  "CIA</w>": 24221,
  "CIC</w>": 23846,
  "CID</w>": 19575,
  "CIE</w>": 40119,
  "CII": 47924,
  "CII</w>": 29405,
  "CIITA</w>": 34408,
  "CIMP</w>": 24494,
  "CIMT</w>": 37140,
  "CIN": 13863,
  "CIN</w>": 11404,
  "CINAHL</w>": 21310,
  "CIP1</w>": 28604,
  "CIP2A</w>": 43702,
  "CIP</w>": 21504,
  "CIPA": 51007,
  "CIS</w>": 17105,
  "CIT</w>": 29176,
  "CIs</w>": 13272,
  "CJ</w>": 44373,
  "CJD</w>": 21577,
  "CK": 6996,
  "CK1": 37123,
  "CK1</w>": 14846,
  "CK2</w>": 9777,
  "CK2α</w>": 37677,
  "CK</w>": 5577,
  "CKD</w>": 6084,
  "CKII</w>": 34105,
  "CKO</w>": 28034,
  "CKS</w>": 46590,
  "CL": 2600,
  "CL1</w>": 15617,
  "CL2</w>": 19768,
  "CL3</w>": 35497,
  "CL</w>": 3892,
  "CLA</w>": 17183,
  "CLC</w>": 17146,
  "CLD</w>": 30352,
  "CLE</w>": 21394,
  "CLI</w>": 41668,
  "CLIN": 46053,
  "CLINICAL</w>": 9517,
  "CLIP</w>": 21654,
  "CLL</w>": 6485,
  "CLM</w>": 40011,
  "CLO": 44508,
  "CLOCK</w>": 28554,
  "CLP</w>": 17577,
  "CLR</w>": 32396,
  "CLS</w>": 22005,
  "CLSI</w>": 43690,
  "CLSM</w>": 38276,
  "CLU</w>": 39957,
  "CLUSI": 46856,
  "CLs</w>": 15164,
  "CM": 4701,
  "CM1</w>": 39227,
  "CM</w>": 3755,
  "CMA</w>": 19243,
  "CMC</w>": 16936,
  "CMD</w>": 32191,
  "CME</w>": 21127,
  "CMF</w>": 43860,
  "CMG</w>": 42628,
  "CMI</w>": 34400,
  "CML</w>": 6028,
  "CMML</w>": 39990,
  "CMOS</w>": 41778,
  "CMP</w>": 20402,
  "CMR</w>": 17773,
  "CMS</w>": 18206,
  "CMT": 25217,
  "CMT</w>": 21669,
  "CMV</w>": 4377,
  "CMs</w>": 15756,
  "CN": 3764,
  "CN0</w>": 49785,
  "CN</w>": 5247,
  "CNA</w>": 33915,
  "CNAs</w>": 35938,
  "CNB</w>": 38759,
  "CNC</w>": 32494,
  "CNG": 40406,
  "CNN</w>": 40666,
  "CNP</w>": 24215,
  "CNR</w>": 36580,
  "CNS</w>": 2608,
  "CNT</w>": 15996,
  "CNTF</w>": 28546,
  "CNTs</w>": 21458,
  "CNV</w>": 11190,
  "CNVs</w>": 16905,
  "CO": 2399,
  "CO2</w>": 2094,
  "CO3</w>": 18887,
  "CO</w>": 2344,
  "COC</w>": 39010,
  "COD</w>": 15464,
  "CODE</w>": 46029,
  "COG</w>": 30237,
  "COI</w>": 30067,
  "COL": 12803,
  "COL1</w>": 41683,
  "COL1A1</w>": 41602,
  "COL</w>": 35961,
  "COLL": 48282,
  "COLLECTION</w>": 26504,
  "COM": 12836,
  "COM</w>": 24458,
  "COMP</w>": 40265,
  "COMT</w>": 18840,
  "CON": 8114,
  "CON</w>": 15672,
  "CONCLUSI": 49113,
  "CONCLUSION</w>": 524,
  "CONCLUSIONS</w>": 387,
  "CONT": 31389,
  "CONTEXT</w>": 14477,
  "COOH</w>": 11179,
  "COP1</w>": 28533,
  "COP</w>": 21279,
  "COPD</w>": 4503,
  "COPI</w>": 37742,
  "COPII</w>": 33421,
  "COR": 27020,
  "COR</w>": 14759,
  "CORT</w>": 29567,
  "COS": 49615,
  "COS7</w>": 31931,
  "COS</w>": 8808,
  "COSMIC</w>": 38244,
  "COSY</w>": 42245,
  "COUP</w>": 42133,
  "COVA</w>": 42415,
  "COX2</w>": 29526,
  "COX</w>": 3997,
  "COs</w>": 41069,
  "CP": 5260,
  "CP1</w>": 15913,
  "CP2</w>": 27500,
  "CP</w>": 2781,
  "CPA</w>": 16281,
  "CPAP</w>": 14386,
  "CPB</w>": 13784,
  "CPC</w>": 18566,
  "CPD</w>": 19714,
  "CPE": 27524,
  "CPE</w>": 16143,
  "CPF</w>": 40940,
  "CPG</w>": 39000,
  "CPI</w>": 31344,
  "CPK</w>": 38014,
  "CPM</w>": 27297,
  "CPP</w>": 12916,
  "CPPs</w>": 42960,
  "CPR</w>": 11559,
  "CPS</w>": 20920,
  "CPT": 41075,
  "CPT</w>": 8335,
  "CPV</w>": 35119,
  "CPY</w>": 37954,
  "CPZ</w>": 39582,
  "CPs</w>": 18821,
  "CQ</w>": 13402,
  "CR": 2871,
  "CR1</w>": 15361,
  "CR2</w>": 20695,
  "CR3</w>": 25308,
  "CR8</w>": 40941,
  "CR</w>": 3720,
  "CRA": 16289,
  "CRA</w>": 38335,
  "CRAC</w>": 31261,
  "CRC</w>": 3089,
  "CRCs</w>": 24011,
  "CRD</w>": 20405,
  "CRE": 11533,
  "CRE</w>": 14190,
  "CREB</w>": 5750,
  "CRF0</w>": 35702,
  "CRF</w>": 8753,
  "CRH</w>": 14403,
  "CRI": 18803,
  "CRI</w>": 40284,
  "CRISPR</w>": 6361,
  "CRIT": 51216,
  "CRITERIA</w>": 24743,
  "CRL</w>": 17078,
  "CRM1</w>": 21013,
  "CRM</w>": 32048,
  "CRP": 44592,
  "CRP</w>": 4533,
  "CRPC</w>": 15590,
  "CRPS</w>": 43774,
  "CRS</w>": 15012,
  "CRT</w>": 8129,
  "CRY": 28422,
  "CRY2</w>": 41122,
  "CRs</w>": 19402,
  "CS": 4397,
  "CS1</w>": 32446,
  "CS2</w>": 22586,
  "CS</w>": 2831,
  "CSA</w>": 12123,
  "CSB</w>": 22158,
  "CSC</w>": 8928,
  "CSCs</w>": 8192,
  "CSD</w>": 21574,
  "CSE</w>": 19526,
  "CSF": 32757,
  "CSF</w>": 1863,
  "CSFV</w>": 39478,
  "CSI</w>": 33871,
  "CSL</w>": 33548,
  "CSM</w>": 30987,
  "CSN": 21854,
  "CSN</w>": 33166,
  "CSP": 25696,
  "CSP</w>": 18630,
  "CSR</w>": 20951,
  "CSS</w>": 19712,
  "CST</w>": 15509,
  "CSs</w>": 31407,
  "CT": 2029,
  "CT1</w>": 27778,
  "CT2</w>": 22445,
  "CT</w>": 767,
  "CTA</w>": 10927,
  "CTAB</w>": 36508,
  "CTB</w>": 33383,
  "CTC</w>": 8408,
  "CTCF</w>": 17153,
  "CTCL</w>": 35832,
  "CTCT": 15510,
  "CTCs</w>": 11717,
  "CTD</w>": 7151,
  "CTE</w>": 32737,
  "CTF</w>": 24900,
  "CTG</w>": 13435,
  "CTGF</w>": 17265,
  "CTGT": 43444,
  "CTI": 44459,
  "CTION</w>": 31753,
  "CTL": 26176,
  "CTL</w>": 7259,
  "CTLA4</w>": 24803,
  "CTLA</w>": 10529,
  "CTLs</w>": 16961,
  "CTNN": 47357,
  "CTNNB1</w>": 27128,
  "CTO</w>": 40324,
  "CTP</w>": 15970,
  "CTR</w>": 22687,
  "CTRL</w>": 41186,
  "CTS</w>": 19565,
  "CTT</w>": 18762,
  "CTTT": 35754,
  "CTV</w>": 31452,
  "CTX</w>": 11907,
  "CTZ</w>": 41028,
  "CTs</w>": 19819,
  "CU": 5569,
  "CU</w>": 17485,
  "CUG</w>": 38121,
  "CUL": 18949,
  "CUR</w>": 40607,
  "CUS</w>": 34594,
  "CV": 6991,
  "CV</w>": 5148,
  "CVB3</w>": 31794,
  "CVC</w>": 27231,
  "CVD</w>": 6031,
  "CVID</w>": 38181,
  "CVP</w>": 40724,
  "CVR</w>": 43742,
  "CVS</w>": 32791,
  "CVs</w>": 30270,
  "CW": 22378,
  "CW</w>": 16279,
  "CX": 9084,
  "CX3": 49732,
  "CX3CL1</w>": 40096,
  "CX3CR1</w>": 30054,
  "CX</w>": 19707,
  "CXC</w>": 31429,
  "CXCL": 24370,
  "CXCL1</w>": 6947,
  "CXCL8</w>": 26070,
  "CXCR": 29826,
  "CXCR1</w>": 39405,
  "CXCR2</w>": 23571,
  "CXCR3</w>": 25077,
  "CXCR4</w>": 6052,
  "CXCR7</w>": 32956,
  "CY": 5842,
  "CY</w>": 17452,
  "CYLD</w>": 29108,
  "CYP": 12948,
  "CYP1</w>": 11843,
  "CYP1A1</w>": 17738,
  "CYP1A2</w>": 23607,
  "CYP1B1</w>": 26051,
  "CYP2": 16524,
  "CYP2</w>": 18010,
  "CYP2A6</w>": 38806,
  "CYP2B6</w>": 28182,
  "CYP2C1</w>": 17360,
  "CYP2C9</w>": 18968,
  "CYP2D6</w>": 13324,
  "CYP2E1</w>": 22214,
  "CYP3": 44823,
  "CYP3A4</w>": 11333,
  "CYP3A5</w>": 27431,
  "CYP3A</w>": 25011,
  "CYP4": 41205,
  "CYP4</w>": 32654,
  "CYP5</w>": 31460,
  "CYP7</w>": 35351,
  "CYP</w>": 12113,
  "CYPs</w>": 33976,
  "CZ": 24426,
  "CZ</w>": 41600,
  "Ca": 2957,
  "Ca2</w>": 1833,
  "Ca</w>": 774,
  "CaCl2</w>": 7858,
  "CaM</w>": 6957,
  "CaMK": 19037,
  "CaMK</w>": 42550,
  "CaMKII": 36124,
  "CaMKII</w>": 8991,
  "CaMKIIα</w>": 39497,
  "CaN</w>": 43400,
  "CaP</w>": 17775,
  "CaSR</w>": 27576,
  "CaT</w>": 48908,
  "CaV1</w>": 23063,
  "CaV2</w>": 34246,
  "Cab": 27743,
  "Cac": 26618,
  "Caco</w>": 12239,
  "Cad": 29430,
  "Cadherin</w>": 35081,
  "Cadmium</w>": 34123,
  "Caenorhab": 50746,
  "Caenorhabditis</w>": 11848,
  "Caesarean</w>": 37348,
  "Caffe": 48079,
  "Caffeine</w>": 35471,
  "Cag": 45143,
  "CagA</w>": 27463,
  "Cai</w>": 34415,
  "Caj": 48939,
  "Cajal</w>": 32056,
  "Cal": 4751,
  "Cal</w>": 31369,
  "Calbiochem</w>": 12793,
  "Calc": 21689,
  "Calcium</w>": 10433,
  "Calcul": 46262,
  "Calculated</w>": 40840,
  "Calculation</w>": 34255,
  "Calculations</w>": 30722,
  "Cali": 46658,
  "Calibration</w>": 34870,
  "Calif</w>": 25991,
  "Califor": 48719,
  "California</w>": 6094,
  "Call": 32137,
  "Calmette</w>": 31843,
  "Calu</w>": 42345,
  "Cam": 11438,
  "Cam</w>": 29596,
  "Cambo": 47061,
  "Cambodia</w>": 40667,
  "Cambridge</w>": 9679,
  "Came": 46767,
  "Camel": 43455,
  "Camero": 48578,
  "Cameroon</w>": 31734,
  "Camp": 20862,
  "Campbell</w>": 36047,
  "Campylobacter</w>": 13646,
  "Can": 9544,
  "Can</w>": 10799,
  "Canada</w>": 5030,
  "Canadi": 45128,
  "Canadian</w>": 7705,
  "Cancer</w>": 1866,
  "Cancers</w>": 43987,
  "Candi": 28804,
  "Candida</w>": 5808,
  "Candidate</w>": 30982,
  "Canine</w>": 32852,
  "Cann": 45554,
  "Cannabis</w>": 40020,
  "Cant": 28845,
  "Cao</w>": 32773,
  "Cap": 6973,
  "Cap</w>": 24826,
  "Capacity</w>": 26490,
  "Cape</w>": 28173,
  "Capillary</w>": 30288,
  "Capture</w>": 36460,
  "Car": 4239,
  "Carb": 13189,
  "Carbo": 40545,
  "Carbohydrate</w>": 35951,
  "Carbon": 43516,
  "Carbon</w>": 14341,
  "Carcin": 20568,
  "Carcinoma</w>": 14894,
  "Cardi": 17116,
  "Cardiac</w>": 6786,
  "Cardio": 38171,
  "Cardiology</w>": 26111,
  "Cardiomy": 30353,
  "Cardiopulmonary</w>": 41195,
  "Cardiovascular</w>": 9811,
  "Care": 22576,
  "Care</w>": 3317,
  "Careful</w>": 23498,
  "Caregi": 44375,
  "Caregivers</w>": 38444,
  "Cari": 46854,
  "Carib": 49218,
  "Caribbean</w>": 21085,
  "Carl": 40910,
  "Carl</w>": 15548,
  "Carlo</w>": 9560,
  "Carlsbad</w>": 8099,
  "Caro": 27593,
  "Carolina</w>": 16598,
  "Carotid</w>": 22397,
  "Carr": 42222,
  "Cartilage</w>": 39470,
  "Cary</w>": 33312,
  "Cas": 7152,
  "Cas9</w>": 5833,
  "Cas</w>": 18136,
  "Case</w>": 4063,
  "Cases</w>": 10830,
  "Casp": 18829,
  "Caspase</w>": 10986,
  "Cast": 29716,
  "Cat": 9034,
  "Cat</w>": 9293,
  "Catal": 24955,
  "Catalytic</w>": 27433,
  "Catalyzed</w>": 37895,
  "Catar": 34632,
  "Cate": 33614,
  "Categ": 35930,
  "Category</w>": 42973,
  "Catenin</w>": 33266,
  "Cath": 23184,
  "Cathe": 45891,
  "Cathepsin</w>": 36076,
  "Catheter</w>": 31014,
  "Cauc": 46651,
  "Caucasi": 51343,
  "Caucasian</w>": 8295,
  "Caucasians</w>": 15359,
  "Caul": 38508,
  "Cause</w>": 34988,
  "Causes</w>": 26253,
  "Cav": 17239,
  "Cav1</w>": 17734,
  "Cav3</w>": 41386,
  "Cav</w>": 16403,
  "Cave": 36105,
  "Cay": 47596,
  "Cayman</w>": 33225,
  "Cb": 14004,
  "Cbl</w>": 10907,
  "Cc": 17175,
  "Ccr": 36335,
  "Cd": 7551,
  "Cd2</w>": 28670,
  "Cd</w>": 4882,
  "CdCl2</w>": 43983,
  "CdS</w>": 28013,
  "CdSe</w>": 33423,
  "CdTe</w>": 43634,
  "Cdc": 43560,
  "Cdc1</w>": 15138,
  "Cdc2</w>": 7606,
  "Cdc3</w>": 25372,
  "Cdc4</w>": 6204,
  "Cdc5</w>": 31699,
  "Cdc6</w>": 27114,
  "Cdc7</w>": 36577,
  "Cdh1</w>": 20642,
  "Cdk": 22664,
  "Cdk1</w>": 14911,
  "Cdk2</w>": 18276,
  "Cdk4</w>": 30585,
  "Cdk5</w>": 17229,
  "Cdk</w>": 25964,
  "Cdkn": 38234,
  "Cdt1</w>": 27883,
  "Ce": 11269,
  "Ce</w>": 20167,
  "CeO2</w>": 43155,
  "Ceb": 40230,
  "Cef": 29929,
  "Cel": 14257,
  "Cell": 13312,
  "Cell</w>": 1130,
  "CellTiter</w>": 33182,
  "Cells</w>": 1163,
  "Cellular</w>": 8614,
  "Cen": 26438,
  "Census</w>": 37852,
  "Cent": 25100,
  "Center</w>": 3144,
  "Centers</w>": 14452,
  "Centr": 27260,
  "Central</w>": 5631,
  "Centre</w>": 9803,
  "Centro": 37764,
  "Cep": 26658,
  "Cephal": 37610,
  "Cer": 7944,
  "Cer</w>": 17514,
  "Cerebellar</w>": 38811,
  "Cerebral</w>": 11431,
  "Cerebro": 44431,
  "Cerebrospinal</w>": 32688,
  "Certain</w>": 15453,
  "Cervical</w>": 14655,
  "Ces": 42049,
  "Cesarean</w>": 40398,
  "Cet": 30851,
  "Cf": 33254,
  "Cf</w>": 40781,
  "Cg": 21780,
  "Cg</w>": 39320,
  "CgA</w>": 41645,
  "Ch": 2054,
  "Ch3</w>": 43296,
  "Ch</w>": 21058,
  "ChAT</w>": 23214,
  "ChE</w>": 33903,
  "ChIP</w>": 3812,
  "ChR2</w>": 31602,
  "Cha": 11832,
  "Chag": 48817,
  "Chagas</w>": 19976,
  "Chain</w>": 25768,
  "Chal": 31115,
  "Challeng": 46442,
  "Challenge</w>": 40056,
  "Challenges</w>": 21861,
  "Chan</w>": 26998,
  "Chang": 35739,
  "Chang</w>": 17758,
  "Change</w>": 12454,
  "Changes</w>": 3861,
  "Changing</w>": 22432,
  "Channel</w>": 33344,
  "Chap": 24906,
  "Char": 14268,
  "Characteri": 23872,
  "Characteris": 49159,
  "Characteristic</w>": 30962,
  "Characteristics</w>": 11598,
  "Characterization</w>": 6061,
  "Charcot</w>": 28310,
  "Charg": 46125,
  "Charge</w>": 33596,
  "Charl": 50212,
  "Charles</w>": 18000,
  "Charlson</w>": 35999,
  "Che": 10633,
  "CheY</w>": 44151,
  "Check": 36521,
  "Check</w>": 43694,
  "Checklist</w>": 25102,
  "Chel": 28805,
  "Chem": 10291,
  "Chem</w>": 9291,
  "Chemical</w>": 6287,
  "Chemicals</w>": 18779,
  "Chemicon</w>": 25342,
  "Chemil": 44634,
  "Chemiluminescent</w>": 41497,
  "Chemistry</w>": 21963,
  "Chemo": 19529,
  "Chemotherapy</w>": 15317,
  "Chen</w>": 7204,
  "Cheng</w>": 23067,
  "Cher": 44789,
  "Cherno": 49408,
  "Chernobyl</w>": 42112,
  "Cherry</w>": 44983,
  "Chest</w>": 19285,
  "Chi": 7442,
  "Chi</w>": 11235,
  "Chiari</w>": 28442,
  "Chic": 44369,
  "Chicago</w>": 14554,
  "Chicken</w>": 39025,
  "Chil": 45266,
  "Child": 45517,
  "Child</w>": 9043,
  "Childhood</w>": 14885,
  "Children</w>": 3936,
  "Chile</w>": 22827,
  "Chilean</w>": 40188,
  "Chim": 28598,
  "Chimeric</w>": 39394,
  "Chin": 37474,
  "China</w>": 2110,
  "Chinese</w>": 2133,
  "Chip</w>": 20473,
  "Chiral</w>": 40634,
  "Chit": 45865,
  "Chitosan</w>": 38044,
  "Chk1</w>": 11138,
  "Chk2</w>": 18934,
  "Chl</w>": 22626,
  "Chlamy": 42569,
  "Chlamydia</w>": 13173,
  "Chlamydomonas</w>": 20640,
  "Chlo": 44632,
  "Chlor": 16287,
  "Chlorella</w>": 34754,
  "Chloro": 16095,
  "Cho": 15343,
  "Cho</w>": 19967,
  "Choi</w>": 29092,
  "Choice</w>": 31324,
  "Chol": 14793,
  "Chol</w>": 36150,
  "Cholesterol</w>": 17007,
  "Chondro": 28513,
  "Chou</w>": 42702,
  "Chr": 34590,
  "Chr</w>": 37908,
  "Chri": 46054,
  "Christ": 34573,
  "Christi": 45245,
  "Christian</w>": 37432,
  "Chro": 41279,
  "Chrom": 16526,
  "Chromat": 47518,
  "Chromatin</w>": 14537,
  "Chromatographic</w>": 37860,
  "Chromatography</w>": 29214,
  "Chromo": 39507,
  "Chromosomal</w>": 23784,
  "Chromosome</w>": 17826,
  "Chron": 40988,
  "Chronic</w>": 4135,
  "Chrys": 43958,
  "Chung</w>": 37846,
  "Chy": 40654,
  "Ci": 13026,
  "Ci</w>": 12327,
  "Cic": 36201,
  "Cigare": 49305,
  "Cigarette</w>": 30586,
  "Cim": 43105,
  "Cin": 37993,
  "Cincin": 52063,
  "Cincinnati</w>": 43303,
  "Cip1</w>": 23790,
  "Cir": 14350,
  "Circadian</w>": 29039,
  "Circular</w>": 26663,
  "Circulating</w>": 14996,
  "Circum": 40334,
  "Cis": 43329,
  "Cisplatin</w>": 22023,
  "Cit": 23006,
  "Citation</w>": 42490,
  "Citro": 50915,
  "Citrobacter</w>": 43711,
  "Citrus</w>": 34859,
  "City</w>": 6923,
  "Cl": 3724,
  "Cl-</w>": 12644,
  "Cl2</w>": 14005,
  "Cl3</w>": 21622,
  "Cl4</w>": 42742,
  "Cl</w>": 2946,
  "ClC</w>": 23553,
  "ClO</w>": 38949,
  "Cla": 13004,
  "ClaI</w>": 43591,
  "Clad": 40956,
  "Clar": 41357,
  "Clara</w>": 17528,
  "Clark</w>": 26709,
  "Clarke</w>": 43431,
  "Class</w>": 7129,
  "Classi": 34824,
  "Classic</w>": 39238,
  "Classical</w>": 27057,
  "Classification</w>": 10418,
  "Cle": 18436,
  "Clean</w>": 42822,
  "Clear": 28777,
  "Clear</w>": 26845,
  "Clearly</w>": 17803,
  "Cleavage</w>": 24145,
  "Cleveland</w>": 31553,
  "Cli": 36084,
  "Click</w>": 12812,
  "Clim": 45786,
  "Climate</w>": 31833,
  "Clin": 16424,
  "Clin</w>": 25721,
  "Clinic": 44422,
  "Clinic</w>": 10260,
  "Clinical": 45964,
  "Clinical</w>": 1402,
  "ClinicalTri": 48077,
  "ClinicalTrials.gov</w>": 15301,
  "Clinically</w>": 14360,
  "Clinicians</w>": 17783,
  "Clinico</w>": 39008,
  "Clinicopathological</w>": 40768,
  "Clo": 24510,
  "Clock</w>": 38769,
  "Clon": 23805,
  "Clonal</w>": 36377,
  "Clone</w>": 23879,
  "Clones</w>": 33916,
  "Cloning</w>": 15060,
  "Clontech</w>": 11581,
  "Clos": 23431,
  "Close</w>": 28059,
  "Closed</w>": 40262,
  "Clostri": 45494,
  "Clostridium</w>": 10087,
  "Clp": 15863,
  "ClpP</w>": 44223,
  "Clu": 25337,
  "Clus": 44123,
  "Clustal": 39867,
  "Cluster</w>": 14936,
  "Clustering</w>": 34011,
  "Clusters</w>": 36723,
  "Cm": 31853,
  "Cm</w>": 27083,
  "Cmax</w>": 16760,
  "Cn": 19388,
  "Co": 2097,
  "Co2</w>": 35206,
  "Co</w>": 2976,
  "CoA</w>": 3587,
  "CoCl2</w>": 37413,
  "CoQ1</w>": 29374,
  "CoR</w>": 33519,
  "CoV</w>": 11059,
  "Coast</w>": 37216,
  "Cob": 20172,
  "Cobb</w>": 32391,
  "Coc": 25103,
  "Cocaine</w>": 35006,
  "Coch": 34173,
  "Cochlear</w>": 42974,
  "Cochrane</w>": 7323,
  "Cock": 36513,
  "Cocktail</w>": 40143,
  "Cod": 39761,
  "Code</w>": 26717,
  "Coding</w>": 41131,
  "Coexpression</w>": 35872,
  "Cognitive</w>": 9403,
  "Coh": 45994,
  "Cohe": 28760,
  "Cohen</w>": 16596,
  "Cohort</w>": 12144,
  "Col": 4439,
  "Col</w>": 14744,
  "Cold</w>": 22325,
  "Cole": 49042,
  "Coleoptera</w>": 34902,
  "Coll": 15839,
  "Collabor": 46945,
  "Collaboration</w>": 28618,
  "Collaborative</w>": 22285,
  "Collagen</w>": 18984,
  "Colle": 33486,
  "Collection</w>": 10268,
  "Collectively</w>": 5324,
  "College</w>": 6914,
  "Collins</w>": 31464,
  "Colom": 34821,
  "Colombia</w>": 23915,
  "Colon": 26545,
  "Colon</w>": 28673,
  "Colonic</w>": 38880,
  "Colonies</w>": 27448,
  "Colony</w>": 31326,
  "Color": 48004,
  "Color</w>": 21711,
  "Colorado</w>": 24545,
  "Colorectal</w>": 16519,
  "Colum": 45486,
  "Columbia</w>": 15144,
  "Column</w>": 42730,
  "Com": 4495,
  "Coma</w>": 33152,
  "Combin": 45229,
  "Combination</w>": 11784,
  "Combinations</w>": 37685,
  "Combined</w>": 7406,
  "Combining</w>": 13635,
  "Comment</w>": 20327,
  "Commentary</w>": 22104,
  "Comments</w>": 32893,
  "Commer": 44733,
  "Commercial</w>": 33997,
  "Commission</w>": 16916,
  "Commit": 47185,
  "Committee</w>": 4787,
  "Committees</w>": 43418,
  "Common": 46008,
  "Common</w>": 10716,
  "Commonly</w>": 43245,
  "Commons</w>": 39363,
  "Commun": 29890,
  "Communication</w>": 20308,
  "Communities</w>": 36736,
  "Community</w>": 8873,
  "Comorbidity</w>": 38523,
  "Comp": 15951,
  "Company</w>": 22380,
  "Compar": 45148,
  "Comparable</w>": 31953,
  "Comparative</w>": 5953,
  "Compared</w>": 2491,
  "Comparing</w>": 11254,
  "Comparison</w>": 3100,
  "Comparisons</w>": 12704,
  "Compe": 23068,
  "Competi": 47580,
  "Competition</w>": 27714,
  "Competitive</w>": 34913,
  "Complem": 47088,
  "Complement</w>": 26644,
  "Complementary</w>": 23834,
  "Complementation</w>": 38161,
  "Complete</w>": 7011,
  "Complex": 37254,
  "Complex</w>": 8491,
  "Complexes</w>": 22245,
  "Compliance</w>": 30377,
  "Complications</w>": 11263,
  "Compo": 48294,
  "Compon": 51789,
  "Component</w>": 27018,
  "Components</w>": 32282,
  "Composite</w>": 24069,
  "Composition</w>": 31572,
  "Compound</w>": 9122,
  "Compounds</w>": 11688,
  "Compreh": 47168,
  "Comprehensive</w>": 13461,
  "Compression</w>": 43880,
  "Compu": 33107,
  "Comput": 45816,
  "Computational</w>": 16212,
  "Computed</w>": 12345,
  "Computer</w>": 13867,
  "Computerized</w>": 30647,
  "Con": 2996,
  "Con</w>": 13896,
  "ConA</w>": 29744,
  "Conc": 41945,
  "Concentr": 43415,
  "Concentration</w>": 19930,
  "Concentrations</w>": 13328,
  "Concep": 22602,
  "Concept</w>": 43240,
  "Concer": 39317,
  "Concerning</w>": 20554,
  "Concerns</w>": 38084,
  "Conclusion</w>": 6307,
  "Conclusions</w>": 6623,
  "Concomit": 50998,
  "Concomitant</w>": 22271,
  "Concomitantly</w>": 33707,
  "Concor": 31874,
  "Concurrent</w>": 23411,
  "Concurrently</w>": 42961,
  "Cond": 36807,
  "Condi": 32068,
  "Conditional</w>": 29433,
  "Conditioned</w>": 36164,
  "Conditions</w>": 19379,
  "Conduc": 29459,
  "Conf": 42779,
  "Conference</w>": 16778,
  "Confidence</w>": 30868,
  "Confir": 27438,
  "Confirmation</w>": 38325,
  "Conflic": 35623,
  "Conflict</w>": 27148,
  "Confocal</w>": 14174,
  "Conform": 48097,
  "Conformational</w>": 27874,
  "Cong": 44832,
  "Congenital</w>": 10457,
  "Congo</w>": 21615,
  "Congress</w>": 20110,
  "Conjug": 23284,
  "Conn": 15659,
  "Connec": 48133,
  "Connecticut</w>": 40390,
  "Consec": 49733,
  "Consecutive</w>": 24410,
  "Consensus</w>": 19518,
  "Consequences</w>": 40039,
  "Consequently</w>": 4994,
  "Conserv": 49313,
  "Conservation</w>": 36102,
  "Conservative</w>": 26621,
  "Conserved</w>": 39503,
  "Consi": 44731,
  "Consider": 49299,
  "Considerable</w>": 24229,
  "Consideration</w>": 37814,
  "Considerations</w>": 27476,
  "Considering</w>": 6448,
  "Consis": 46290,
  "Consistent</w>": 2809,
  "Consistently</w>": 11030,
  "Consortium</w>": 14393,
  "Constant</w>": 30263,
  "Constitu": 35045,
  "Constitutive</w>": 29917,
  "Construc": 32127,
  "Construction</w>": 19171,
  "Constructs</w>": 32028,
  "Consul": 27887,
  "Consum": 46875,
  "Consumer</w>": 44193,
  "Consumption</w>": 27745,
  "Cont": 22887,
  "Contact</w>": 20529,
  "Containing</w>": 41228,
  "Contemporary</w>": 37273,
  "Content</w>": 23302,
  "Context</w>": 35552,
  "Contin": 23922,
  "Continued</w>": 29779,
  "Continuing</w>": 35841,
  "Continuous</w>": 11351,
  "Contr": 23949,
  "Contrac": 41573,
  "Contrary</w>": 14505,
  "Contras": 42040,
  "Contrast</w>": 19086,
  "Contribu": 43530,
  "Contribution</w>": 16955,
  "Contributions</w>": 40441,
  "Contro": 46075,
  "Control</w>": 3502,
  "Controlled</w>": 10376,
  "Controlling</w>": 25957,
  "Controls</w>": 19776,
  "Controver": 32989,
  "Conventional</w>": 13343,
  "Conver": 24529,
  "Conversely</w>": 4427,
  "Conversion</w>": 23617,
  "Cook</w>": 39070,
  "Coom": 46173,
  "Coomassie</w>": 13066,
  "Cooper</w>": 31892,
  "Cooperative</w>": 20505,
  "Coord": 28026,
  "Coordination</w>": 37236,
  "Coot</w>": 41827,
  "Cop": 17711,
  "Copenh": 50417,
  "Copenhagen</w>": 31292,
  "Coping</w>": 33167,
  "Copper</w>": 20604,
  "Copy": 50241,
  "Copy</w>": 36529,
  "Copyright</w>": 22960,
  "Cor": 5853,
  "Cor</w>": 29371,
  "Cord": 43276,
  "Cord</w>": 28104,
  "Core</w>": 9324,
  "Corneal</w>": 24076,
  "Cornell</w>": 42346,
  "Corning</w>": 15559,
  "Coron": 37080,
  "Coronary</w>": 9994,
  "Corp.</w>": 15331,
  "Corp</w>": 41583,
  "Corporation</w>": 13015,
  "Correc": 30543,
  "Correct</w>": 34175,
  "Correction</w>": 14225,
  "Correlates</w>": 40425,
  "Correlation</w>": 8850,
  "Correlations</w>": 17163,
  "Correspon": 44066,
  "Corresponding</w>": 28619,
  "Correspondingly</w>": 30045,
  "Corri": 49380,
  "Corrigen": 50899,
  "Corrigendum</w>": 32514,
  "Cortex</w>": 44161,
  "Corti</w>": 41070,
  "Cortic": 21697,
  "Cortical</w>": 19288,
  "Cortisol</w>": 38859,
  "Coryne": 49135,
  "Corynebacterium</w>": 24534,
  "Cos": 16786,
  "Cos</w>": 43792,
  "Cost</w>": 13516,
  "Costa</w>": 26960,
  "Costar</w>": 40995,
  "Costs</w>": 27890,
  "Cot": 22657,
  "Cou": 33730,
  "Coul": 47832,
  "Could</w>": 42347,
  "Coulom": 46315,
  "Coulomb</w>": 36120,
  "Coulter</w>": 15426,
  "Coun": 14449,
  "Council</w>": 10159,
  "Counsel": 41714,
  "Counter</w>": 35696,
  "Counting</w>": 36952,
  "County</w>": 13668,
  "Coupled</w>": 28401,
  "Coupling</w>": 28227,
  "Cour": 38877,
  "Course</w>": 36282,
  "Court</w>": 35293,
  "Covalent</w>": 43382,
  "Covance</w>": 28355,
  "Cover": 37454,
  "Coverslips</w>": 31399,
  "Cow": 28429,
  "Cox": 18157,
  "Cox1</w>": 42284,
  "Cox</w>": 4716,
  "Coy</w>": 49435,
  "Cp": 8608,
  "Cp</w>": 15277,
  "CpG</w>": 4868,
  "CpGs</w>": 29764,
  "Cr": 5047,
  "Cr</w>": 5276,
  "Cra": 22681,
  "Cran": 39831,
  "Cranial</w>": 40714,
  "Cre": 8762,
  "Cre</w>": 3433,
  "CreER</w>": 32821,
  "Creative</w>": 35157,
  "Creutz": 50318,
  "Creutzfeldt</w>": 35191,
  "Cri": 12887,
  "Crick</w>": 32284,
  "Criteria</w>": 14947,
  "Critical</w>": 12690,
  "Critically</w>": 35553,
  "Crk": 37544,
  "Crk</w>": 32998,
  "Cro": 15550,
  "Croati": 45520,
  "Croatia</w>": 38308,
  "Crohn</w>": 7246,
  "Cron": 47389,
  "Cronbach</w>": 18525,
  "Cros": 23629,
  "Cross": 35297,
  "Cross</w>": 6265,
  "CrossRef</w>": 23388,
  "Crow": 39680,
  "Cru": 42267,
  "Cruc": 32957,
  "Crude</w>": 29591,
  "Cruz</w>": 3409,
  "Cry": 10680,
  "Cry1": 34919,
  "Cryp": 24556,
  "Cryptococcus</w>": 23132,
  "Cryptospor": 48784,
  "Cryptosporidium</w>": 20425,
  "Cryst": 44726,
  "Crystal</w>": 14623,
  "Crystall": 45710,
  "Crystallization</w>": 32168,
  "Crystallographic</w>": 43885,
  "Crystals</w>": 18812,
  "Cs": 9830,
  "Cs</w>": 2841,
  "CsA</w>": 9307,
  "CsCl</w>": 31652,
  "Cse": 40800,
  "Csk</w>": 31100,
  "Ct": 10491,
  "Ct</w>": 12755,
  "CtBP</w>": 34449,
  "CtIP</w>": 27605,
  "Ctr": 28041,
  "Ctrl</w>": 28393,
  "Cu": 5167,
  "Cu2</w>": 21729,
  "Cu</w>": 2704,
  "CuO</w>": 30478,
  "CuSO4</w>": 41518,
  "Cub": 37317,
  "Cuc": 28856,
  "Cul": 10744,
  "Cul3</w>": 42195,
  "Culex</w>": 27641,
  "Cullin</w>": 40866,
  "Culti": 41289,
  "Cultural</w>": 34373,
  "Culture</w>": 7559,
  "Cultured</w>": 21449,
  "Cultures</w>": 14066,
  "Cum": 38010,
  "Cumulative</w>": 21341,
  "Cun": 41174,
  "Cur": 8607,
  "Curcumin</w>": 24138,
  "Curiously</w>": 43160,
  "Current</w>": 4104,
  "Currently</w>": 6207,
  "Cus": 40319,
  "Cushing</w>": 17737,
  "Cut": 24073,
  "Cut</w>": 43635,
  "Cutaneous</w>": 17558,
  "Cv": 41165,
  "Cw": 40871,
  "Cx": 13807,
  "Cx2</w>": 33606,
  "Cx3</w>": 22121,
  "Cx4</w>": 9241,
  "Cx</w>": 34634,
  "Cy": 5001,
  "Cy3</w>": 15073,
  "Cy5</w>": 15217,
  "Cy7</w>": 40157,
  "Cy</w>": 28416,
  "CyA</w>": 38093,
  "Cyan": 30335,
  "Cyber": 38413,
  "Cyc": 20256,
  "Cycl": 16216,
  "Cycle</w>": 21896,
  "Cycler</w>": 33414,
  "Cyclic</w>": 19472,
  "Cyclin</w>": 10145,
  "Cyclo": 17248,
  "Cyclos": 26752,
  "Cyp": 10131,
  "CypA</w>": 26930,
  "Cys": 11325,
  "Cys1</w>": 19458,
  "Cys2</w>": 26506,
  "Cys3</w>": 33584,
  "Cys4</w>": 41896,
  "Cys</w>": 4113,
  "Cyst": 29372,
  "Cyste": 47419,
  "Cysteine</w>": 31893,
  "Cystic</w>": 21692,
  "Cyt": 13525,
  "Cyt</w>": 25894,
  "Cyto": 12850,
  "Cytochrome</w>": 21168,
  "Cytogenetic</w>": 29361,
  "Cytokine</w>": 21457,
  "Cytokines</w>": 27693,
  "Cytom": 29335,
  "Cytomegalovirus</w>": 36607,
  "Cytometry</w>": 40687,
  "Cytoplasmic</w>": 23145,
  "Cytos": 30731,
  "Cytosk": 37869,
  "Cytosolic</w>": 36199,
  "Cytotox": 49797,
  "Cytotoxic</w>": 26898,
  "Cytotoxicity</w>": 23231,
  "Cz": 29822,
  "Czech</w>": 21361,
  "Cα</w>": 14496,
  "Cβ</w>": 41584,
  "D": 334,
  "D-</w>": 18604,
  "D.": 12052,
  "D.</w>": 3139,
  "D0</w>": 14608,
  "D1": 23111,
  "D1</w>": 1248,
  "D1R</w>": 41223,
  "D2": 21768,
  "D2</w>": 2020,
  "D2O</w>": 20889,
  "D2R</w>": 27613,
  "D3": 32958,
  "D3</w>": 2944,
  "D4": 38751,
  "D4</w>": 5191,
  "D5</w>": 7124,
  "D6</w>": 8365,
  "D7</w>": 10428,
  "D8</w>": 9353,
  "D9</w>": 11430,
  "D</w>": 251,
  "DA": 9033,
  "DA</w>": 2476,
  "DAA</w>": 30479,
  "DAAs</w>": 43843,
  "DAB": 43435,
  "DAB</w>": 17644,
  "DAC": 42613,
  "DAC</w>": 26945,
  "DAD</w>": 27308,
  "DAF</w>": 15833,
  "DAG</w>": 14099,
  "DAI</w>": 29717,
  "DAKO</w>": 31376,
  "DAM": 45113,
  "DAMGO</w>": 40631,
  "DAMPs</w>": 37098,
  "DAP": 21133,
  "DAP1</w>": 39195,
  "DAP</w>": 18437,
  "DAPI</w>": 6984,
  "DAPK</w>": 44246,
  "DAPT</w>": 28409,
  "DARPP</w>": 41405,
  "DAS2</w>": 37884,
  "DAS</w>": 19852,
  "DASH</w>": 29485,
  "DAT</w>": 10814,
  "DATA</w>": 8244,
  "DAV": 45633,
  "DAVID</w>": 30686,
  "DAXX</w>": 43914,
  "DB": 11600,
  "DB1</w>": 38692,
  "DB</w>": 10966,
  "DBA</w>": 14904,
  "DBD</w>": 11623,
  "DBH</w>": 39080,
  "DBP</w>": 11034,
  "DBS</w>": 13734,
  "DBT</w>": 28445,
  "DC": 42599,
  "DC1</w>": 22317,
  "DC3</w>": 32551,
  "DC</w>": 2794,
  "DCA</w>": 19634,
  "DCC</w>": 20994,
  "DCD</w>": 32237,
  "DCE</w>": 23141,
  "DCF</w>": 29937,
  "DCFDA</w>": 42846,
  "DCIS</w>": 18006,
  "DCM</w>": 11381,
  "DCP</w>": 32231,
  "DCR</w>": 30366,
  "DCS</w>": 28884,
  "DCT</w>": 33457,
  "DCV</w>": 42322,
  "DCX</w>": 34242,
  "DCs</w>": 4067,
  "DD": 6288,
  "DD1</w>": 38274,
  "DD</w>": 5523,
  "DDB1</w>": 30635,
  "DDB2</w>": 37586,
  "DDC</w>": 43536,
  "DDD</w>": 24102,
  "DDE</w>": 30628,
  "DDI</w>": 39367,
  "DDK</w>": 32219,
  "DDM</w>": 34608,
  "DDP</w>": 20810,
  "DDR1</w>": 36585,
  "DDR2</w>": 43101,
  "DDR</w>": 11523,
  "DDS</w>": 29390,
  "DDT</w>": 17236,
  "DDX3</w>": 37862,
  "DE": 3238,
  "DE3</w>": 10753,
  "DE</w>": 5586,
  "DEA</w>": 31155,
  "DEAD</w>": 31064,
  "DEAE</w>": 19182,
  "DEB</w>": 36783,
  "DEC</w>": 33618,
  "DED</w>": 34993,
  "DEF</w>": 31919,
  "DEG</w>": 39349,
  "DEGs</w>": 11562,
  "DEHP</w>": 28620,
  "DEK</w>": 41234,
  "DEL</w>": 27120,
  "DEN": 16742,
  "DEN</w>": 23155,
  "DENCE</w>": 47904,
  "DENV</w>": 8779,
  "DEP</w>": 20043,
  "DER</w>": 33035,
  "DES</w>": 12061,
  "DESCRI": 50213,
  "DESCRIPTION</w>": 38927,
  "DESIGN</w>": 1879,
  "DET": 28317,
  "DEVD</w>": 36064,
  "DEVELO": 43592,
  "DEX": 37710,
  "DEX</w>": 13028,
  "DEs</w>": 42305,
  "DF": 7353,
  "DF</w>": 10013,
  "DFG</w>": 29040,
  "DFMO</w>": 39493,
  "DFO</w>": 29859,
  "DFP</w>": 43980,
  "DFS</w>": 11727,
  "DFT</w>": 8864,
  "DG": 13877,
  "DG</w>": 8294,
  "DGE</w>": 42679,
  "DGF</w>": 45612,
  "DGGE</w>": 34775,
  "DGK": 33808,
  "DH": 7066,
  "DH5α</w>": 28128,
  "DH</w>": 6446,
  "DHA</w>": 8780,
  "DHC</w>": 38198,
  "DHE": 47734,
  "DHE</w>": 40886,
  "DHEA</w>": 15746,
  "DHEAS</w>": 36695,
  "DHF</w>": 31732,
  "DHFR</w>": 13484,
  "DHHC": 42808,
  "DHP</w>": 34485,
  "DHPG</w>": 38658,
  "DHS</w>": 28743,
  "DHT</w>": 12672,
  "DI": 3377,
  "DI</w>": 7872,
  "DIA</w>": 39869,
  "DIAB": 43106,
  "DIAG": 50510,
  "DIAGNO": 45547,
  "DIAGNOSIS</w>": 36744,
  "DIC": 25806,
  "DIC</w>": 15103,
  "DIDS</w>": 38934,
  "DIF": 37921,
  "DIF</w>": 36185,
  "DIG</w>": 31390,
  "DII</w>": 41444,
  "DIII</w>": 39471,
  "DIM</w>": 26395,
  "DIN": 45927,
  "DING</w>": 45345,
  "DINGS</w>": 50319,
  "DIO</w>": 33856,
  "DIP</w>": 30020,
  "DIS</w>": 30097,
  "DISC": 46325,
  "DISC1</w>": 27789,
  "DISC</w>": 36749,
  "DISCUS": 49894,
  "DISCUSSION</w>": 6525,
  "DISE": 45444,
  "DISEASE</w>": 36903,
  "DIT</w>": 39159,
  "DIV</w>": 18868,
  "DIs</w>": 30059,
  "DJ</w>": 13684,
  "DK": 15835,
  "DK</w>": 32437,
  "DKA</w>": 43787,
  "DKK1</w>": 35357,
  "DKO</w>": 16593,
  "DL": 4721,
  "DL</w>": 10398,
  "DLB</w>": 26162,
  "DLBCL</w>": 11366,
  "DLD</w>": 28020,
  "DLPFC</w>": 37754,
  "DLS</w>": 20996,
  "DLT</w>": 30835,
  "DM": 5439,
  "DM1</w>": 17158,
  "DM2</w>": 30670,
  "DM</w>": 3683,
  "DMA</w>": 24551,
  "DMARDs</w>": 41222,
  "DMBA</w>": 21335,
  "DMC</w>": 37966,
  "DMD</w>": 15283,
  "DME</w>": 24773,
  "DMEM</w>": 3392,
  "DMF</w>": 14466,
  "DMH</w>": 36519,
  "DMI</w>": 28291,
  "DMN</w>": 27469,
  "DMP</w>": 41852,
  "DMPC</w>": 35984,
  "DMR</w>": 39508,
  "DMRs</w>": 40597,
  "DMS": 43599,
  "DMS</w>": 26323,
  "DMSA</w>": 43268,
  "DMSO</w>": 3260,
  "DMT1</w>": 43085,
  "DMT</w>": 44024,
  "DN": 4518,
  "DN1</w>": 28690,
  "DN</w>": 6690,
  "DNA": 15611,
  "DNA</w>": 122,
  "DNAJ": 35698,
  "DNAs</w>": 10321,
  "DNAse</w>": 41101,
  "DNMT": 26020,
  "DNMT1</w>": 15668,
  "DNMT3A</w>": 22087,
  "DNMT3B</w>": 38289,
  "DNMT</w>": 34874,
  "DNP</w>": 17976,
  "DNR</w>": 31153,
  "DNase</w>": 7851,
  "DNs</w>": 46848,
  "DO": 4411,
  "DO1</w>": 46657,
  "DO</w>": 11345,
  "DOC</w>": 17993,
  "DOCA</w>": 36988,
  "DOI</w>": 19917,
  "DOM</w>": 25083,
  "DON</w>": 21300,
  "DOPA</w>": 15180,
  "DOPAC</w>": 36761,
  "DOPC</w>": 40498,
  "DOR</w>": 23255,
  "DOT</w>": 26726,
  "DOTA</w>": 29653,
  "DOX</w>": 7844,
  "DP": 10806,
  "DP1</w>": 35794,
  "DP</w>": 5207,
  "DPA</w>": 29158,
  "DPAT</w>": 30358,
  "DPBS</w>": 35845,
  "DPC</w>": 30253,
  "DPD</w>": 30988,
  "DPH</w>": 40475,
  "DPI</w>": 23523,
  "DPN</w>": 35194,
  "DPO": 39071,
  "DPP": 22764,
  "DPP</w>": 18904,
  "DPPC</w>": 28608,
  "DPPH</w>": 21732,
  "DQ": 17052,
  "DQ</w>": 18557,
  "DQA1</w>": 40743,
  "DQB1</w>": 24739,
  "DR": 5368,
  "DR.</w>": 40568,
  "DR1</w>": 25471,
  "DR2</w>": 39066,
  "DR3</w>": 28473,
  "DR4</w>": 20154,
  "DR5</w>": 17433,
  "DR</w>": 4210,
  "DRA": 40029,
  "DRA</w>": 40585,
  "DRB1</w>": 14839,
  "DRB</w>": 37370,
  "DRC</w>": 36431,
  "DRD2</w>": 41445,
  "DRE": 20768,
  "DRE</w>": 27473,
  "DREAM</w>": 43177,
  "DRF</w>": 41651,
  "DRG</w>": 9743,
  "DRGs</w>": 35273,
  "DRM</w>": 36859,
  "DRO": 31056,
  "DRP1</w>": 41772,
  "DRS</w>": 30922,
  "DS": 7148,
  "DS</w>": 3375,
  "DSA</w>": 18791,
  "DSB</w>": 6397,
  "DSBs</w>": 6826,
  "DSC</w>": 16440,
  "DSE</w>": 43898,
  "DSF</w>": 34670,
  "DSM</w>": 7892,
  "DSP</w>": 27004,
  "DSS</w>": 12068,
  "DST</w>": 28833,
  "DT": 6749,
  "DT4</w>": 29332,
  "DT</w>": 9149,
  "DTA</w>": 35931,
  "DTC</w>": 20742,
  "DTG</w>": 38735,
  "DTH</w>": 30698,
  "DTI</w>": 18340,
  "DTPA</w>": 15868,
  "DTT</w>": 4860,
  "DTX</w>": 34715,
  "DTs</w>": 33259,
  "DU": 6245,
  "DU1</w>": 16835,
  "DU</w>": 19299,
  "DUB</w>": 25494,
  "DUBs</w>": 29586,
  "DUSP1</w>": 39550,
  "DV": 21525,
  "DV</w>": 11173,
  "DVT</w>": 14583,
  "DW": 32009,
  "DW</w>": 20605,
  "DWI</w>": 17424,
  "DX": 15859,
  "DX</w>": 25411,
  "DXA</w>": 20230,
  "DXR</w>": 39996,
  "DY": 11241,
  "DY</w>": 33904,
  "DYRK": 48680,
  "DYRK1A</w>": 38177,
  "DZ": 41081,
  "DZ</w>": 32332,
  "Da": 12410,
  "Da</w>": 8449,
  "Dac": 31854,
  "Dahl</w>": 44276,
  "Daily</w>": 14412,
  "Dak": 31737,
  "Dako</w>": 16968,
  "Dal": 17943,
  "Dallas</w>": 27766,
  "Dam": 21826,
  "Damage</w>": 24862,
  "Dan": 18147,
  "Dani": 34433,
  "Danio</w>": 33355,
  "Danish</w>": 12511,
  "Danvers</w>": 18889,
  "Dap": 39101,
  "Daph": 48836,
  "Daphnia</w>": 35418,
  "Dar": 17610,
  "Darby</w>": 36003,
  "Dark</w>": 39622,
  "Darmstadt</w>": 26152,
  "Das": 29345,
  "Dat": 32330,
  "Data</w>": 1140,
  "Datab": 44428,
  "Database</w>": 7694,
  "Datas": 46565,
  "Dataset</w>": 27839,
  "Dav": 46435,
  "Davi": 48537,
  "David</w>": 21540,
  "Davies</w>": 39359,
  "Davis</w>": 20431,
  "Daw": 42173,
  "Dawley</w>": 7645,
  "Dax": 48382,
  "Daxx</w>": 30527,
  "Day</w>": 7090,
  "Days</w>": 20321,
  "Db": 18977,
  "Dc": 21400,
  "Dd": 24963,
  "De": 2568,
  "De</w>": 10882,
  "Dead</w>": 37891,
  "Death</w>": 13294,
  "Deb": 38721,
  "Dec": 7890,
  "December</w>": 3784,
  "Decision</w>": 22139,
  "Declaration</w>": 21033,
  "Decom": 34273,
  "Decre": 49634,
  "Decrease</w>": 35419,
  "Decreased</w>": 12694,
  "Decreases</w>": 41305,
  "Decreasing</w>": 38512,
  "Dectin</w>": 31391,
  "Deep</w>": 15727,
  "Def": 14526,
  "Defective</w>": 35213,
  "Defects</w>": 21331,
  "Defense</w>": 35443,
  "Deficiency</w>": 24809,
  "Defin": 22850,
  "Defining</w>": 28045,
  "Deg": 24414,
  "Degradation</w>": 20282,
  "Del": 9230,
  "Del</w>": 26996,
  "Delay</w>": 43157,
  "Delayed</w>": 16152,
  "Dele": 47496,
  "Deletion</w>": 9608,
  "Deletions</w>": 44135,
  "Delhi</w>": 37313,
  "Deli": 26422,
  "Delivery</w>": 20368,
  "Delphi</w>": 27263,
  "Delta": 9214,
  "Delta</w>": 10661,
  "Dem": 15974,
  "Dementia</w>": 21066,
  "Demographic</w>": 13388,
  "Demographics</w>": 42380,
  "Demon": 45753,
  "Demonstration</w>": 27534,
  "Den": 14236,
  "Dend": 26200,
  "Dendritic</w>": 23201,
  "Deng</w>": 40144,
  "Dengue</w>": 26413,
  "Denmark</w>": 11837,
  "Densit": 29617,
  "Density</w>": 17816,
  "Dental</w>": 10741,
  "Denti": 41053,
  "Dentistry</w>": 35090,
  "Denver</w>": 39800,
  "Deoxy": 35279,
  "Dep": 13770,
  "Depar": 48201,
  "Department</w>": 4710,
  "Depend": 47292,
  "Dependence</w>": 33597,
  "Dependent</w>": 23838,
  "Depending</w>": 13852,
  "Depletion</w>": 15465,
  "Deposition</w>": 44194,
  "Depression</w>": 7276,
  "Depressive</w>": 25500,
  "Der": 14119,
  "Der</w>": 28815,
  "Deri": 46237,
  "Deriv": 45910,
  "Derivatives</w>": 36148,
  "Derived</w>": 26211,
  "Derm": 37332,
  "Dermat": 20198,
  "Dermatology</w>": 36664,
  "Des": 8092,
  "Desc": 37659,
  "Descrip": 46332,
  "Description</w>": 28479,
  "Descriptive</w>": 16101,
  "Design": 31098,
  "Design</w>": 9328,
  "Despite</w>": 1617,
  "Det": 38109,
  "Detailed</w>": 11172,
  "Details</w>": 18612,
  "Detec": 25460,
  "Detecting</w>": 37679,
  "Detection</w>": 4983,
  "Determin": 41539,
  "Determinants</w>": 26923,
  "Determination</w>": 7588,
  "Determining</w>": 23090,
  "Deutsch": 38871,
  "Dev": 27925,
  "Dev</w>": 32187,
  "Develop": 33345,
  "Developing</w>": 17491,
  "Development</w>": 3974,
  "Developmental</w>": 12446,
  "Devi": 40953,
  "Device</w>": 25382,
  "Devices</w>": 14251,
  "Dex": 26686,
  "Dex</w>": 15044,
  "Dexam": 50736,
  "Dexamethasone</w>": 27906,
  "Dextr": 43668,
  "Df</w>": 31608,
  "Dh": 23740,
  "Dhar": 45571,
  "Dharmac": 50868,
  "Dharmacon</w>": 20087,
  "Di": 2657,
  "Di</w>": 18808,
  "DiI</w>": 39821,
  "Diab": 46666,
  "Diabetes</w>": 6741,
  "Diabetic</w>": 14499,
  "Diag": 46374,
  "Diagnos": 23991,
  "Diagnosis</w>": 6458,
  "Diagnostic</w>": 6679,
  "Diagnostics</w>": 13596,
  "Dialysis</w>": 31370,
  "Diam": 47587,
  "Diamond</w>": 31733,
  "Diarr": 37873,
  "Dic": 15724,
  "Dicer</w>": 20005,
  "Dich": 32026,
  "Dickinson</w>": 14953,
  "Dicty": 47269,
  "Dictyostelium</w>": 18435,
  "Die": 36983,
  "Diego</w>": 7905,
  "Diels</w>": 35252,
  "Diet</w>": 15766,
  "Dietary</w>": 10059,
  "Diets</w>": 43494,
  "Dif": 47984,
  "Difco</w>": 38369,
  "Diff": 34744,
  "Differen": 25223,
  "Difference</w>": 29434,
  "Differences</w>": 5352,
  "Different</w>": 5280,
  "Differential</w>": 7160,
  "Differentially</w>": 33424,
  "Differentiation</w>": 16418,
  "Diffic": 51041,
  "Difficul": 44158,
  "Difficulties</w>": 35266,
  "Diffraction</w>": 33043,
  "Diffuse</w>": 24392,
  "Diffusion</w>": 20512,
  "Dig": 12486,
  "Digestion</w>": 39897,
  "Digital</w>": 15469,
  "Dihydro": 40950,
  "Dil": 17362,
  "Dim": 12662,
  "Dimensi": 49102,
  "Dimensional</w>": 32431,
  "Dimethyl": 42306,
  "Din": 22629,
  "Ding</w>": 40428,
  "Dip": 26558,
  "Diptera</w>": 22062,
  "Direc": 15739,
  "Direct</w>": 6379,
  "Directed</w>": 23397,
  "Directive</w>": 38991,
  "Dis": 4100,
  "Disabilities</w>": 44199,
  "Disability</w>": 15979,
  "Discharge</w>": 37583,
  "Disco": 44880,
  "Discovery</w>": 14581,
  "Discre": 26917,
  "Discrimin": 35255,
  "Discrimination</w>": 35429,
  "Discus": 44900,
  "Discussion</w>": 10704,
  "Disease</w>": 3620,
  "Diseases</w>": 9801,
  "Disorder</w>": 13794,
  "Disorders</w>": 11364,
  "Disper": 38248,
  "Disrup": 34087,
  "Disruption</w>": 15819,
  "Dissection</w>": 40337,
  "Dissemin": 46298,
  "Disseminated</w>": 39059,
  "Dissoci": 41543,
  "Dissociation</w>": 30172,
  "Dist": 30303,
  "Distal</w>": 27781,
  "Distance</w>": 37483,
  "Distinc": 45210,
  "Distinct</w>": 19601,
  "Distingu": 40586,
  "Distr": 45131,
  "Distress</w>": 37688,
  "Distribu": 44332,
  "Distribution</w>": 12480,
  "District</w>": 18603,
  "Disturb": 36595,
  "Diver": 26268,
  "Diverse</w>": 35131,
  "Diversity</w>": 25722,
  "Division</w>": 19405,
  "Dixon</w>": 42676,
  "Dk": 22690,
  "Dl": 15175,
  "Dll": 35210,
  "Dm": 20587,
  "Dn": 23562,
  "Dna": 22211,
  "Dna2</w>": 41455,
  "DnaA</w>": 26447,
  "DnaB</w>": 36423,
  "DnaJ</w>": 39428,
  "DnaK</w>": 26596,
  "Dnmt": 34243,
  "Dnmt1</w>": 35592,
  "Dnmt3a</w>": 36079,
  "Do": 10810,
  "Do</w>": 11390,
  "Dob": 41302,
  "Doc": 21194,
  "Doc</w>": 29993,
  "Dock": 35571,
  "Dock</w>": 32520,
  "Docking</w>": 30181,
  "Doctors</w>": 37020,
  "Docum": 33094,
  "Document</w>": 38375,
  "Does</w>": 9361,
  "Dogs</w>": 30474,
  "Dol": 29152,
  "Dom": 17631,
  "Domain</w>": 17232,
  "Domin": 39777,
  "Dominant</w>": 36165,
  "Don": 14318,
  "Don</w>": 42570,
  "Donald</w>": 34458,
  "Dong</w>": 33828,
  "Donor</w>": 21619,
  "Dop": 21817,
  "Dopamine</w>": 21974,
  "Doppler</w>": 4501,
  "Dor": 22155,
  "Dorsal</w>": 34928,
  "Dos": 35403,
  "Dose</w>": 11192,
  "Doses</w>": 36026,
  "Dot": 31307,
  "Dot</w>": 34081,
  "Dou": 21231,
  "Double</w>": 9783,
  "Dow": 39988,
  "Down": 33023,
  "Down</w>": 9219,
  "Download</w>": 40141,
  "Downregulation</w>": 27151,
  "Downstream</w>": 40748,
  "Dox": 44692,
  "Dox</w>": 11085,
  "Doxorubicin</w>": 29102,
  "Dp": 32316,
  "Dr": 10429,
  "Dr.</w>": 4894,
  "Dr</w>": 11785,
  "Dra": 19771,
  "Drawing</w>": 35699,
  "Dre": 27031,
  "Dri": 15736,
  "Drinking</w>": 41406,
  "Dro": 25350,
  "Drop</w>": 46717,
  "Drosha</w>": 42299,
  "Drosophila</w>": 2394,
  "Drp1</w>": 15297,
  "Drs.</w>": 40841,
  "Drug</w>": 4291,
  "Drugs</w>": 14891,
  "Dry</w>": 29808,
  "Ds": 26330,
  "Ds</w>": 3544,
  "DsRed</w>": 21886,
  "Dsb": 25023,
  "Du": 7743,
  "Du</w>": 25844,
  "Dual</w>": 10605,
  "Dub": 33757,
  "Duc": 35789,
  "Duch": 48976,
  "Duchenne</w>": 23163,
  "Due</w>": 4184,
  "Duk": 50002,
  "Duke</w>": 30243,
  "Dukes</w>": 42500,
  "Dul": 46236,
  "Dulbec": 50138,
  "Dulbecco</w>": 7999,
  "Dun": 22961,
  "Dunn</w>": 33394,
  "Dunnett</w>": 33459,
  "Duod": 37661,
  "Dup": 34131,
  "Dur": 21043,
  "Duration</w>": 22354,
  "During</w>": 1359,
  "Dus": 43198,
  "Dutch</w>": 10548,
  "Dv": 35326,
  "Dvl</w>": 37056,
  "Dx</w>": 37829,
  "Dy": 13707,
  "Dy</w>": 39135,
  "Dye</w>": 28259,
  "Dyn": 18684,
  "Dynabeads</w>": 27974,
  "Dynam": 37561,
  "Dynamic</w>": 10859,
  "Dynamics</w>": 12866,
  "Dys": 13123,
  "Dysfunction</w>": 26886,
  "Dysregulation</w>": 32234,
  "Dyst": 38719,
  "E": 422,
  "E-</w>": 24830,
  "E.": 13395,
  "E.</w>": 1099,
  "E.coli</w>": 26078,
  "E0</w>": 24030,
  "E1": 23413,
  "E1</w>": 1587,
  "E1A</w>": 14404,
  "E1B</w>": 27747,
  "E2": 8276,
  "E2</w>": 1521,
  "E2A</w>": 31744,
  "E2F1</w>": 11200,
  "E2F</w>": 9571,
  "E3</w>": 2930,
  "E3s</w>": 40105,
  "E4": 45182,
  "E4</w>": 6492,
  "E4orf": 34132,
  "E5</w>": 10679,
  "E6": 44835,
  "E6</w>": 5201,
  "E6AP</w>": 39540,
  "E7</w>": 6233,
  "E8</w>": 13229,
  "E9</w>": 13529,
  "E</w>": 360,
  "EA</w>": 6517,
  "EAAT": 26515,
  "EAC</w>": 27058,
  "EAE</w>": 11936,
  "EAL</w>": 43869,
  "EAR</w>": 37243,
  "EAT</w>": 31220,
  "EB": 5990,
  "EB1</w>": 19817,
  "EB</w>": 9563,
  "EBA</w>": 44088,
  "EBC</w>": 41261,
  "EBM</w>": 33553,
  "EBN": 48707,
  "EBNA": 34222,
  "EBNA1</w>": 32171,
  "EBNA2</w>": 44020,
  "EBNA</w>": 27732,
  "EBOV</w>": 19161,
  "EBP": 24148,
  "EBP1</w>": 46888,
  "EBP</w>": 12251,
  "EBPα</w>": 15655,
  "EBPβ</w>": 14489,
  "EBRT</w>": 35555,
  "EBUS</w>": 41932,
  "EBV</w>": 4797,
  "EBs</w>": 23124,
  "EC": 4080,
  "EC1</w>": 15341,
  "EC2</w>": 31914,
  "EC5</w>": 6994,
  "EC</w>": 2486,
  "ECA</w>": 24589,
  "ECC</w>": 25442,
  "ECD</w>": 10755,
  "ECE</w>": 33973,
  "ECF</w>": 27154,
  "ECFP</w>": 40762,
  "ECG</w>": 5779,
  "ECGs</w>": 33979,
  "ECH</w>": 38101,
  "ECK</w>": 44102,
  "ECL</w>": 8894,
  "ECM</w>": 4839,
  "ECMO</w>": 16817,
  "ECOG</w>": 28949,
  "ECP</w>": 23705,
  "ECS</w>": 21336,
  "ECT</w>": 14855,
  "ECTI": 43561,
  "ECTION</w>": 44429,
  "ECTIV": 41005,
  "ECTS</w>": 24577,
  "ECV</w>": 38199,
  "ECs</w>": 4375,
  "ED": 8029,
  "ED5</w>": 20462,
  "ED</w>": 3129,
  "EDA</w>": 31716,
  "EDC</w>": 29562,
  "EDCs</w>": 43643,
  "EDL</w>": 30623,
  "EDS</w>": 20478,
  "EDSS</w>": 37105,
  "EDTA</w>": 2566,
  "EDX</w>": 37755,
  "EDs</w>": 21923,
  "EE": 8178,
  "EE</w>": 8875,
  "EEA1</w>": 29973,
  "EEC</w>": 39047,
  "EED</w>": 40556,
  "EEG</w>": 4206,
  "EET</w>": 33603,
  "EF": 9192,
  "EF1</w>": 35467,
  "EF2</w>": 44824,
  "EF</w>": 4651,
  "EFF": 33732,
  "EFFECT</w>": 29443,
  "EFS</w>": 20225,
  "EFV</w>": 32525,
  "EG": 16246,
  "EG</w>": 12939,
  "EGCG</w>": 12087,
  "EGF": 16903,
  "EGF</w>": 2808,
  "EGFP</w>": 4178,
  "EGFR": 35042,
  "EGFR</w>": 1122,
  "EGFRv": 50205,
  "EGFRvIII</w>": 21820,
  "EGL</w>": 38071,
  "EGR1</w>": 33132,
  "EGTA</w>": 8144,
  "EH": 38267,
  "EH</w>": 15222,
  "EHEC</w>": 30005,
  "EHR</w>": 23821,
  "EI": 22193,
  "EI</w>": 13653,
  "EIA</w>": 18305,
  "EIF": 24199,
  "EIS</w>": 41652,
  "EJ</w>": 38605,
  "EK</w>": 22997,
  "EL": 4757,
  "EL</w>": 9870,
  "ELEC": 35711,
  "ELF</w>": 35499,
  "ELI": 26401,
  "ELISA</w>": 2343,
  "ELISAs</w>": 27478,
  "ELISPOT</w>": 35644,
  "ELL</w>": 40982,
  "EM": 6754,
  "EM</w>": 4886,
  "EMA</w>": 20871,
  "EMB": 47865,
  "EMB</w>": 43556,
  "EMBASE</w>": 13058,
  "EMBL</w>": 29903,
  "EMBO</w>": 41828,
  "EMC</w>": 43570,
  "EMCV</w>": 36408,
  "EMD</w>": 15027,
  "EMENT</w>": 44322,
  "EMF</w>": 34721,
  "EMG</w>": 7990,
  "EML4</w>": 32464,
  "EMR</w>": 23800,
  "EMS": 47079,
  "EMS</w>": 13086,
  "EMSA</w>": 13209,
  "EMSAs</w>": 40078,
  "EMT</w>": 3830,
  "EN": 3990,
  "EN</w>": 10495,
  "ENCE</w>": 27829,
  "ENCODE</w>": 36797,
  "END</w>": 40465,
  "ENO": 41915,
  "ENS</w>": 34635,
  "ENT</w>": 16889,
  "ENU</w>": 32333,
  "ENa": 48042,
  "ENaC</w>": 12234,
  "ENs</w>": 46227,
  "EO": 15605,
  "EO</w>": 19777,
  "EOC</w>": 19053,
  "EOL</w>": 45404,
  "EOR": 49812,
  "EORTC</w>": 28555,
  "EOS</w>": 42564,
  "EP": 7605,
  "EP1</w>": 33330,
  "EP2</w>": 30869,
  "EP3</w>": 29589,
  "EP4</w>": 28905,
  "EP</w>": 6795,
  "EPA</w>": 12588,
  "EPC</w>": 21465,
  "EPCs</w>": 20101,
  "EPEC</w>": 25745,
  "EPH": 33765,
  "EPI": 27594,
  "EPI</w>": 17035,
  "EPM</w>": 43259,
  "EPO</w>": 8909,
  "EPOR</w>": 40453,
  "EPR</w>": 10250,
  "EPS</w>": 14681,
  "EPSC</w>": 32348,
  "EPSCs</w>": 18412,
  "EPSP</w>": 26891,
  "EPSPs</w>": 29557,
  "EPs</w>": 33238,
  "EQ": 41016,
  "EQ</w>": 17294,
  "ER": 2915,
  "ER-</w>": 42743,
  "ER1</w>": 28909,
  "ER2</w>": 34618,
  "ER</w>": 846,
  "ERA": 32865,
  "ERA</w>": 35861,
  "ERAD</w>": 17134,
  "ERB": 31424,
  "ERBB2</w>": 16996,
  "ERBB3</w>": 43311,
  "ERC</w>": 33098,
  "ERCC1</w>": 20037,
  "ERCP</w>": 18741,
  "ERD</w>": 36216,
  "ERE</w>": 20676,
  "ERF</w>": 41446,
  "ERG1</w>": 37787,
  "ERG</w>": 10167,
  "ERI": 18569,
  "ERIA</w>": 47392,
  "ERK1</w>": 3994,
  "ERK2</w>": 13914,
  "ERK5</w>": 27147,
  "ERK</w>": 2285,
  "ERKs</w>": 38693,
  "ERM</w>": 19928,
  "ERN</w>": 42396,
  "ERO": 29375,
  "ERO</w>": 38287,
  "ERP</w>": 14822,
  "ERPs</w>": 26125,
  "ERRα</w>": 33145,
  "ERS</w>": 15036,
  "ERT2</w>": 33572,
  "ERT</w>": 14932,
  "ERY</w>": 41620,
  "ERalpha</w>": 27963,
  "ERbeta</w>": 40418,
  "ERs</w>": 21104,
  "ERα</w>": 4769,
  "ERβ</w>": 12168,
  "ES": 8418,
  "ES</w>": 2392,
  "ESA</w>": 31630,
  "ESBL</w>": 18595,
  "ESC": 31024,
  "ESC</w>": 12514,
  "ESCC</w>": 15040,
  "ESCRT</w>": 18106,
  "ESCs</w>": 11252,
  "ESD</w>": 26266,
  "ESE</w>": 38783,
  "ESI</w>": 6556,
  "ESO</w>": 37360,
  "ESP</w>": 35192,
  "ESR": 41175,
  "ESR1</w>": 19700,
  "ESR</w>": 14612,
  "ESRD</w>": 12407,
  "ESS</w>": 20285,
  "EST": 35050,
  "EST</w>": 13680,
  "ESTs</w>": 26481,
  "ESWL</w>": 38310,
  "ESY</w>": 47567,
  "ET": 3816,
  "ET</w>": 3151,
  "ETA</w>": 20111,
  "ETB</w>": 36681,
  "ETC</w>": 22527,
  "ETD</w>": 39228,
  "ETEC</w>": 33621,
  "ETO</w>": 24597,
  "ETP</w>": 42332,
  "ETS</w>": 13450,
  "ETT</w>": 41925,
  "ETV6</w>": 38018,
  "ETV</w>": 33873,
  "ETs</w>": 18402,
  "EU": 21466,
  "EU</w>": 13245,
  "EUS</w>": 14418,
  "EV": 7974,
  "EV7</w>": 21165,
  "EV</w>": 7888,
  "EVAR</w>": 28124,
  "EVD</w>": 40861,
  "EVI": 39733,
  "EVIDENCE</w>": 13441,
  "EVs</w>": 12135,
  "EW": 24756,
  "EW</w>": 30182,
  "EWS</w>": 23432,
  "EX": 6348,
  "EX1</w>": 42481,
  "EX</w>": 12513,
  "EXAFS</w>": 43233,
  "EXP</w>": 21642,
  "EXPERI": 45151,
  "EXPERIMENTAL</w>": 20656,
  "EXT</w>": 42975,
  "EXTRA": 47274,
  "EXTRACTION</w>": 38333,
  "EY": 30013,
  "EYFP</w>": 21328,
  "EZ": 26021,
  "EZ</w>": 25858,
  "EZH2</w>": 8898,
  "Ea</w>": 38587,
  "Each</w>": 2251,
  "Eagle</w>": 8242,
  "Ear": 34581,
  "Ear</w>": 43330,
  "Earlier</w>": 17441,
  "Early</w>": 3401,
  "Earth</w>": 19162,
  "East</w>": 7587,
  "Eastern</w>": 11416,
  "Easy</w>": 28398,
  "Eating</w>": 24472,
  "Eb": 27164,
  "Ebola</w>": 18959,
  "Ec": 7946,
  "Ec</w>": 38028,
  "EcR</w>": 39454,
  "Ech": 27021,
  "Echin": 38965,
  "Echinococcus</w>": 38489,
  "Echocardi": 47776,
  "Echocardiographic</w>": 35880,
  "Echocardiography</w>": 25851,
  "Eclip": 49983,
  "Eclipse</w>": 23128,
  "Eco": 19170,
  "EcoRI</w>": 8139,
  "EcoRV</w>": 30893,
  "Ecological</w>": 36897,
  "Econ": 38055,
  "Economic</w>": 21362,
  "Ectopic</w>": 18935,
  "Ecu": 39771,
  "Ed": 11899,
  "EdU</w>": 20693,
  "Edi": 39920,
  "Edin": 50917,
  "Edinburgh</w>": 31674,
  "Edition</w>": 36470,
  "Editor</w>": 21372,
  "Editorial</w>": 15454,
  "Edman</w>": 41498,
  "Educ": 44820,
  "Education</w>": 9287,
  "Educational</w>": 27405,
  "Edwards</w>": 30914,
  "Ef": 31834,
  "Eff": 17366,
  "Effect</w>": 2112,
  "Effective</w>": 12566,
  "Effectiveness</w>": 14747,
  "Effects</w>": 2327,
  "Efficacy</w>": 8580,
  "Efficiency</w>": 28526,
  "Efficient</w>": 14910,
  "Efforts</w>": 20241,
  "Eg": 21316,
  "Eg5</w>": 34894,
  "Egg": 29243,
  "Egg</w>": 42068,
  "Egr": 45928,
  "Egr1</w>": 43788,
  "Egr</w>": 22740,
  "Egyp": 49026,
  "Egypt</w>": 21494,
  "Egyptian</w>": 27282,
  "Eh": 22113,
  "Ehl": 43749,
  "Ehr": 42894,
  "Ehrlich</w>": 28594,
  "Eigh": 47961,
  "Eight</w>": 5776,
  "Eighteen</w>": 12457,
  "Eighty</w>": 8965,
  "Eim": 49798,
  "Eimeria</w>": 34032,
  "Ein": 48263,
  "Einstein</w>": 36177,
  "Eis": 29759,
  "Either</w>": 22278,
  "El": 6346,
  "El</w>": 18776,
  "Elas": 24813,
  "Elderly</w>": 20319,
  "Ele": 19690,
  "Elec": 35530,
  "Electric</w>": 36865,
  "Electrical</w>": 19148,
  "Electro": 6705,
  "Electrocardi": 29841,
  "Electrochemical</w>": 25158,
  "Electromy": 38145,
  "Electron</w>": 7627,
  "Electronic</w>": 14085,
  "Electroph": 48078,
  "Electrophoresis</w>": 35720,
  "Electrophoretic</w>": 29234,
  "Electrophysiological</w>": 23963,
  "Element</w>": 41637,
  "Elements</w>": 28302,
  "Elevated</w>": 9727,
  "Elevation</w>": 32892,
  "Eleven</w>": 9701,
  "Elig": 46239,
  "Eligible</w>": 26881,
  "Elim": 46406,
  "Elimination</w>": 29985,
  "Elite</w>": 35633,
  "Elk</w>": 30555,
  "Ell": 21008,
  "Elmer</w>": 16177,
  "Elong": 28347,
  "Elucid": 44352,
  "Elucidation</w>": 40930,
  "Em": 10550,
  "Em</w>": 31776,
  "Emax</w>": 37704,
  "Emb": 20928,
  "Embase</w>": 16046,
  "Embry": 29891,
  "Embryonic</w>": 26228,
  "Embryos</w>": 21204,
  "Emer": 38096,
  "Emerg": 46061,
  "Emergence</w>": 43985,
  "Emergency</w>": 10022,
  "Emerging</w>": 14756,
  "Emission</w>": 30030,
  "Emotional</w>": 24326,
  "Emp": 23743,
  "Emph": 49342,
  "Emphasis</w>": 40232,
  "Empir": 48882,
  "Empirical</w>": 31924,
  "Emplo": 27393,
  "Employing</w>": 32642,
  "En": 3023,
  "En</w>": 27859,
  "Enanti": 33598,
  "Encephal": 32288,
  "Encour": 42815,
  "Encyclopedia</w>": 34994,
  "End": 9786,
  "End</w>": 13397,
  "Endo": 13227,
  "Endo</w>": 24027,
  "Endoc": 45475,
  "Endocrin": 33743,
  "Endocrine</w>": 25044,
  "Endogenous</w>": 14709,
  "Endom": 46250,
  "Endometri": 40806,
  "Endometrial</w>": 30389,
  "Endos": 42275,
  "Endoscopic</w>": 11780,
  "Endoscopy</w>": 39067,
  "Endoth": 44372,
  "Endothelial</w>": 13742,
  "Endothelin</w>": 36354,
  "Endovascular</w>": 25236,
  "Energy</w>": 11461,
  "Eng": 25060,
  "Engagement</w>": 42559,
  "Engine": 41638,
  "Engineering</w>": 20855,
  "Engl": 47262,
  "England</w>": 6269,
  "English</w>": 6082,
  "Enh": 22845,
  "Enhanced</w>": 9469,
  "Enhancement</w>": 20202,
  "Enhancing</w>": 30129,
  "Enric": 44575,
  "Enrichment</w>": 22763,
  "Ensemb": 49498,
  "Ensembl</w>": 32035,
  "Entam": 51871,
  "Entamoeba</w>": 31441,
  "Enteri": 50049,
  "Enteritidis</w>": 38966,
  "Entero": 17984,
  "Enterobacter</w>": 26129,
  "Enterobacteriaceae</w>": 17467,
  "Enterococcus</w>": 15760,
  "Entry</w>": 39734,
  "Env": 40858,
  "Env</w>": 6825,
  "Environ": 46041,
  "Environment</w>": 23798,
  "Environmental</w>": 10694,
  "Envs</w>": 41085,
  "Enzo</w>": 33108,
  "Enzym": 46158,
  "Enzymatic</w>": 21105,
  "Enzyme</w>": 11940,
  "Enzymes</w>": 31690,
  "Eo": 34477,
  "Eosin": 37807,
  "Eosinophilic</w>": 43438,
  "Ep": 7784,
  "Ep</w>": 41215,
  "EpCAM</w>": 18227,
  "Epac": 39875,
  "Epac</w>": 42560,
  "Eph": 12821,
  "Eph</w>": 28782,
  "EphA2</w>": 21651,
  "EphA4</w>": 42019,
  "EphB2</w>": 35602,
  "Epi": 15235,
  "Epi</w>": 37093,
  "Epic": 33040,
  "Epid": 44378,
  "Epide": 48969,
  "Epidemi": 47044,
  "Epidemiologic</w>": 23081,
  "Epidemiological</w>": 14651,
  "Epidemiology</w>": 12320,
  "Epidermal</w>": 21187,
  "Epidural</w>": 39663,
  "Epig": 35377,
  "Epigen": 47099,
  "Epigenetic</w>": 22007,
  "Epilep": 45092,
  "Epilepsy</w>": 23610,
  "Epis": 42364,
  "Epit": 28092,
  "Epithelial</w>": 16531,
  "Epo": 45911,
  "Epo</w>": 17448,
  "EpoR</w>": 33897,
  "Epp": 48995,
  "Eppendorf</w>": 24375,
  "Epstein</w>": 10734,
  "Eq": 37498,
  "Eq</w>": 19803,
  "Equ": 14606,
  "Equal</w>": 17034,
  "Equation</w>": 22092,
  "Equi": 46800,
  "Equilibrium</w>": 34972,
  "Equivalent</w>": 39423,
  "Er": 5783,
  "Er</w>": 22473,
  "Erb": 26309,
  "ErbB2</w>": 12253,
  "ErbB3</w>": 25209,
  "ErbB4</w>": 25539,
  "ErbB</w>": 15871,
  "Erec": 49323,
  "Erectile</w>": 42199,
  "Eri": 32159,
  "Erk1</w>": 17273,
  "Erk</w>": 13361,
  "Ero": 36230,
  "Erratum</w>": 23146,
  "Erro": 49382,
  "Error</w>": 25528,
  "Errors</w>": 37318,
  "Ery": 30900,
  "Erythem": 40213,
  "Erythro": 33065,
  "Erythrocyte</w>": 39365,
  "Erythropo": 39716,
  "Es": 19631,
  "Es</w>": 6685,
  "Esc": 30014,
  "Esch": 47873,
  "Escher": 49003,
  "Escherichia</w>": 2207,
  "Eso": 49046,
  "Esophag": 44627,
  "Esophageal</w>": 23559,
  "Esp": 19280,
  "Especially</w>": 18355,
  "Ess": 23566,
  "Essential</w>": 17378,
  "Est": 19849,
  "Establ": 39952,
  "Establishing</w>": 33356,
  "Establishment</w>": 28229,
  "Esti": 50226,
  "Estim": 45908,
  "Estimated</w>": 26536,
  "Estimates</w>": 22557,
  "Estimating</w>": 30266,
  "Estimation</w>": 19005,
  "Estradiol</w>": 32594,
  "Estro": 44411,
  "Estrogen</w>": 17103,
  "Et": 10136,
  "Et</w>": 23499,
  "EtOAc</w>": 21683,
  "EtOH</w>": 14229,
  "Eth": 14766,
  "Ethanol</w>": 20559,
  "Ethi": 38200,
  "Ethical</w>": 17942,
  "Ethics</w>": 11002,
  "Ethiopia</w>": 19045,
  "Ethnic</w>": 35490,
  "Ethyl</w>": 44112,
  "Eti": 34070,
  "Etiology</w>": 34825,
  "Ets</w>": 20890,
  "Eu": 12668,
  "Eu</w>": 20200,
  "Euc": 35525,
  "Eucli": 49414,
  "Euclidean</w>": 41286,
  "Eud": 40419,
  "Eugene</w>": 28534,
  "Euk": 50129,
  "Eukary": 45791,
  "Eukaryotic</w>": 33200,
  "Eur": 26343,
  "Eur</w>": 39329,
  "Euro": 15110,
  "Euro</w>": 44103,
  "Europe": 49035,
  "Europe</w>": 5087,
  "European</w>": 2577,
  "Europeans</w>": 32606,
  "Ev": 22047,
  "Evalu": 25753,
  "Evaluating</w>": 19918,
  "Evaluation</w>": 3288,
  "Evans</w>": 16239,
  "Eve": 41235,
  "Even</w>": 4862,
  "Event": 49997,
  "Event</w>": 26911,
  "Events</w>": 23317,
  "Eventually</w>": 38697,
  "Ever": 39563,
  "Every</w>": 19751,
  "Evid": 43626,
  "Evidence</w>": 4074,
  "Evo": 42147,
  "Evol": 41895,
  "Evolution": 49144,
  "Evolution</w>": 15860,
  "Evolutionary</w>": 26693,
  "Ewing</w>": 19042,
  "Ex": 2912,
  "Ex</w>": 12267,
  "ExAC</w>": 37582,
  "Exac": 43886,
  "Exact</w>": 34625,
  "Exam": 48724,
  "Examin": 41170,
  "Examination</w>": 7363,
  "Examining</w>": 29121,
  "Exampl": 47169,
  "Examples</w>": 16342,
  "Exc": 36956,
  "Excel</w>": 19369,
  "Excellence</w>": 33582,
  "Excellent</w>": 32627,
  "Except</w>": 15210,
  "Excess</w>": 25414,
  "Excessive</w>": 24628,
  "Exchange</w>": 30847,
  "Excision</w>": 40755,
  "Excit": 43406,
  "Excitation</w>": 41530,
  "Exclud": 48007,
  "Excluding</w>": 43931,
  "Exclusion</w>": 31094,
  "Exec": 48284,
  "Executive</w>": 33991,
  "Exercise</w>": 12126,
  "Existing</w>": 24698,
  "Exo": 16311,
  "Exo1</w>": 34871,
  "Exo</w>": 38694,
  "Exogenous</w>": 21192,
  "Exome</w>": 23903,
  "Exon</w>": 24685,
  "Exosomes</w>": 38221,
  "Exp": 23814,
  "Exp</w>": 21384,
  "Expan": 48643,
  "Expanded</w>": 31202,
  "Expanding</w>": 41909,
  "Expansion</w>": 37420,
  "Expec": 36997,
  "Experi": 45030,
  "Experience</w>": 12512,
  "Experiences</w>": 20809,
  "Experim": 46186,
  "Experiment</w>": 7523,
  "Experimental</w>": 4114,
  "Experimentally</w>": 41204,
  "Experiments</w>": 6316,
  "Expert</w>": 22114,
  "Expl": 40410,
  "Explo": 40907,
  "Exploration</w>": 40957,
  "Exploratory</w>": 29939,
  "Exploring</w>": 21337,
  "Exposure</w>": 6995,
  "Express</w>": 23015,
  "Expressed</w>": 42336,
  "Expression</w>": 2246,
  "Extended</w>": 11387,
  "Extending</w>": 42531,
  "Extension</w>": 36328,
  "Extensive</w>": 13460,
  "External</w>": 19731,
  "Extr": 19991,
  "Extra": 31723,
  "Extra</w>": 34447,
  "Extrac": 30340,
  "Extracellular</w>": 13756,
  "Extracorporeal</w>": 36336,
  "Extract</w>": 33831,
  "Extraction</w>": 16121,
  "Extracts</w>": 22744,
  "Extrem": 34448,
  "Extreme</w>": 44265,
  "Ey": 38303,
  "Eye</w>": 14772,
  "Eyes</w>": 35426,
  "Ez": 34766,
  "Ezh2</w>": 27850,
  "Eμ</w>": 41196,
  "F": 377,
  "F-</w>": 27579,
  "F.": 20544,
  "F.</w>": 5359,
  "F0</w>": 13352,
  "F1": 26046,
  "F1</w>": 1489,
  "F1A</w>": 47486,
  "F2": 26559,
  "F2</w>": 2810,
  "F3</w>": 4025,
  "F4</w>": 5363,
  "F5</w>": 7194,
  "F6</w>": 10274,
  "F7": 47258,
  "F7</w>": 13036,
  "F8</w>": 12009,
  "F9</w>": 12440,
  "F</w>": 458,
  "FA": 10161,
  "FA</w>": 3009,
  "FAAH</w>": 30594,
  "FAB": 19081,
  "FAB</w>": 29057,
  "FABP</w>": 23801,
  "FAC": 19198,
  "FAC</w>": 30547,
  "FACS</w>": 6722,
  "FACSC": 45801,
  "FACSCali": 50617,
  "FACSCalibur</w>": 29406,
  "FACScan</w>": 43709,
  "FACT": 41097,
  "FACT</w>": 25919,
  "FAD": 25891,
  "FAD</w>": 9692,
  "FADD</w>": 19051,
  "FAK</w>": 5394,
  "FAM": 17794,
  "FAM1</w>": 39087,
  "FAM</w>": 20628,
  "FAN": 11718,
  "FANCD2</w>": 20136,
  "FANCJ</w>": 42200,
  "FAO</w>": 28099,
  "FAP</w>": 15852,
  "FAS": 45387,
  "FAS</w>": 12935,
  "FASN</w>": 27673,
  "FAST</w>": 29845,
  "FAT": 38513,
  "FAT</w>": 32239,
  "FAs</w>": 13763,
  "FB": 10886,
  "FB1</w>": 39708,
  "FB</w>": 13262,
  "FBG</w>": 35703,
  "FBP</w>": 28860,
  "FBS</w>": 3442,
  "FBX": 19984,
  "FBXW7</w>": 33758,
  "FC</w>": 6407,
  "FCCP</w>": 37378,
  "FCG": 41387,
  "FCM</w>": 25151,
  "FCR</w>": 37909,
  "FCS</w>": 8674,
  "FCs</w>": 39232,
  "FD": 20944,
  "FD</w>": 9952,
  "FDA</w>": 6276,
  "FDC</w>": 39721,
  "FDG</w>": 6059,
  "FDP</w>": 40688,
  "FDR</w>": 11041,
  "FE": 7659,
  "FE</w>": 13884,
  "FECT</w>": 47143,
  "FEI</w>": 40233,
  "FEN": 45172,
  "FEN1</w>": 30727,
  "FEP</w>": 38967,
  "FERE": 32601,
  "FERM</w>": 32542,
  "FES</w>": 30945,
  "FET</w>": 32669,
  "FEV1</w>": 10528,
  "FEV</w>": 25635,
  "FF": 10639,
  "FF</w>": 9855,
  "FFA</w>": 15052,
  "FFAs</w>": 41290,
  "FFM</w>": 32640,
  "FFP</w>": 43525,
  "FFPE</w>": 15920,
  "FFQ</w>": 42443,
  "FFR</w>": 30905,
  "FFT</w>": 43172,
  "FG": 27712,
  "FG</w>": 13246,
  "FGF": 14025,
  "FGF1</w>": 16480,
  "FGF2</w>": 9127,
  "FGF</w>": 6088,
  "FGFR1</w>": 13396,
  "FGFR2</w>": 20250,
  "FGFR3</w>": 18708,
  "FGFR4</w>": 36019,
  "FGFR</w>": 15377,
  "FGFs</w>": 40273,
  "FH": 17792,
  "FH1</w>": 45762,
  "FH</w>": 8471,
  "FHA</w>": 31455,
  "FHR</w>": 41519,
  "FI": 5945,
  "FI</w>": 10711,
  "FIA</w>": 42916,
  "FIB</w>": 37523,
  "FIC</w>": 42473,
  "FID</w>": 42796,
  "FIG</w>": 36033,
  "FIGO</w>": 29182,
  "FIM</w>": 35838,
  "FIN": 31171,
  "FINDINGS</w>": 6320,
  "FIP2</w>": 37095,
  "FISH</w>": 6691,
  "FIT</w>": 32744,
  "FITC</w>": 5874,
  "FIV</w>": 24329,
  "FIX</w>": 31355,
  "FK": 12103,
  "FK5</w>": 16461,
  "FK</w>": 24110,
  "FKBP1</w>": 22704,
  "FKBP5</w>": 22314,
  "FKBP</w>": 31635,
  "FL": 3678,
  "FL</w>": 5029,
  "FLAG</w>": 3537,
  "FLAIR</w>": 35234,
  "FLASH</w>": 36224,
  "FLC</w>": 20572,
  "FLD</w>": 44725,
  "FLI": 19904,
  "FLI1</w>": 36684,
  "FLIP</w>": 17172,
  "FLP</w>": 29605,
  "FLS</w>": 31314,
  "FLT3</w>": 9520,
  "FLT</w>": 30135,
  "FLU": 22558,
  "FLX</w>": 41388,
  "FM": 35340,
  "FM</w>": 8920,
  "FMD</w>": 18200,
  "FMDV</w>": 22352,
  "FMF</w>": 24727,
  "FMK</w>": 31322,
  "FMN</w>": 20601,
  "FMR1</w>": 31878,
  "FMRP</w>": 20301,
  "FMS</w>": 26277,
  "FMT</w>": 39934,
  "FN": 23536,
  "FN1</w>": 37686,
  "FN</w>": 9583,
  "FNA</w>": 15929,
  "FNAB</w>": 42124,
  "FNAC</w>": 39217,
  "FNR</w>": 40148,
  "FO": 9411,
  "FO</w>": 19345,
  "FOA</w>": 31644,
  "FOG</w>": 37602,
  "FOL": 29268,
  "FOLF": 47337,
  "FOLFIRI</w>": 43137,
  "FOLFOX</w>": 40530,
  "FOP</w>": 37885,
  "FOR": 24283,
  "FOR</w>": 11093,
  "FORMATION</w>": 40442,
  "FOS</w>": 24126,
  "FOV</w>": 34016,
  "FOX": 8764,
  "FOX</w>": 45817,
  "FOXA1</w>": 30773,
  "FOXM1</w>": 22061,
  "FOXO1</w>": 16746,
  "FOXO3</w>": 30371,
  "FOXO3a</w>": 26012,
  "FOXO</w>": 22724,
  "FOXP3</w>": 19582,
  "FP</w>": 5361,
  "FPG</w>": 29247,
  "FPKM</w>": 43828,
  "FPLC</w>": 39221,
  "FPP</w>": 39687,
  "FPR</w>": 42005,
  "FPs</w>": 34839,
  "FQ</w>": 21972,
  "FR": 11043,
  "FR1</w>": 35094,
  "FR</w>": 8327,
  "FRA": 20692,
  "FRAP</w>": 18955,
  "FRC</w>": 37662,
  "FRE": 27326,
  "FREET": 55508,
  "FREETEXT</w>": 14,
  "FRET</w>": 5822,
  "FROM</w>": 29308,
  "FRT": 38122,
  "FRT</w>": 22503,
  "FS": 22438,
  "FS</w>": 6965,
  "FSC</w>": 38112,
  "FSGS</w>": 26597,
  "FSH": 43304,
  "FSH</w>": 6169,
  "FSHR</w>": 35740,
  "FSS</w>": 34943,
  "FST</w>": 25461,
  "FT": 11676,
  "FT4</w>": 36626,
  "FT</w>": 5038,
  "FTC</w>": 24080,
  "FTD</w>": 15048,
  "FTIR</w>": 11045,
  "FTLD</w>": 20142,
  "FTO</w>": 24276,
  "FTY7</w>": 26622,
  "FU": 11663,
  "FU</w>": 5726,
  "FUN": 34283,
  "FUNDING</w>": 31574,
  "FUS</w>": 11890,
  "FV": 12892,
  "FV1</w>": 41655,
  "FV</w>": 11733,
  "FVB</w>": 23507,
  "FVC</w>": 16255,
  "FVIII</w>": 14523,
  "FVIIa</w>": 25968,
  "FW": 28733,
  "FW</w>": 26016,
  "FX": 11633,
  "FX</w>": 21116,
  "FXR</w>": 18832,
  "FXS</w>": 30190,
  "FXa</w>": 34921,
  "FY": 34561,
  "FYVE</w>": 41823,
  "FZ": 21117,
  "Fa": 13101,
  "Fab": 12000,
  "Fab</w>": 9222,
  "Fabrication</w>": 36395,
  "Fabry</w>": 23453,
  "Fac": 18351,
  "Face": 50514,
  "Face</w>": 37029,
  "Facebook</w>": 43238,
  "Facial</w>": 24264,
  "Facil": 24576,
  "Facility</w>": 14664,
  "Factor</w>": 6942,
  "Factors</w>": 6048,
  "Faculty</w>": 20578,
  "Fad": 38951,
  "Fail": 43758,
  "Failure</w>": 10846,
  "Fal": 34975,
  "Falc": 49043,
  "Falcon</w>": 40123,
  "Fallot</w>": 29419,
  "Falls</w>": 43397,
  "False</w>": 26816,
  "Fam": 28485,
  "Famil": 49870,
  "Familial</w>": 16585,
  "Families</w>": 30844,
  "Family</w>": 7732,
  "Fan": 46912,
  "Fan</w>": 39527,
  "Fanc": 38003,
  "Fanconi</w>": 25684,
  "Fang</w>": 39541,
  "Far": 12776,
  "Far</w>": 29153,
  "Fas": 16420,
  "Fas</w>": 6234,
  "FasL</w>": 13806,
  "Fasci": 47721,
  "Fasciola</w>": 42683,
  "Fast": 24696,
  "Fast</w>": 11603,
  "Fasting</w>": 22570,
  "Fat": 42731,
  "Fat</w>": 20176,
  "Fatal</w>": 29853,
  "Fatigue</w>": 22774,
  "Fatty</w>": 17902,
  "Fav": 36486,
  "Fb": 25595,
  "Fb</w>": 45906,
  "Fbw7</w>": 43408,
  "Fbx": 27205,
  "Fc": 13569,
  "Fc</w>": 4162,
  "FcR": 43715,
  "FcR</w>": 38742,
  "FcRn</w>": 20389,
  "Fcgamma": 41862,
  "Fcγ": 22223,
  "FcγR</w>": 27653,
  "FcγRI": 16609,
  "Fcε": 46678,
  "FcεRI</w>": 37421,
  "Fd": 36627,
  "Fe": 4670,
  "Fe2</w>": 27125,
  "Fe2O3</w>": 42180,
  "Fe3</w>": 32764,
  "Fe3O4</w>": 23885,
  "Fe</w>": 2534,
  "FeLV</w>": 36027,
  "FeO</w>": 38409,
  "Fear</w>": 36678,
  "Feasibility</w>": 25505,
  "Feature</w>": 42888,
  "Features</w>": 24274,
  "February</w>": 7592,
  "Fecal</w>": 29386,
  "Feder": 46971,
  "Federal</w>": 18410,
  "Federation</w>": 23150,
  "Feed": 49234,
  "Feedback</w>": 40046,
  "Feeding</w>": 23219,
  "Fel": 24642,
  "Fellow": 47152,
  "Fellowship</w>": 31810,
  "Fem": 26798,
  "Female</w>": 10044,
  "Females</w>": 23195,
  "Femoral</w>": 33281,
  "Fen": 34890,
  "Feng</w>": 31381,
  "Fenton</w>": 23630,
  "Fer": 8878,
  "Ferment": 48883,
  "Fermentas</w>": 35007,
  "Fermi</w>": 26476,
  "Ferr": 38474,
  "Fertility</w>": 36248,
  "Fet": 36653,
  "Fetal</w>": 12474,
  "Fever</w>": 24874,
  "Few</w>": 10518,
  "Fewer</w>": 30737,
  "Fg": 13174,
  "Fgfr": 27841,
  "Fi": 8126,
  "Fi</w>": 28100,
  "Fib": 37458,
  "Fiber</w>": 34332,
  "Fibr": 22174,
  "Fibri": 45118,
  "Fibrillation</w>": 42522,
  "Fibro": 23830,
  "Fibroblast</w>": 29139,
  "Fibroblasts</w>": 30917,
  "Fibron": 51076,
  "Fibronectin</w>": 41323,
  "Fibrosis</w>": 26981,
  "Ficol": 51128,
  "Ficoll</w>": 23771,
  "Fidelity</w>": 41904,
  "Field</w>": 14165,
  "Fif": 43319,
  "Fifteen</w>": 9864,
  "Fifty</w>": 5376,
  "Fig": 9344,
  "Fig.": 3641,
  "Fig.1": 40279,
  "Fig.1</w>": 7764,
  "Fig.1A</w>": 18997,
  "Fig.1B</w>": 20763,
  "Fig.1C</w>": 30304,
  "Fig.2": 35590,
  "Fig.2</w>": 9286,
  "Fig.2A</w>": 19645,
  "Fig.2B</w>": 21224,
  "Fig.2C</w>": 31703,
  "Fig.3": 31788,
  "Fig.3</w>": 10099,
  "Fig.3A</w>": 20531,
  "Fig.3B</w>": 22288,
  "Fig.3C</w>": 34077,
  "Fig.4": 39408,
  "Fig.4</w>": 10988,
  "Fig.4A</w>": 21757,
  "Fig.4B</w>": 23730,
  "Fig.4C</w>": 35858,
  "Fig.5": 36296,
  "Fig.5</w>": 13162,
  "Fig.5A</w>": 23358,
  "Fig.5B</w>": 25612,
  "Fig.5C</w>": 38689,
  "Fig.6": 43754,
  "Fig.6</w>": 16586,
  "Fig.6A</w>": 27211,
  "Fig.6B</w>": 29543,
  "Fig.7</w>": 21777,
  "Fig.7A</w>": 35235,
  "Fig.7B</w>": 38612,
  "Fig.8</w>": 31029,
  "Fig</w>": 92,
  "Figs</w>": 4425,
  "Figure": 4191,
  "Figure1": 32818,
  "Figure1</w>": 10736,
  "Figure1A</w>": 22756,
  "Figure1B</w>": 25401,
  "Figure1C</w>": 33133,
  "Figure2": 28705,
  "Figure2</w>": 13502,
  "Figure2A</w>": 23956,
  "Figure2B</w>": 26918,
  "Figure2C</w>": 34387,
  "Figure3": 24816,
  "Figure3</w>": 15675,
  "Figure3A</w>": 24993,
  "Figure3B</w>": 28402,
  "Figure3C</w>": 36958,
  "Figure4": 30911,
  "Figure4</w>": 17777,
  "Figure4A</w>": 26595,
  "Figure4B</w>": 30532,
  "Figure4C</w>": 38746,
  "Figure5": 27824,
  "Figure5</w>": 20192,
  "Figure5A</w>": 29640,
  "Figure5B</w>": 33885,
  "Figure5C</w>": 42922,
  "Figure6": 35199,
  "Figure6</w>": 24287,
  "Figure6A</w>": 35548,
  "Figure6B</w>": 40601,
  "Figure7</w>": 30980,
  "Figure8</w>": 43012,
  "Figure</w>": 147,
  "Figures": 18689,
  "Figures</w>": 2762,
  "Fiji</w>": 38887,
  "Fil": 11339,
  "File</w>": 15628,
  "Filip": 40946,
  "Film</w>": 38451,
  "Films</w>": 43908,
  "Filter</w>": 40608,
  "Fim": 28717,
  "Fin": 12825,
  "Final</w>": 17114,
  "Finally</w>": 1273,
  "Financial</w>": 40931,
  "Finder</w>": 36085,
  "Finding</w>": 32002,
  "Findings</w>": 7339,
  "Fine</w>": 18536,
  "Fing": 44025,
  "Finite</w>": 41471,
  "Finland</w>": 14037,
  "Finnish</w>": 16749,
  "Fir": 43260,
  "Fire</w>": 43416,
  "Firefly</w>": 43581,
  "Firmicutes</w>": 33583,
  "First</w>": 2179,
  "Firstly</w>": 16507,
  "Fis": 35991,
  "Fischer</w>": 16696,
  "Fish</w>": 23884,
  "Fisher</w>": 3488,
  "Fit": 44801,
  "Fit</w>": 33593,
  "Fitness</w>": 44217,
  "Fitz": 43941,
  "Five</w>": 3245,
  "Fix": 45267,
  "Fixation</w>": 33612,
  "Fixed</w>": 23795,
  "Fk": 41224,
  "Fl": 7028,
  "Fla": 34851,
  "Flag": 40628,
  "Flag</w>": 5633,
  "Flash</w>": 40040,
  "Flav": 24404,
  "Flavi": 33760,
  "Flavon": 40947,
  "Fle": 27245,
  "Flex": 22989,
  "Flex</w>": 42621,
  "Flexible</w>": 34621,
  "Fli": 20475,
  "Flo": 15633,
  "Flor": 44712,
  "Florida</w>": 16049,
  "Flow": 45202,
  "Flow</w>": 7080,
  "FlowJo</w>": 23123,
  "Flp</w>": 29994,
  "Flt3</w>": 32506,
  "Flt</w>": 29083,
  "Flu": 9117,
  "Flu</w>": 41058,
  "Fluc": 40391,
  "Fluid</w>": 23766,
  "Fluo": 27144,
  "Fluo</w>": 39165,
  "Fluor": 26682,
  "Fluor</w>": 7371,
  "Fluoresc": 47020,
  "Fluorescein</w>": 35992,
  "Fluorescence</w>": 7613,
  "Fluorescent</w>": 15768,
  "Fluoro": 15115,
  "Fm": 46690,
  "Fmo": 49510,
  "Fmoc</w>": 27268,
  "Fmr1</w>": 39148,
  "Fn": 39187,
  "Fn1</w>": 42546,
  "Fn</w>": 27552,
  "Fo": 11500,
  "Fo</w>": 32462,
  "Foc": 32509,
  "Focal</w>": 21087,
  "Focus</w>": 22250,
  "Focusing</w>": 34705,
  "Fok": 41374,
  "Fol": 12142,
  "Fold</w>": 35176,
  "Foll": 45317,
  "Follicular</w>": 40749,
  "Follow</w>": 8974,
  "Following</w>": 2436,
  "Fon": 42161,
  "Font": 48108,
  "Fontan</w>": 27695,
  "Food</w>": 6567,
  "Foot</w>": 27484,
  "For": 6719,
  "For</w>": 245,
  "Force</w>": 15024,
  "Forced</w>": 36049,
  "Forces</w>": 39208,
  "Fore": 26700,
  "Foreign</w>": 38251,
  "Forensic</w>": 35921,
  "Forest</w>": 22837,
  "Forkhead</w>": 42571,
  "Form": 22682,
  "Form</w>": 13788,
  "Formal": 45666,
  "Formal</w>": 33767,
  "Formalin</w>": 37444,
  "Formation</w>": 11122,
  "Formula</w>": 14269,
  "Fort</w>": 35110,
  "Fortunately</w>": 37096,
  "Forty</w>": 4361,
  "Forward</w>": 21663,
  "Fos": 32588,
  "Fos</w>": 9135,
  "FosB</w>": 43484,
  "Foster</w>": 14791,
  "Found": 46766,
  "Found</w>": 37207,
  "Foundation</w>": 7033,
  "Four": 38268,
  "Four</w>": 2685,
  "Fourier</w>": 7860,
  "Fourteen</w>": 10990,
  "Fourth</w>": 22477,
  "Fox": 8188,
  "Fox</w>": 32937,
  "FoxM1</w>": 33020,
  "FoxO1</w>": 19958,
  "FoxO3a</w>": 36989,
  "FoxO</w>": 30258,
  "FoxP3</w>": 24693,
  "Foxo1</w>": 39112,
  "Foxp3</w>": 11992,
  "Fr": 10248,
  "Fr</w>": 28195,
  "Fra": 18849,
  "Fra</w>": 39798,
  "Frac": 45081,
  "Fraction": 47685,
  "Fraction</w>": 35461,
  "Fractional</w>": 40106,
  "Fractionation</w>": 37414,
  "Fractions</w>": 22488,
  "Fracture</w>": 24749,
  "Fractures</w>": 27617,
  "Frag": 28723,
  "Fragile</w>": 41959,
  "Fragment</w>": 36608,
  "Fragments</w>": 38348,
  "Fram": 46460,
  "Frame": 47559,
  "Framework</w>": 23116,
  "Framingham</w>": 26856,
  "Fran": 21848,
  "Franc": 25467,
  "France</w>": 5929,
  "Francis": 49936,
  "Francisco</w>": 18184,
  "Francisella</w>": 38075,
  "Frank": 35163,
  "Frank</w>": 35670,
  "Franklin</w>": 27654,
  "Fre": 11906,
  "Freder": 48966,
  "Frederick</w>": 39590,
  "Free": 25954,
  "Free</w>": 9516,
  "Freedom</w>": 41178,
  "Fren": 46558,
  "French</w>": 6744,
  "Frequ": 28667,
  "Frequency</w>": 13739,
  "Frequent</w>": 30841,
  "Fresh": 47670,
  "Fresh</w>": 23120,
  "Freshly</w>": 38193,
  "Freud</w>": 43474,
  "Freund</w>": 25245,
  "Frey</w>": 40773,
  "Fri": 15829,
  "Frie": 41797,
  "Fried": 31453,
  "Friedman</w>": 38928,
  "Friend</w>": 40378,
  "Frizzled</w>": 37867,
  "Fro": 30636,
  "From</w>": 1735,
  "Fron": 24859,
  "Frontal</w>": 44079,
  "Frozen</w>": 27008,
  "Fru": 27620,
  "Fruc": 34648,
  "Fs</w>": 3760,
  "Fts": 15933,
  "FtsZ</w>": 25584,
  "Fu": 11809,
  "Fu</w>": 22031,
  "FuGENE</w>": 40431,
  "Fuc": 28522,
  "Fuch": 42482,
  "Fuj": 17407,
  "Fuji</w>": 35030,
  "Fuk": 20262,
  "Ful": 29686,
  "Full</w>": 10026,
  "Fully</w>": 40440,
  "Fun": 32324,
  "Func": 47264,
  "Function": 39899,
  "Function</w>": 11588,
  "Functional</w>": 4457,
  "Functionally</w>": 31297,
  "Functioning</w>": 31038,
  "Functions</w>": 36848,
  "Fund": 26828,
  "Fund</w>": 22213,
  "Fundamental</w>": 40974,
  "Funding</w>": 22385,
  "Fung": 29980,
  "Fungal</w>": 25993,
  "Fur": 21765,
  "Fur</w>": 33823,
  "Fura</w>": 33876,
  "Further</w>": 1211,
  "Furthermore</w>": 574,
  "Fus": 26929,
  "Fusarium</w>": 14979,
  "Fusion</w>": 16832,
  "Fusobacterium</w>": 44297,
  "Future</w>": 4859,
  "Fv</w>": 23064,
  "Fyn</w>": 15303,
  "Fz": 25600,
  "Fö": 49609,
  "Förster</w>": 41036,
  "G": 388,
  "G-</w>": 38321,
  "G.": 17860,
  "G.</w>": 4974,
  "G0</w>": 8223,
  "G1": 42006,
  "G1</w>": 1250,
  "G2</w>": 2001,
  "G3": 26825,
  "G3</w>": 5105,
  "G4</w>": 4466,
  "G5</w>": 8207,
  "G6": 16989,
  "G6</w>": 12763,
  "G6PD</w>": 16537,
  "G7</w>": 12647,
  "G8</w>": 11097,
  "G9</w>": 9739,
  "G9a</w>": 22643,
  "G</w>": 345,
  "GA": 7134,
  "GA</w>": 3235,
  "GAA": 11463,
  "GAA</w>": 13717,
  "GAAC": 24205,
  "GAAG": 14100,
  "GAAT": 17017,
  "GAB": 13911,
  "GABA": 29568,
  "GABA</w>": 3696,
  "GABAA</w>": 11764,
  "GABAAR</w>": 29026,
  "GABAARs</w>": 39432,
  "GABAB</w>": 26423,
  "GABAergic</w>": 8931,
  "GAC": 6606,
  "GAC</w>": 16744,
  "GACT": 25307,
  "GAD": 21866,
  "GAD6</w>": 24892,
  "GAD</w>": 16495,
  "GADD3</w>": 41980,
  "GADD4</w>": 28922,
  "GAF</w>": 36464,
  "GAG": 5940,
  "GAG</w>": 10215,
  "GAGCT": 39555,
  "GAGT": 22305,
  "GAGs</w>": 26374,
  "GAL": 11797,
  "GAL1</w>": 19290,
  "GAL4</w>": 10828,
  "GAL</w>": 20686,
  "GAN": 35631,
  "GAP": 17364,
  "GAP1</w>": 29363,
  "GAP</w>": 8020,
  "GAPDH</w>": 5668,
  "GAPs</w>": 29757,
  "GAR</w>": 32300,
  "GAS": 29493,
  "GAS</w>": 15670,
  "GAT": 4991,
  "GAT1</w>": 34354,
  "GAT</w>": 14080,
  "GATA1</w>": 29481,
  "GATA2</w>": 33240,
  "GATA3</w>": 25981,
  "GATA4</w>": 28023,
  "GATA</w>": 10139,
  "GATK</w>": 38377,
  "GAU": 37855,
  "GAs</w>": 43079,
  "GB": 10957,
  "GB</w>": 10770,
  "GBA</w>": 31573,
  "GBC</w>": 36820,
  "GBD</w>": 43864,
  "GBM": 38041,
  "GBM</w>": 4606,
  "GBMs</w>": 29031,
  "GBP</w>": 29607,
  "GBS</w>": 13847,
  "GBV</w>": 42446,
  "GC": 6309,
  "GC</w>": 2033,
  "GCA": 7334,
  "GCA</w>": 15851,
  "GCAC": 24694,
  "GCAT": 17677,
  "GCB</w>": 38653,
  "GCC": 8706,
  "GCC</w>": 14780,
  "GCCA": 30552,
  "GCCAT": 40571,
  "GCCT": 16167,
  "GCF</w>": 39814,
  "GCG": 11728,
  "GCG</w>": 23096,
  "GCGG": 24840,
  "GCGT": 30080,
  "GCK</w>": 38370,
  "GCL</w>": 33164,
  "GCN": 45437,
  "GCN2</w>": 32733,
  "GCN4</w>": 35394,
  "GCN5</w>": 30632,
  "GCR</w>": 29249,
  "GCS</w>": 18971,
  "GCT": 5552,
  "GCT</w>": 15009,
  "GCV</w>": 25356,
  "GCase</w>": 37637,
  "GCs</w>": 12506,
  "GD": 10593,
  "GD2</w>": 35378,
  "GD3</w>": 41789,
  "GD</w>": 7577,
  "GDC</w>": 30665,
  "GDF1</w>": 39313,
  "GDF</w>": 38022,
  "GDH</w>": 22915,
  "GDI": 43308,
  "GDI</w>": 26723,
  "GDM</w>": 14971,
  "GDNF</w>": 15124,
  "GDP</w>": 7509,
  "GDS</w>": 28196,
  "GE": 6972,
  "GE</w>": 3386,
  "GEF</w>": 11450,
  "GEFs</w>": 20832,
  "GEM": 37736,
  "GEM</w>": 23137,
  "GEN": 14860,
  "GEN</w>": 25903,
  "GENE": 27287,
  "GENE</w>": 44466,
  "GEO</w>": 16478,
  "GEP</w>": 33854,
  "GER</w>": 33604,
  "GERD</w>": 17549,
  "GES</w>": 41268,
  "GF": 5810,
  "GF1</w>": 35743,
  "GF</w>": 9968,
  "GFAP</w>": 8421,
  "GFP</w>": 773,
  "GFR": 40204,
  "GFR</w>": 8772,
  "GG": 2984,
  "GG</w>": 5136,
  "GGA</w>": 16864,
  "GGAC": 31773,
  "GGAG": 17823,
  "GGAT": 15638,
  "GGC</w>": 20827,
  "GGCA": 41339,
  "GGCT": 18027,
  "GGE</w>": 48541,
  "GGG</w>": 21916,
  "GGGG": 28964,
  "GGGT": 29873,
  "GGT": 5826,
  "GGT</w>": 13346,
  "GH": 34690,
  "GH1</w>": 36747,
  "GH3</w>": 32337,
  "GH</w>": 3277,
  "GHB</w>": 41499,
  "GHD</w>": 36465,
  "GHR</w>": 26244,
  "GHRH</w>": 24154,
  "GHz</w>": 23968,
  "GI": 5827,
  "GI5</w>": 42075,
  "GI</w>": 5013,
  "GIBCO</w>": 24662,
  "GIC</w>": 21247,
  "GICAL</w>": 44534,
  "GII": 32188,
  "GII</w>": 36617,
  "GIP</w>": 25213,
  "GIR": 32861,
  "GIRK</w>": 39779,
  "GIS</w>": 28232,
  "GIST</w>": 13902,
  "GISTs</w>": 21017,
  "GIT1</w>": 42231,
  "GIT</w>": 23634,
  "GIV</w>": 41554,
  "GJ": 21927,
  "GJ</w>": 40978,
  "GJB2</w>": 41362,
  "GK": 29819,
  "GK</w>": 17486,
  "GL": 4483,
  "GL2</w>": 30496,
  "GL</w>": 9762,
  "GLA</w>": 33496,
  "GLI": 18981,
  "GLI1</w>": 24842,
  "GLI</w>": 34176,
  "GLP</w>": 8667,
  "GLS</w>": 32919,
  "GLT</w>": 37447,
  "GLU": 25645,
  "GLUT": 37913,
  "GLUT1</w>": 16432,
  "GLUT2</w>": 40708,
  "GLUT4</w>": 14121,
  "GLUT</w>": 24938,
  "GLY": 44113,
  "GM": 24703,
  "GM0</w>": 29956,
  "GM1</w>": 11759,
  "GM2</w>": 36851,
  "GM3</w>": 34328,
  "GM</w>": 3847,
  "GMA</w>": 32123,
  "GMP</w>": 9013,
  "GMR</w>": 38872,
  "GN": 9039,
  "GN</w>": 12822,
  "GNA": 43696,
  "GNPs</w>": 39490,
  "GO": 11209,
  "GO</w>": 4477,
  "GOF</w>": 31701,
  "GOLD</w>": 37044,
  "GOS</w>": 37815,
  "GP": 7212,
  "GP1</w>": 29809,
  "GP</w>": 5077,
  "GPA</w>": 28400,
  "GPC</w>": 24870,
  "GPCR</w>": 7965,
  "GPCRs</w>": 8368,
  "GPER</w>": 30852,
  "GPI": 19358,
  "GPI</w>": 10910,
  "GPIIb</w>": 42131,
  "GPR": 19080,
  "GPR1</w>": 20585,
  "GPR3</w>": 26792,
  "GPR5</w>": 29597,
  "GPR</w>": 41225,
  "GPS</w>": 23239,
  "GPT</w>": 36928,
  "GPVI</w>": 43691,
  "GPa</w>": 26853,
  "GPs</w>": 11066,
  "GPx</w>": 21568,
  "GR": 4893,
  "GR1</w>": 32595,
  "GR5</w>": 30796,
  "GR</w>": 3510,
  "GRA": 11322,
  "GRADE</w>": 36869,
  "GRE": 24357,
  "GRE</w>": 27261,
  "GRF</w>": 29533,
  "GRI": 29337,
  "GRIP1</w>": 39072,
  "GRK2</w>": 19011,
  "GRK5</w>": 38901,
  "GRK</w>": 42547,
  "GRN</w>": 30459,
  "GRO": 29216,
  "GRP": 27875,
  "GRP7</w>": 14823,
  "GRP</w>": 24169,
  "GS": 14726,
  "GS</w>": 4456,
  "GSC</w>": 20728,
  "GSCs</w>": 17782,
  "GSD</w>": 41783,
  "GSE": 30319,
  "GSE1</w>": 18301,
  "GSE2</w>": 27969,
  "GSE3</w>": 28798,
  "GSE4</w>": 32632,
  "GSE5</w>": 38113,
  "GSE6</w>": 36472,
  "GSE7</w>": 42338,
  "GSEA</w>": 22689,
  "GSH</w>": 4101,
  "GSI</w>": 33030,
  "GSIS</w>": 44281,
  "GSK": 20555,
  "GSK3</w>": 13580,
  "GSK3β</w>": 9132,
  "GSK</w>": 7219,
  "GSNO</w>": 39110,
  "GSSG</w>": 18902,
  "GST": 15927,
  "GST</w>": 2165,
  "GSTM1</w>": 25854,
  "GSTP1</w>": 23773,
  "GSTT1</w>": 32404,
  "GSTs</w>": 34510,
  "GT": 2498,
  "GT1</w>": 23053,
  "GT</w>": 6322,
  "GTA</w>": 21961,
  "GTAC": 38225,
  "GTAT": 26865,
  "GTC</w>": 20859,
  "GTCT": 17636,
  "GTG</w>": 17129,
  "GTGG": 21453,
  "GTGT": 16946,
  "GTN</w>": 37436,
  "GTP": 45310,
  "GTP</w>": 3367,
  "GTPase</w>": 5707,
  "GTPases</w>": 8183,
  "GTPγS</w>": 27588,
  "GTT</w>": 18093,
  "GTTT": 17374,
  "GU": 9308,
  "GU</w>": 27155,
  "GUS</w>": 14322,
  "GV": 14487,
  "GV</w>": 21270,
  "GVHD</w>": 9631,
  "GW": 9204,
  "GW</w>": 23222,
  "GWAS</w>": 8636,
  "GX</w>": 39817,
  "GY": 21427,
  "GY</w>": 41718,
  "Ga": 9109,
  "Ga</w>": 12656,
  "GaAs</w>": 29292,
  "GaN</w>": 31176,
  "Gab": 15430,
  "Gab1</w>": 35518,
  "Gad": 25837,
  "Gadd": 48897,
  "Gadd4</w>": 36442,
  "Gag": 38724,
  "Gag</w>": 6917,
  "Gai": 50384,
  "Gain</w>": 40047,
  "Gait</w>": 34876,
  "Gaither": 51050,
  "Gaithersburg</w>": 31932,
  "Gal": 5450,
  "Gal4</w>": 10308,
  "Gal</w>": 7113,
  "GalNAc</w>": 18992,
  "Galac": 40057,
  "Galectin</w>": 42076,
  "Gall": 17418,
  "Gam": 14685,
  "Gamma</w>": 19571,
  "Gan": 24284,
  "Gang": 39551,
  "Gao</w>": 26334,
  "Gap": 25978,
  "Gap</w>": 33700,
  "Gar": 14693,
  "Garc": 45705,
  "Garcia</w>": 27512,
  "Gard": 33970,
  "Gas": 18655,
  "Gas6</w>": 38361,
  "Gas</w>": 18727,
  "Gastric</w>": 12736,
  "Gastro": 21674,
  "Gastroentero": 37674,
  "Gastrointestinal</w>": 17584,
  "Gat": 16384,
  "Gate": 48283,
  "Gateway</w>": 27719,
  "Gaucher</w>": 25284,
  "Gaussian</w>": 11128,
  "Gb": 37571,
  "Gc": 35521,
  "Gc</w>": 27410,
  "Gcn": 32932,
  "Gcn5</w>": 34146,
  "Gd": 26821,
  "Gd</w>": 12739,
  "Ge": 6708,
  "Ge</w>": 18201,
  "Gefitinib</w>": 41020,
  "Gel": 17196,
  "Gel</w>": 11100,
  "Gels</w>": 29436,
  "Gem": 18522,
  "Gem</w>": 42750,
  "Gemcitabine</w>": 41179,
  "Gen": 5511,
  "Gen</w>": 18782,
  "GenBank</w>": 8143,
  "Gender</w>": 15185,
  "Gene": 8871,
  "Gene</w>": 3018,
  "GeneChip</w>": 26768,
  "Gener": 22947,
  "General</w>": 5996,
  "Generalized</w>": 22550,
  "Generally</w>": 13445,
  "Generation</w>": 13519,
  "Genes</w>": 8494,
  "Genet</w>": 26026,
  "Genetic</w>": 3962,
  "Genetically</w>": 34990,
  "Genetics</w>": 12194,
  "Genome</w>": 5308,
  "Genomes</w>": 19284,
  "Genomic</w>": 7635,
  "Genomics</w>": 14840,
  "Genotype</w>": 21928,
  "Genotypes</w>": 37015,
  "Genotyping</w>": 17896,
  "Gent": 39160,
  "Geographic</w>": 41187,
  "Georg": 40518,
  "George</w>": 24430,
  "Georgia</w>": 26180,
  "Ger": 10290,
  "Geriatric</w>": 30277,
  "Germ": 48948,
  "Germ</w>": 43841,
  "German</w>": 6791,
  "Germany</w>": 2772,
  "Germline</w>": 34558,
  "Gest": 45249,
  "Gestational</w>": 35358,
  "Get": 40609,
  "Gh": 16660,
  "Ghana</w>": 23348,
  "Ghrelin</w>": 43768,
  "Gi": 10778,
  "Gi</w>": 16777,
  "Giant</w>": 21611,
  "Giardia</w>": 23065,
  "Gib": 36710,
  "Gibbs</w>": 27790,
  "Gibco</w>": 9040,
  "Gibson</w>": 41566,
  "Giemsa</w>": 27032,
  "Gil": 21741,
  "Gilbert</w>": 43924,
  "Gill</w>": 45523,
  "Gin": 20724,
  "Gir": 24558,
  "Given</w>": 2605,
  "Gl": 6731,
  "Gla": 46137,
  "Gla</w>": 42945,
  "Glas": 48611,
  "Glasgow</w>": 18046,
  "Glass</w>": 29441,
  "Glauc": 48865,
  "Glaucoma</w>": 34547,
  "Glc": 12374,
  "Glc</w>": 16332,
  "GlcNAc": 24991,
  "GlcNAc</w>": 8822,
  "GlcNAcylation</w>": 24492,
  "Gle": 32444,
  "Gleason</w>": 15367,
  "Gli": 17053,
  "Gli1</w>": 24019,
  "Gli2</w>": 34275,
  "Gli3</w>": 37166,
  "Gli</w>": 27449,
  "Glial</w>": 41953,
  "Glioblastoma</w>": 30876,
  "Gln": 20441,
  "Gln1</w>": 39388,
  "Gln3</w>": 40618,
  "Gln</w>": 8549,
  "Glo": 23962,
  "Glo</w>": 20845,
  "Glob": 40041,
  "Global</w>": 7770,
  "Globally</w>": 44089,
  "Glomerular</w>": 38336,
  "Glu": 6022,
  "Glu1</w>": 20370,
  "Glu2</w>": 25662,
  "Glu3</w>": 35174,
  "Glu</w>": 4883,
  "GluA1</w>": 24336,
  "GluA2</w>": 27363,
  "GluN": 45173,
  "GluN1</w>": 31720,
  "GluN2A</w>": 40848,
  "GluN2B</w>": 27951,
  "GluR1</w>": 25520,
  "GluR2</w>": 27720,
  "GluR</w>": 43994,
  "Gluc": 21947,
  "Glucagon</w>": 40536,
  "Glucocorticoid</w>": 41136,
  "Glucocorticoids</w>": 41355,
  "Glucose</w>": 10480,
  "Glut": 15866,
  "Glut1</w>": 42268,
  "Glutamate</w>": 24192,
  "Glutamine</w>": 30995,
  "Glutathione</w>": 19240,
  "Gly": 7227,
  "Gly1</w>": 25287,
  "Gly2</w>": 36493,
  "Gly</w>": 5369,
  "GlyR</w>": 36109,
  "Glyc": 30025,
  "Glycerol</w>": 35730,
  "Glycine</w>": 22227,
  "Glyco": 24780,
  "Glycogen</w>": 36668,
  "Glycos": 26730,
  "Gm": 22493,
  "Gm</w>": 42064,
  "Gmb": 49823,
  "GmbH</w>": 16325,
  "Gn": 16567,
  "Gn</w>": 43807,
  "GnR": 26325,
  "GnRH</w>": 5868,
  "Go": 8283,
  "Go</w>": 18450,
  "Goat</w>": 32826,
  "Gol": 18844,
  "Gold": 15895,
  "Gold</w>": 12176,
  "Golden</w>": 35761,
  "Golgi</w>": 3274,
  "Gom": 38557,
  "Gon": 27633,
  "Gonad": 44034,
  "Gonz": 45749,
  "Gonzalez</w>": 37834,
  "Good": 25712,
  "Good</w>": 13325,
  "Google</w>": 7068,
  "Gor": 26676,
  "Gord": 48040,
  "Gordon</w>": 39854,
  "Got": 34193,
  "Govern": 45515,
  "Government</w>": 21755,
  "Gp": 24947,
  "Gpp": 40178,
  "Gpp</w>": 47315,
  "Gq</w>": 21483,
  "Gr": 4899,
  "Gr</w>": 26754,
  "Gra": 10511,
  "Grad": 44475,
  "Grade</w>": 9908,
  "Gradi": 47013,
  "Gradient</w>": 43161,
  "Graduate</w>": 33071,
  "Graft</w>": 24132,
  "Gram</w>": 5086,
  "Gran": 15211,
  "Grand</w>": 19542,
  "Grant</w>": 11872,
  "Grants</w>": 28999,
  "Granul": 21349,
  "Graph": 28237,
  "Graph</w>": 32275,
  "GraphPad</w>": 7546,
  "Graphene</w>": 29162,
  "Graphical</w>": 39516,
  "Graphpad</w>": 42780,
  "Graves</w>": 16127,
  "Gray</w>": 26392,
  "Grb2</w>": 17812,
  "Gre": 13544,
  "Grea": 49203,
  "Great</w>": 16707,
  "Greater</w>": 15452,
  "Greece</w>": 21513,
  "Greek</w>": 21233,
  "Green": 17343,
  "Green</w>": 6138,
  "Greg": 38318,
  "Gri": 12848,
  "Griff": 41371,
  "Gro": 10800,
  "GroEL</w>": 28299,
  "Gros": 32620,
  "Gross</w>": 21838,
  "Group</w>": 1588,
  "Groups</w>": 10582,
  "Grove</w>": 29577,
  "Grow": 47786,
  "Growing</w>": 26089,
  "Growth</w>": 5720,
  "Gs": 31694,
  "Gs</w>": 5107,
  "Gt": 32064,
  "Gt</w>": 37916,
  "Gu": 5119,
  "Gu</w>": 35236,
  "Guan": 42508,
  "Guang": 44987,
  "Guangdong</w>": 34300,
  "Guangzhou</w>": 33105,
  "Guid": 41571,
  "Guide</w>": 19457,
  "Guided</w>": 31226,
  "Guideline</w>": 34197,
  "Guidelines</w>": 11420,
  "Guill": 47861,
  "Guillain</w>": 29339,
  "Guinea</w>": 21228,
  "Gulf</w>": 22846,
  "Gun": 32107,
  "Guo</w>": 21385,
  "Gupta</w>": 43217,
  "Gur": 44180,
  "Gut</w>": 33683,
  "Gué": 50359,
  "Guérin</w>": 42565,
  "Gv": 47140,
  "GvHD</w>": 34771,
  "Gy": 44159,
  "Gy</w>": 4314,
  "Gyn": 31974,
  "Gynec": 34030,
  "Gynecology</w>": 32499,
  "Gyr": 28863,
  "Gö": 26102,
  "Gα": 16848,
  "Gα1</w>": 23173,
  "Gα</w>": 20021,
  "Gαi</w>": 25651,
  "Gαq</w>": 21594,
  "Gαs</w>": 29518,
  "Gβγ</w>": 19558,
  "H": 400,
  "H-</w>": 13874,
  "H.": 15162,
  "H.</w>": 2514,
  "H0</w>": 21003,
  "H1": 16755,
  "H1</w>": 1528,
  "H1N1</w>": 8007,
  "H2": 6871,
  "H2</w>": 2190,
  "H2A.": 45589,
  "H2A.X</w>": 42551,
  "H2A.Z</w>": 23167,
  "H2A</w>": 12069,
  "H2AX</w>": 10089,
  "H2B</w>": 11896,
  "H2O2</w>": 3507,
  "H2O</w>": 5253,
  "H2PO4</w>": 48736,
  "H2S</w>": 13944,
  "H2SO4</w>": 39334,
  "H3": 9273,
  "H3</w>": 2111,
  "H3K": 48538,
  "H3K1</w>": 38770,
  "H3K2</w>": 7717,
  "H3K3</w>": 20220,
  "H3K4": 45032,
  "H3K4</w>": 18845,
  "H3K4me1</w>": 37422,
  "H3K4me2</w>": 39891,
  "H3K4me3</w>": 13826,
  "H3K7</w>": 37280,
  "H3K9": 25965,
  "H3K9</w>": 18651,
  "H3K9me2</w>": 31059,
  "H3K9me3</w>": 22262,
  "H3N2</w>": 15632,
  "H3T3</w>": 49969,
  "H4": 16445,
  "H4</w>": 3973,
  "H4K1</w>": 34468,
  "H4K2</w>": 31062,
  "H5": 20422,
  "H5</w>": 6938,
  "H5N1</w>": 10568,
  "H6": 41392,
  "H6</w>": 9510,
  "H7": 30052,
  "H7</w>": 7433,
  "H7N9</w>": 22950,
  "H8</w>": 13137,
  "H9": 44564,
  "H9</w>": 11240,
  "H9N2</w>": 26517,
  "H9c2</w>": 35887,
  "H</w>": 337,
  "HA": 8963,
  "HA1</w>": 20881,
  "HA2</w>": 32000,
  "HA</w>": 1191,
  "HAART</w>": 13371,
  "HAD</w>": 38709,
  "HADS</w>": 35714,
  "HAE</w>": 36048,
  "HAI</w>": 23261,
  "HAM</w>": 24690,
  "HAN": 34495,
  "HAND</w>": 42065,
  "HAP</w>": 25540,
  "HAQ</w>": 39060,
  "HAS</w>": 40725,
  "HAT</w>": 12557,
  "HATs</w>": 34278,
  "HAV</w>": 20896,
  "HAdV</w>": 34562,
  "HAp</w>": 43920,
  "HAs</w>": 31710,
  "HB": 4222,
  "HB2</w>": 44152,
  "HB</w>": 7121,
  "HBA</w>": 30322,
  "HBD</w>": 36436,
  "HBE</w>": 30529,
  "HBG</w>": 48173,
  "HBO</w>": 32200,
  "HBP</w>": 26460,
  "HBS</w>": 35187,
  "HBSS</w>": 18511,
  "HBV</w>": 2870,
  "HBc": 39322,
  "HBc</w>": 25328,
  "HBe": 49610,
  "HBeAg</w>": 15887,
  "HBs": 47359,
  "HBs</w>": 18954,
  "HBsAg</w>": 9076,
  "HBx</w>": 19530,
  "HC": 4523,
  "HC1</w>": 30930,
  "HC</w>": 4312,
  "HCA</w>": 20919,
  "HCB</w>": 40476,
  "HCC1</w>": 29683,
  "HCC8</w>": 38507,
  "HCC</w>": 2405,
  "HCCs</w>": 24939,
  "HCD</w>": 36717,
  "HCF</w>": 33068,
  "HCG</w>": 26227,
  "HCH</w>": 33443,
  "HCL</w>": 27529,
  "HCM</w>": 14611,
  "HCMV</w>": 8883,
  "HCN</w>": 23996,
  "HCO": 46719,
  "HCO3-</w>": 30213,
  "HCO3</w>": 19186,
  "HCO</w>": 27167,
  "HCP</w>": 34301,
  "HCPs</w>": 43386,
  "HCQ</w>": 44175,
  "HCS</w>": 33216,
  "HCT1</w>": 7672,
  "HCT</w>": 10472,
  "HCV": 40565,
  "HCV</w>": 1820,
  "HCWs</w>": 36138,
  "HCl</w>": 2558,
  "HCs</w>": 12952,
  "HD": 4332,
  "HD1</w>": 23717,
  "HD2</w>": 36784,
  "HD</w>": 2860,
  "HDA</w>": 45329,
  "HDAC": 19337,
  "HDAC1</w>": 11249,
  "HDAC2</w>": 20514,
  "HDAC3</w>": 18333,
  "HDAC4</w>": 22002,
  "HDAC5</w>": 33086,
  "HDAC6</w>": 15296,
  "HDAC8</w>": 40291,
  "HDAC</w>": 6656,
  "HDACi</w>": 21588,
  "HDACs</w>": 11922,
  "HDC</w>": 40878,
  "HDF</w>": 33803,
  "HDL</w>": 3899,
  "HDM2</w>": 41761,
  "HDM</w>": 31829,
  "HDR</w>": 17867,
  "HDV</w>": 20804,
  "HDX</w>": 38729,
  "HE": 4054,
  "HE</w>": 9233,
  "HEAL": 48404,
  "HEALTH</w>": 41391,
  "HEAT</w>": 43312,
  "HEC</w>": 37717,
  "HECT</w>": 32448,
  "HEK2</w>": 3747,
  "HEK</w>": 6499,
  "HEL": 34158,
  "HEL</w>": 24178,
  "HEMA</w>": 37647,
  "HEPES</w>": 4843,
  "HER": 13254,
  "HER2</w>": 3251,
  "HER3</w>": 19304,
  "HER</w>": 10563,
  "HERG</w>": 35141,
  "HERV</w>": 30661,
  "HES</w>": 23487,
  "HESIS</w>": 50363,
  "HET": 41734,
  "HET</w>": 39822,
  "HETE</w>": 23254,
  "HEV</w>": 14617,
  "HEX": 33363,
  "HEp</w>": 29472,
  "HF": 6766,
  "HF</w>": 3485,
  "HFD</w>": 9302,
  "HFE</w>": 25192,
  "HFF</w>": 38985,
  "HFR</w>": 48839,
  "HFS</w>": 27150,
  "HFV</w>": 39700,
  "HFpEF</w>": 43138,
  "HG": 11747,
  "HG</w>": 9714,
  "HGF</w>": 6950,
  "HGPS</w>": 35897,
  "HH": 21112,
  "HH</w>": 9452,
  "HHT</w>": 34770,
  "HHV</w>": 15885,
  "HI": 3397,
  "HI</w>": 6423,
  "HIAA</w>": 31445,
  "HIE</w>": 39676,
  "HIF": 23100,
  "HIF1α</w>": 18745,
  "HIF2α</w>": 43949,
  "HIF</w>": 3053,
  "HIFU</w>": 36432,
  "HIM</w>": 38280,
  "HIP</w>": 23381,
  "HIPK2</w>": 34411,
  "HIS3</w>": 28168,
  "HIS</w>": 18260,
  "HIST": 41489,
  "HIT</w>": 17099,
  "HIV": 25576,
  "HIV</w>": 479,
  "HJ</w>": 28989,
  "HK": 14679,
  "HK1</w>": 36192,
  "HK2</w>": 25205,
  "HK</w>": 12537,
  "HL": 9402,
  "HL1</w>": 40021,
  "HL6</w>": 24034,
  "HL</w>": 4726,
  "HLA</w>": 2059,
  "HLH</w>": 21552,
  "HM": 5290,
  "HM</w>": 10538,
  "HMB</w>": 43162,
  "HMC</w>": 34858,
  "HMEC</w>": 34810,
  "HMF</w>": 44237,
  "HMG": 23398,
  "HMG</w>": 12488,
  "HMGA1</w>": 43013,
  "HMGA2</w>": 31774,
  "HMGB1</w>": 10466,
  "HMM</w>": 23447,
  "HMO</w>": 36690,
  "HMR</w>": 39314,
  "HMW</w>": 23448,
  "HN": 11421,
  "HN</w>": 10684,
  "HNC</w>": 31499,
  "HNE</w>": 17117,
  "HNF": 16836,
  "HNF4α</w>": 27860,
  "HNF</w>": 26221,
  "HNPCC</w>": 34826,
  "HNSCC</w>": 9843,
  "HO": 4262,
  "HO</w>": 3779,
  "HOCl</w>": 38056,
  "HOMA</w>": 15059,
  "HOMO</w>": 35137,
  "HON</w>": 49874,
  "HOS</w>": 33142,
  "HOT": 47766,
  "HOTAIR</w>": 33051,
  "HOX": 16782,
  "HOX</w>": 32559,
  "HOXA1</w>": 42402,
  "HOXA9</w>": 41800,
  "HP": 4472,
  "HP1</w>": 17455,
  "HP1α</w>": 39984,
  "HP</w>": 5681,
  "HPA": 28432,
  "HPA</w>": 11916,
  "HPAI</w>": 33274,
  "HPC</w>": 23503,
  "HPCs</w>": 41493,
  "HPD</w>": 41149,
  "HPE</w>": 43844,
  "HPG</w>": 35420,
  "HPI": 41515,
  "HPLC</w>": 3063,
  "HPMC</w>": 38736,
  "HPO4</w>": 39709,
  "HPO</w>": 40266,
  "HPP</w>": 36566,
  "HPR</w>": 28521,
  "HPRT</w>": 30502,
  "HPS</w>": 25016,
  "HPT</w>": 20643,
  "HPV1</w>": 10784,
  "HPV</w>": 2856,
  "HPVs</w>": 40965,
  "HPr</w>": 38979,
  "HQ</w>": 15365,
  "HR": 5534,
  "HR1</w>": 23179,
  "HR2</w>": 30209,
  "HR</w>": 1437,
  "HRAS</w>": 29504,
  "HRCT</w>": 32545,
  "HRE</w>": 28081,
  "HRF1</w>": 47953,
  "HRG</w>": 34021,
  "HRH</w>": 48269,
  "HRM</w>": 28567,
  "HRMS</w>": 17121,
  "HRP</w>": 5367,
  "HRQL</w>": 30467,
  "HRQOL</w>": 17806,
  "HRQoL</w>": 14578,
  "HRR</w>": 29183,
  "HRS</w>": 30742,
  "HRT</w>": 14776,
  "HRV</w>": 12455,
  "HRs</w>": 17633,
  "HS": 5239,
  "HS1</w>": 43794,
  "HS</w>": 3256,
  "HSA</w>": 10945,
  "HSC": 34295,
  "HSC</w>": 8990,
  "HSCT</w>": 11174,
  "HSCs</w>": 8476,
  "HSD1</w>": 22263,
  "HSD</w>": 17218,
  "HSE</w>": 38148,
  "HSF1</w>": 15311,
  "HSF</w>": 26139,
  "HSL</w>": 24929,
  "HSP": 15139,
  "HSP1</w>": 41166,
  "HSP2</w>": 21646,
  "HSP6</w>": 34787,
  "HSP7</w>": 10836,
  "HSP9</w>": 10772,
  "HSP</w>": 12869,
  "HSPA": 34527,
  "HSPC</w>": 34688,
  "HSPCs</w>": 26272,
  "HSPG</w>": 41360,
  "HSPs</w>": 25323,
  "HSQC</w>": 17866,
  "HSR</w>": 30578,
  "HSS</w>": 40255,
  "HSV1</w>": 43297,
  "HSV</w>": 3832,
  "HT": 5592,
  "HT1</w>": 18190,
  "HT1A</w>": 18490,
  "HT2</w>": 12010,
  "HT2A</w>": 26942,
  "HT3</w>": 27602,
  "HT</w>": 2380,
  "HTA</w>": 37737,
  "HTH</w>": 40991,
  "HTLV</w>": 8665,
  "HTN</w>": 29392,
  "HTP</w>": 34798,
  "HTR": 33018,
  "HTS</w>": 16973,
  "HTT</w>": 18360,
  "HTTLPR</w>": 40466,
  "HU": 11079,
  "HU</w>": 8281,
  "HUMAN</w>": 41447,
  "HUS</w>": 27560,
  "HUV": 48442,
  "HUVEC</w>": 13871,
  "HUVECs</w>": 11694,
  "HV": 15385,
  "HV</w>": 9807,
  "HVA</w>": 29091,
  "HVEM</w>": 43861,
  "HW</w>": 35379,
  "HWE</w>": 39958,
  "HX": 18627,
  "HX</w>": 37203,
  "HY": 8556,
  "HY</w>": 35682,
  "HYPO": 45288,
  "HYPOTHE": 50013,
  "HYPOTHESIS</w>": 19467,
  "HZ</w>": 33276,
  "Ha": 6509,
  "Ha</w>": 18325,
  "HaCaT</w>": 19496,
  "Hab": 28691,
  "Habit": 43824,
  "Had": 38593,
  "Haem": 14192,
  "Haemat": 37135,
  "Haemophilus</w>": 16132,
  "Hag": 39660,
  "Hair</w>": 35017,
  "Hal": 9932,
  "Half</w>": 15114,
  "Hall": 37128,
  "Hall</w>": 17605,
  "Halo": 40934,
  "Ham": 13363,
  "Ham</w>": 31095,
  "Hamamatsu</w>": 30757,
  "Hamburg</w>": 32185,
  "Hamil": 48059,
  "Hamilton</w>": 18413,
  "Hamiltonian</w>": 29738,
  "Han": 13350,
  "Han</w>": 11570,
  "Hand": 25272,
  "Hand</w>": 19981,
  "Hanks</w>": 39200,
  "Hansen</w>": 36601,
  "Hap": 28617,
  "HapMap</w>": 32905,
  "Hapl": 41054,
  "Haplotype</w>": 36244,
  "Har": 7215,
  "Harbor</w>": 28149,
  "Hard": 41808,
  "Hardy</w>": 20592,
  "Harlan</w>": 38393,
  "Harris</w>": 20088,
  "Hart": 32504,
  "Hartmann</w>": 42781,
  "Harv": 42987,
  "Harvard</w>": 22377,
  "Has": 25813,
  "Hash": 49216,
  "Hashimoto</w>": 27035,
  "Hat": 28357,
  "Have</w>": 37374,
  "Having</w>": 13005,
  "Haw": 37532,
  "Hawa": 47770,
  "Hawai": 43975,
  "Hawaii</w>": 36745,
  "Hay": 19919,
  "Haz": 37850,
  "Hazard</w>": 31706,
  "Hb": 11394,
  "Hb</w>": 5948,
  "HbA1c</w>": 8594,
  "HbA</w>": 27516,
  "HbF</w>": 38996,
  "Hc": 39677,
  "Hck</w>": 42333,
  "Hcy</w>": 14920,
  "Hd": 40537,
  "Hdac": 32174,
  "He": 4674,
  "He</w>": 4586,
  "HeJ</w>": 41407,
  "HeLa</w>": 2546,
  "Head": 45194,
  "Head</w>": 14985,
  "Headache</w>": 31763,
  "Heal": 45938,
  "Healing</w>": 33549,
  "Health": 44640,
  "Health</w>": 1113,
  "Healthcare</w>": 4753,
  "Healthy</w>": 13149,
  "Hear": 27335,
  "Hearing</w>": 22594,
  "Heart</w>": 5696,
  "Heat</w>": 14293,
  "Heavy</w>": 26575,
  "Hec": 42929,
  "Hed": 44402,
  "Hedgehog</w>": 20485,
  "Hei": 44097,
  "Heidelberg</w>": 22039,
  "Height</w>": 39573,
  "Hein": 38032,
  "Hel": 9897,
  "Hela</w>": 33373,
  "Helic": 32154,
  "Helicobacter</w>": 8754,
  "Helix</w>": 28150,
  "Helsin": 51536,
  "Helsinki</w>": 17495,
  "Hem": 7670,
  "Hemat": 19810,
  "Hematology</w>": 42089,
  "Hematopoietic</w>": 31826,
  "Hematoxylin</w>": 39247,
  "Heme</w>": 36967,
  "Hemip": 50248,
  "Hemiptera</w>": 42999,
  "Hemis": 39441,
  "Hemodynamic</w>": 24208,
  "Hemoglobin</w>": 31651,
  "Hemorrh": 42234,
  "Hemorrhage</w>": 40471,
  "Hen": 13224,
  "Hence</w>": 3734,
  "Hend": 31172,
  "Henry</w>": 34217,
  "Hep": 13071,
  "Hep3B</w>": 28649,
  "Hep</w>": 22156,
  "HepG2</w>": 6085,
  "Hepa": 39561,
  "Heparin</w>": 22913,
  "Hepat": 19538,
  "Hepati": 50139,
  "Hepatic</w>": 11911,
  "Hepatitis</w>": 10560,
  "Hepatocellular</w>": 23345,
  "Hepatocyte</w>": 38527,
  "Hepes</w>": 13150,
  "Her": 6706,
  "Her2</w>": 22517,
  "Her</w>": 13268,
  "Herc": 47911,
  "Herceptin</w>": 41853,
  "Hercul": 49136,
  "Hercules</w>": 15243,
  "Here": 33388,
  "Here</w>": 682,
  "Hereditary</w>": 22616,
  "Herein</w>": 5983,
  "Herpes": 44011,
  "Herpes</w>": 24015,
  "Hes": 30539,
  "Hes1</w>": 34292,
  "Hetero": 11637,
  "Heterogene": 50618,
  "Heterogeneity</w>": 25266,
  "Heterogeneous</w>": 44181,
  "Heterozygous</w>": 31745,
  "Hex": 17581,
  "Hex</w>": 38655,
  "Hf": 35805,
  "Hfq</w>": 39485,
  "Hg": 17827,
  "Hg</w>": 3512,
  "Hh</w>": 10195,
  "Hi": 9564,
  "Hi</w>": 25069,
  "HiSeq</w>": 26402,
  "Hib</w>": 35067,
  "Hid": 36949,
  "Hierarch": 47900,
  "Hierarchical</w>": 23351,
  "Hig": 25920,
  "High": 32753,
  "High</w>": 1956,
  "Higher</w>": 7024,
  "Highest</w>": 42590,
  "Highlights</w>": 30096,
  "Highly</w>": 12539,
  "Hil": 21776,
  "Hilden</w>": 27322,
  "Hill</w>": 11857,
  "Him": 35314,
  "Hin": 21010,
  "Hind": 40623,
  "HindIII</w>": 11290,
  "Hip": 32608,
  "Hip</w>": 19439,
  "Hipp": 46066,
  "Hippel</w>": 32655,
  "Hippo</w>": 15769,
  "Hippocamp": 46185,
  "Hippocampal</w>": 26458,
  "Hir": 20266,
  "Hiro": 41500,
  "Hirsch": 46842,
  "Hirschsprung</w>": 37638,
  "His": 9468,
  "His1</w>": 19880,
  "His2</w>": 29222,
  "His3</w>": 38448,
  "His6</w>": 9922,
  "His</w>": 2545,
  "Hispan": 49580,
  "Hispanic</w>": 8376,
  "Hispanics</w>": 21966,
  "Hist": 12197,
  "Histamine</w>": 31465,
  "Histochemical</w>": 31142,
  "Histologic</w>": 19076,
  "Histological</w>": 9610,
  "Histologically</w>": 20940,
  "Histology</w>": 25237,
  "Histone</w>": 13443,
  "Histopathologic</w>": 32924,
  "Histopathological</w>": 18359,
  "Histopathology</w>": 30155,
  "Histor": 50662,
  "Historical</w>": 34588,
  "Historically</w>": 27344,
  "History</w>": 18491,
  "Hit": 45773,
  "Hitachi</w>": 39475,
  "Hm": 41427,
  "Ho": 7329,
  "Ho</w>": 21959,
  "Hoch": 45961,
  "Hochberg</w>": 33488,
  "Hod": 46946,
  "Hodg": 46420,
  "Hodgkin</w>": 6130,
  "Hoech": 48805,
  "Hoechst</w>": 12696,
  "Hof": 32427,
  "Hoff": 27129,
  "Hog": 42923,
  "Hog1</w>": 32563,
  "Hol": 8094,
  "Holliday</w>": 37502,
  "Holstein</w>": 20383,
  "Holter</w>": 28153,
  "Hom": 12022,
  "Home": 27935,
  "Home</w>": 15753,
  "Homo": 40718,
  "Homo</w>": 26492,
  "Homogen": 35003,
  "Homologous</w>": 37260,
  "Homology</w>": 33471,
  "Homozygous</w>": 27288,
  "Hon": 29805,
  "Hong</w>": 11666,
  "Hop": 18953,
  "Hopkins</w>": 24621,
  "Hor": 10690,
  "Horiz": 29544,
  "Hormon": 46206,
  "Hormonal</w>": 30450,
  "Hormone</w>": 23664,
  "Horseradish</w>": 42454,
  "Hos": 28010,
  "Hospit": 24114,
  "Hospital</w>": 2100,
  "Hospitals</w>": 18628,
  "Host</w>": 19094,
  "Hot": 33954,
  "Hot</w>": 35996,
  "Hou": 46795,
  "Hous": 47499,
  "House": 35750,
  "House</w>": 30326,
  "Houston</w>": 25557,
  "How": 36940,
  "How</w>": 4504,
  "Howard</w>": 41674,
  "However</w>": 151,
  "Hox": 14671,
  "Hox</w>": 20598,
  "Hp": 21829,
  "Hp</w>": 21542,
  "Hpa": 31895,
  "Hr": 17857,
  "Hrs</w>": 41933,
  "Hs": 9368,
  "Hs0</w>": 25521,
  "Hs</w>": 8726,
  "Hsc7</w>": 22561,
  "Hsl": 41873,
  "Hsp": 18144,
  "Hsp1</w>": 22228,
  "Hsp2</w>": 22269,
  "Hsp4</w>": 34702,
  "Hsp6</w>": 38894,
  "Hsp7</w>": 7779,
  "Hsp9</w>": 5902,
  "Hsp</w>": 39898,
  "Htr": 23946,
  "Htt</w>": 19668,
  "Hu": 6629,
  "Hu</w>": 16074,
  "HuR</w>": 13724,
  "Huang</w>": 13377,
  "Hub": 26278,
  "Hud": 43977,
  "Hug": 45670,
  "Hughes</w>": 35526,
  "Huh7</w>": 16010,
  "Huh</w>": 24010,
  "Hum": 15593,
  "Human": 31511,
  "Human</w>": 1892,
  "Humans</w>": 30733,
  "Hun": 28048,
  "Hung": 47647,
  "Hungarian</w>": 35819,
  "Hungary</w>": 27514,
  "Hunter</w>": 28976,
  "Hunting": 46440,
  "Huntington</w>": 13380,
  "Hur": 26073,
  "Hus": 30887,
  "Hut": 27422,
  "Hv": 35820,
  "Hx": 32224,
  "Hx</w>": 44212,
  "Hy": 7119,
  "HyClone</w>": 36127,
  "Hyal": 43779,
  "Hyalu": 37682,
  "Hybond</w>": 37708,
  "Hybri": 45270,
  "Hybrid</w>": 18837,
  "Hybridi": 48086,
  "Hybridization</w>": 25857,
  "Hybridoma</w>": 37118,
  "Hyclone</w>": 34600,
  "Hydr": 40721,
  "Hydro": 8670,
  "Hydrogen</w>": 17113,
  "Hydrolysis</w>": 39748,
  "Hydrox": 32225,
  "Hydroxy": 17922,
  "Hygi": 31985,
  "Hym": 42381,
  "Hymenoptera</w>": 37294,
  "Hyp": 9376,
  "Hyp</w>": 34346,
  "Hyper": 5235,
  "Hypertension</w>": 13237,
  "Hypertensive</w>": 43845,
  "Hypo": 9512,
  "Hypox": 32133,
  "Hypoxia</w>": 16343,
  "Hz</w>": 1929,
  "I": 471,
  "I-</w>": 26862,
  "I.": 15285,
  "I.</w>": 3622,
  "I0</w>": 41306,
  "I1</w>": 6375,
  "I2</w>": 7736,
  "I3</w>": 11792,
  "I4</w>": 19338,
  "I5</w>": 17666,
  "I6</w>": 26678,
  "I7</w>": 35294,
  "I8</w>": 41303,
  "I</w>": 180,
  "IA</w>": 5606,
  "IAA</w>": 16149,
  "IAC": 49254,
  "IACUC</w>": 25439,
  "IAP</w>": 13880,
  "IAPP</w>": 23613,
  "IAPs</w>": 41282,
  "IAV</w>": 12037,
  "IB": 17870,
  "IB</w>": 9534,
  "IBA</w>": 40722,
  "IBC</w>": 30708,
  "IBD</w>": 6111,
  "IBDV</w>": 40852,
  "IBM": 46380,
  "IBM</w>": 22095,
  "IBMX</w>": 29783,
  "IBS</w>": 12556,
  "IBV</w>": 30150,
  "IC": 3763,
  "IC1</w>": 28354,
  "IC2</w>": 33006,
  "IC5</w>": 2759,
  "IC</w>": 3316,
  "ICA": 18400,
  "ICA</w>": 10695,
  "ICAL</w>": 49013,
  "ICAM</w>": 7776,
  "ICC</w>": 8771,
  "ICCs</w>": 37766,
  "ICD</w>": 7079,
  "ICE</w>": 17466,
  "ICER</w>": 36251,
  "ICF</w>": 27861,
  "ICG</w>": 19082,
  "ICH</w>": 12225,
  "ICI</w>": 17204,
  "ICL</w>": 21538,
  "ICM</w>": 24601,
  "ICN</w>": 42077,
  "ICOS</w>": 33037,
  "ICP0</w>": 20112,
  "ICP2</w>": 28493,
  "ICP4</w>": 38569,
  "ICP</w>": 9500,
  "ICR</w>": 16769,
  "ICS</w>": 14311,
  "ICSI</w>": 20216,
  "ICT</w>": 27176,
  "ICU</w>": 5298,
  "ICUs</w>": 23078,
  "ICV</w>": 32276,
  "ICa</w>": 30141,
  "ICs</w>": 12558,
  "ID": 6701,
  "ID1</w>": 42104,
  "ID5</w>": 34232,
  "ID</w>": 3506,
  "IDA</w>": 27342,
  "IDC</w>": 28035,
  "IDD</w>": 39168,
  "IDDM</w>": 22160,
  "IDE</w>": 21783,
  "IDH1</w>": 11796,
  "IDH2</w>": 25197,
  "IDH</w>": 16779,
  "IDO1</w>": 37549,
  "IDO</w>": 19963,
  "IDS</w>": 29961,
  "IDT</w>": 39126,
  "IDU": 47230,
  "IDUs</w>": 35021,
  "IDs</w>": 31832,
  "IE": 40076,
  "IE1</w>": 26196,
  "IE2</w>": 37014,
  "IE</w>": 11611,
  "IEC</w>": 23742,
  "IECs</w>": 42617,
  "IEF</w>": 37406,
  "IF": 4801,
  "IF1</w>": 21166,
  "IF</w>": 7540,
  "IFA</w>": 22828,
  "IFG</w>": 31083,
  "IFI": 34307,
  "IFI1</w>": 34523,
  "IFICA": 47819,
  "IFIT": 29229,
  "IFITM3</w>": 42223,
  "IFN": 14315,
  "IFN</w>": 1142,
  "IFNAR1</w>": 35859,
  "IFNAR</w>": 41504,
  "IFNgamma</w>": 39381,
  "IFNs</w>": 15699,
  "IFNα</w>": 20796,
  "IFNβ</w>": 24037,
  "IFNγ</w>": 10979,
  "IFT</w>": 19833,
  "IFs</w>": 40825,
  "IG": 11324,
  "IG</w>": 19099,
  "IGF": 12570,
  "IGF1</w>": 19628,
  "IGF1R</w>": 17747,
  "IGF2</w>": 26146,
  "IGF</w>": 2387,
  "IGFBP</w>": 9591,
  "IGFs</w>": 42460,
  "IGT</w>": 26958,
  "IH</w>": 17838,
  "IHC</w>": 6292,
  "IHD</w>": 23524,
  "II": 4433,
  "II</w>": 258,
  "IIA</w>": 11120,
  "IIB</w>": 18922,
  "III": 13038,
  "III</w>": 751,
  "IIIA</w>": 23913,
  "IIIB</w>": 19035,
  "IIIa</w>": 14371,
  "IIIb</w>": 35180,
  "IIS</w>": 40048,
  "IIa</w>": 12567,
  "IIb": 48024,
  "IIb</w>": 12874,
  "IIα</w>": 27142,
  "IK": 9866,
  "IK</w>": 27924,
  "IKK": 25710,
  "IKK</w>": 11876,
  "IKKα</w>": 19783,
  "IKKβ</w>": 15884,
  "IKKε</w>": 39937,
  "IL": 4826,
  "IL1": 37624,
  "IL1</w>": 9427,
  "IL2</w>": 14041,
  "IL3</w>": 32366,
  "IL4</w>": 34748,
  "IL6</w>": 15976,
  "IL8</w>": 34899,
  "IL</w>": 311,
  "ILC</w>": 40546,
  "ILD</w>": 21730,
  "ILI": 44968,
  "ILI</w>": 35519,
  "ILITY</w>": 46804,
  "ILK</w>": 19460,
  "ILs</w>": 28417,
  "IM": 6365,
  "IM1</w>": 43464,
  "IM</w>": 6572,
  "IMA</w>": 30297,
  "IMAC</w>": 40322,
  "IMC</w>": 40341,
  "IMD</w>": 37648,
  "IMM": 43011,
  "IMP": 41338,
  "IMP</w>": 19025,
  "IMPACT</w>": 25202,
  "IMPLICATIONS</w>": 12816,
  "IMPORT": 50120,
  "IMPORTANCE</w>": 21700,
  "IMR": 43541,
  "IMR</w>": 31898,
  "IMRT</w>": 15807,
  "IMS</w>": 22941,
  "IMT</w>": 14199,
  "IN": 2154,
  "IN1</w>": 20987,
  "IN2</w>": 27589,
  "IN</w>": 2375,
  "IND</w>": 40926,
  "INDU": 44208,
  "INE</w>": 14202,
  "INF": 32438,
  "INF</w>": 34641,
  "INFO</w>": 47526,
  "ING</w>": 9711,
  "INH</w>": 17240,
  "INK": 41631,
  "INK4A</w>": 33564,
  "INK4a</w>": 21946,
  "INR</w>": 19295,
  "INS</w>": 12508,
  "INT": 27399,
  "INT</w>": 27124,
  "INTE": 29897,
  "INTER": 35964,
  "INTERPRE": 50268,
  "INTERPRETATION</w>": 16137,
  "INTERVEN": 51135,
  "INTERVENTION</w>": 14639,
  "INTERVENTIONS</w>": 13016,
  "INTRO</w>": 13671,
  "INTRODUCTION</w>": 3495,
  "INTS</w>": 50255,
  "INa</w>": 29898,
  "INs</w>": 29529,
  "IO": 13789,
  "IO</w>": 18024,
  "IOL</w>": 15762,
  "IOLs</w>": 38313,
  "ION": 41226,
  "ION</w>": 31487,
  "IOP</w>": 8441,
  "IP": 7159,
  "IP1</w>": 18107,
  "IP2</w>": 41078,
  "IP3": 29005,
  "IP3</w>": 12977,
  "IP3R</w>": 28245,
  "IP6</w>": 37338,
  "IP</w>": 2950,
  "IPA</w>": 15439,
  "IPC</w>": 21938,
  "IPD</w>": 29679,
  "IPF</w>": 13142,
  "IPI</w>": 33118,
  "IPL</w>": 33463,
  "IPMN</w>": 41111,
  "IPP</w>": 28744,
  "IPS</w>": 24211,
  "IPSC</w>": 34189,
  "IPSCs</w>": 22984,
  "IPSS</w>": 30327,
  "IPT</w>": 38558,
  "IPTG</w>": 10720,
  "IPV</w>": 17329,
  "IPs</w>": 22523,
  "IQ": 19144,
  "IQ</w>": 10464,
  "IQGAP1</w>": 26355,
  "IQR</w>": 9035,
  "IR": 4857,
  "IR</w>": 2039,
  "IRA": 22118,
  "IRAK1</w>": 38440,
  "IRAK</w>": 28897,
  "IRB</w>": 20360,
  "IRDye</w>": 38650,
  "IRE": 22439,
  "IRE1</w>": 23144,
  "IRE1α</w>": 22564,
  "IRE</w>": 22784,
  "IRES</w>": 9580,
  "IRF1</w>": 31978,
  "IRF3</w>": 12651,
  "IRF4</w>": 29688,
  "IRF5</w>": 38725,
  "IRF7</w>": 25841,
  "IRF</w>": 10223,
  "IRI</w>": 21977,
  "IRIS</w>": 41324,
  "IRR</w>": 25836,
  "IRS1</w>": 26424,
  "IRS</w>": 9683,
  "IRT</w>": 42737,
  "IS": 7720,
  "IS1</w>": 32001,
  "IS</w>": 5581,
  "ISC": 44266,
  "ISC</w>": 28070,
  "ISG1</w>": 20707,
  "ISG</w>": 29356,
  "ISGs</w>": 24368,
  "ISH</w>": 23355,
  "ISI</w>": 26376,
  "ISM</w>": 42644,
  "ISO": 34678,
  "ISO</w>": 14364,
  "ISP</w>": 44253,
  "ISR": 49721,
  "ISR</w>": 26850,
  "ISRCT": 35120,
  "ISRE</w>": 37642,
  "ISS</w>": 16994,
  "IST</w>": 34337,
  "IT": 5137,
  "IT</w>": 7189,
  "ITAM</w>": 31616,
  "ITC</w>": 11434,
  "ITD</w>": 14937,
  "ITG": 25842,
  "ITO</w>": 32850,
  "ITP</w>": 18567,
  "ITS1</w>": 44195,
  "ITS2</w>": 43283,
  "ITS</w>": 14967,
  "ITT</w>": 29709,
  "ITY</w>": 18661,
  "IU": 15886,
  "IU</w>": 6156,
  "IUD</w>": 30278,
  "IUGR</w>": 21246,
  "IV": 5563,
  "IV</w>": 1272,
  "IVA</w>": 27568,
  "IVC</w>": 20201,
  "IVD</w>": 36530,
  "IVF</w>": 10333,
  "IVH</w>": 40149,
  "IVIG</w>": 21584,
  "IVIg</w>": 34772,
  "IVM</w>": 27920,
  "IVS</w>": 40575,
  "IVT</w>": 38304,
  "IVUS</w>": 29189,
  "IX</w>": 7144,
  "Ia</w>": 11046,
  "Ib": 25367,
  "Ib</w>": 15686,
  "Iba1</w>": 43602,
  "Ic": 33054,
  "Icel": 45474,
  "Iceland</w>": 43450,
  "Id": 40653,
  "Id1</w>": 34340,
  "Id2</w>": 35274,
  "Id</w>": 23202,
  "Ide": 39344,
  "Ideally</w>": 37750,
  "Iden": 50546,
  "Identi": 25587,
  "Identical</w>": 36589,
  "Identification</w>": 4756,
  "Identified</w>": 40236,
  "Identifier</w>": 41396,
  "Identifying</w>": 14445,
  "Idi": 47353,
  "Idiopathic</w>": 20084,
  "If": 23650,
  "If</w>": 2292,
  "Ig": 6602,
  "Ig</w>": 6071,
  "IgA1</w>": 41472,
  "IgA</w>": 5179,
  "IgAN</w>": 31287,
  "IgD</w>": 27680,
  "IgE</w>": 4551,
  "IgG": 32003,
  "IgG1</w>": 8386,
  "IgG2</w>": 26916,
  "IgG2a</w>": 20793,
  "IgG2b</w>": 37524,
  "IgG3</w>": 26962,
  "IgG4</w>": 14367,
  "IgG</w>": 1483,
  "IgGs</w>": 30128,
  "IgH</w>": 31555,
  "IgM</w>": 4479,
  "Ih</w>": 43870,
  "Ik": 25250,
  "IkappaB</w>": 44254,
  "Ikaros</w>": 33262,
  "Il": 15630,
  "Il1</w>": 37069,
  "Il</w>": 38975,
  "Ile": 14838,
  "Ile1</w>": 34261,
  "Ile</w>": 9609,
  "Ill": 32160,
  "Illin": 51760,
  "Illinois</w>": 28326,
  "Illness</w>": 29828,
  "Illu": 37643,
  "Illumina</w>": 6670,
  "Im": 4447,
  "Im</w>": 31025,
  "Image": 43207,
  "Image</w>": 7745,
  "ImageJ</w>": 8930,
  "ImageQuant</w>": 36605,
  "Imager</w>": 29559,
  "Images</w>": 7023,
  "Imaging</w>": 5597,
  "Imatinib</w>": 26694,
  "Immediate</w>": 21136,
  "Immediately</w>": 19883,
  "Immobil": 48446,
  "Immobilon</w>": 31088,
  "Immun": 7868,
  "Immune</w>": 10975,
  "Immunity</w>": 37141,
  "Immunization</w>": 22799,
  "Immuno": 9842,
  "Immuno</w>": 35322,
  "ImmunoResearch</w>": 19364,
  "Immunob": 50229,
  "Immunoblot</w>": 21736,
  "Immunoblots</w>": 40477,
  "Immunoblotting</w>": 18577,
  "Immunocyto": 50233,
  "Immunocytochemical</w>": 34108,
  "Immunocytochemistry</w>": 39051,
  "Immunodeficiency</w>": 43703,
  "Immunofluorescence</w>": 13415,
  "Immunofluorescent</w>": 43065,
  "Immunoglobulin</w>": 29611,
  "Immunohisto": 45360,
  "Immunohistochemical</w>": 9607,
  "Immunohistochemistry</w>": 12473,
  "Immunologic</w>": 42509,
  "Immunological</w>": 23803,
  "Immunology</w>": 33175,
  "Immunoprecip": 24797,
  "Immunoprecipitation</w>": 16217,
  "Immunoreactive</w>": 37629,
  "Immunoreactivity</w>": 42838,
  "Immunostaining</w>": 21413,
  "Immunotherapy</w>": 31439,
  "Imp": 18098,
  "Impact</w>": 6977,
  "Impair": 47190,
  "Impaired</w>": 16614,
  "Impairment</w>": 22315,
  "Implant</w>": 30156,
  "Implantation</w>": 32900,
  "Implem": 49476,
  "Implementation</w>": 18163,
  "Implementing</w>": 38715,
  "Implications</w>": 10292,
  "Import": 50619,
  "Importance</w>": 18341,
  "Important</w>": 18668,
  "Importantly</w>": 2834,
  "Impro": 37955,
  "Improve</w>": 39013,
  "Improved</w>": 11802,
  "Improvement</w>": 11942,
  "Improvements</w>": 24294,
  "Improving</w>": 13906,
  "Impul": 43052,
  "In": 1406,
  "In</w>": 56,
  "Inactivation</w>": 19010,
  "Inc": 18540,
  "Inc</w>": 2565,
  "Incid": 33881,
  "Incidence</w>": 10662,
  "Incident</w>": 43116,
  "Includ": 49859,
  "Included</w>": 30011,
  "Including</w>": 36516,
  "Inclusion</w>": 17361,
  "Incomplete</w>": 43188,
  "Incorpor": 46314,
  "Incorporating</w>": 41115,
  "Incorporation</w>": 21452,
  "Incre": 29498,
  "Increase</w>": 19396,
  "Increased</w>": 4036,
  "Increases</w>": 18516,
  "Increasing</w>": 7295,
  "Incub": 45058,
  "Incubation</w>": 12536,
  "Ind": 31664,
  "Inde": 46172,
  "Indeed</w>": 2198,
  "Independent</w>": 13259,
  "Index</w>": 5094,
  "Indi": 47369,
  "India</w>": 4969,
  "Indian": 50762,
  "Indian</w>": 7070,
  "Indiana</w>": 32593,
  "Indianapolis</w>": 20434,
  "Indians</w>": 23656,
  "Indic": 18444,
  "Indications</w>": 18746,
  "Indigenous</w>": 23178,
  "Indirect</w>": 22096,
  "Individ": 36042,
  "Individual</w>": 8804,
  "Individuals</w>": 10872,
  "Indo</w>": 41607,
  "Indomethacin</w>": 40942,
  "Indon": 44862,
  "Indonesia</w>": 23105,
  "Indu": 48922,
  "Induc": 23480,
  "Induced</w>": 10768,
  "Inducible</w>": 39607,
  "Induction</w>": 9000,
  "Industrial</w>": 35510,
  "Industries</w>": 43358,
  "Industry</w>": 34601,
  "Ine": 40811,
  "Inf": 14019,
  "Infant</w>": 21009,
  "Infants</w>": 17442,
  "Infarc": 45014,
  "Infarction</w>": 30118,
  "Infected</w>": 22381,
  "Infection</w>": 8311,
  "Infections</w>": 18179,
  "Infectious</w>": 15261,
  "Inflam": 45834,
  "Inflammation</w>": 16374,
  "Inflammatory</w>": 12597,
  "Influ": 31290,
  "Influence</w>": 6608,
  "Influenza</w>": 14461,
  "Inform": 32874,
  "Information</w>": 4170,
  "Informed</w>": 25253,
  "Infr": 39910,
  "Infra": 48332,
  "Infrared</w>": 21998,
  "Infusion</w>": 28436,
  "Ing": 38730,
  "Ingenuity</w>": 27532,
  "Inhaled</w>": 42250,
  "Inher": 44618,
  "Inherited</w>": 43145,
  "Inhi": 47312,
  "Inhibi": 46624,
  "Inhibit": 50707,
  "Inhibiting</w>": 32835,
  "Inhibition</w>": 4315,
  "Inhibitor</w>": 16032,
  "Inhibitors</w>": 16849,
  "Inhibitory</w>": 19831,
  "Initi": 41125,
  "Initial</w>": 7365,
  "Initially</w>": 11912,
  "Initiation</w>": 32721,
  "Initiative</w>": 17825,
  "Inj": 37830,
  "Injection</w>": 16382,
  "Injections</w>": 40379,
  "Injuries</w>": 27485,
  "Injury</w>": 11028,
  "Ink": 46308,
  "Ink4a</w>": 38851,
  "Innate</w>": 36968,
  "Inner</w>": 38830,
  "Innov": 40566,
  "Innovation</w>": 32018,
  "Innovative</w>": 31911,
  "Ino": 37231,
  "Inpatient</w>": 28066,
  "Input</w>": 36670,
  "Ins": 15405,
  "Ins</w>": 20960,
  "InsP3</w>": 37527,
  "Insec": 39270,
  "Inser": 37660,
  "Insertion</w>": 30307,
  "Insig": 48392,
  "Insight</w>": 35047,
  "Insights</w>": 22395,
  "Insp": 33469,
  "Inspec": 47108,
  "Inspection</w>": 37665,
  "Instead</w>": 6949,
  "Institu": 22970,
  "Institut</w>": 35149,
  "Institute</w>": 2991,
  "Institutes</w>": 7873,
  "Institutional</w>": 8174,
  "Instrum": 36826,
  "Instrument</w>": 25623,
  "Instruments</w>": 11925,
  "Insul": 45825,
  "Insulin</w>": 7520,
  "Insurance</w>": 20681,
  "Int": 38888,
  "Int</w>": 22648,
  "Intact</w>": 31472,
  "Intake</w>": 35700,
  "Inte": 31129,
  "Integr": 21103,
  "Integrated</w>": 13074,
  "Integrating</w>": 30379,
  "Integration</w>": 20466,
  "Integrative</w>": 34671,
  "Integrin</w>": 28412,
  "Intell": 33971,
  "Intelligence</w>": 33728,
  "Inten": 30711,
  "Intensity</w>": 26066,
  "Intensive</w>": 15576,
  "Inter": 4737,
  "Inter</w>": 22882,
  "Interaction</w>": 9464,
  "Interactions</w>": 12303,
  "Interactive</w>": 42828,
  "Interest</w>": 28137,
  "Interestingly</w>": 1153,
  "Interface</w>": 38362,
  "Interfe": 45858,
  "Interference</w>": 31418,
  "Interferon</w>": 18094,
  "Interleukin</w>": 12042,
  "Intermediate</w>": 30748,
  "Intermittent</w>": 32278,
  "Intern": 26256,
  "Internal</w>": 12872,
  "International</w>": 3569,
  "Internet</w>": 9673,
  "Intero": 40496,
  "Interpre": 44370,
  "Interpretation</w>": 29861,
  "Interstitial</w>": 32482,
  "Interval</w>": 37711,
  "Intervention</w>": 14256,
  "Interventional</w>": 38166,
  "Interventions</w>": 16144,
  "Interview</w>": 12753,
  "Interviews</w>": 27599,
  "Intes": 47538,
  "Intestinal</w>": 14579,
  "Intr": 12404,
  "Intra": 11407,
  "Intra</w>": 15784,
  "Intrac": 15642,
  "Intracellular</w>": 11279,
  "Intracranial</w>": 24461,
  "Intral": 37521,
  "Intram": 20754,
  "Intran": 37011,
  "Intraocular</w>": 38394,
  "Intraoperative</w>": 16634,
  "Intraperitoneal</w>": 33325,
  "Intrathecal</w>": 43600,
  "Intrav": 29780,
  "Intraven": 49056,
  "Intravenous</w>": 13685,
  "Intrigu": 48768,
  "Intriguingly</w>": 11161,
  "Intrinsic</w>": 30931,
  "Intro": 30360,
  "Introducing</w>": 42256,
  "Introduction</w>": 7826,
  "Inv": 26993,
  "Invasion</w>": 33317,
  "Invasive</w>": 19709,
  "Inventory</w>": 9227,
  "Investig": 24977,
  "Investigating</w>": 28979,
  "Investigation</w>": 10326,
  "Investigations</w>": 19572,
  "Investigators</w>": 36289,
  "Invit": 48428,
  "Invitrogen</w>": 1917,
  "Inviv": 39592,
  "Invol": 33554,
  "Involvement</w>": 16739,
  "Iodine</w>": 38514,
  "Ion": 21143,
  "Ion</w>": 13731,
  "Ionic</w>": 37986,
  "Iowa</w>": 19861,
  "Ip": 28255,
  "Ipa": 35195,
  "Ipswich</w>": 43959,
  "Ir": 9431,
  "Ir</w>": 18957,
  "Ira": 44530,
  "Iran": 47801,
  "Iran</w>": 10572,
  "Iranian</w>": 17051,
  "Iraq</w>": 38355,
  "Ireland</w>": 15956,
  "Irish</w>": 27699,
  "Iron</w>": 12723,
  "Irradiation</w>": 31979,
  "Irrespective</w>": 35046,
  "Irvine</w>": 35240,
  "Is": 7849,
  "Is</w>": 3098,
  "Isc": 36606,
  "Isc</w>": 41555,
  "Ischem": 51685,
  "Ischemia</w>": 29455,
  "Ischemic</w>": 21398,
  "Ish": 34450,
  "Ishik": 50585,
  "Ishikawa</w>": 36312,
  "Isl": 24973,
  "Island</w>": 11110,
  "Islands</w>": 24632,
  "Islet</w>": 41546,
  "Iso": 11106,
  "Iso</w>": 38594,
  "Isol": 40958,
  "Isolated</w>": 10481,
  "Isolates</w>": 27219,
  "Isolation</w>": 8414,
  "Isot": 46740,
  "Isotope</w>": 43562,
  "Isra": 48646,
  "Israel</w>": 13633,
  "Israeli</w>": 27133,
  "Issu": 50621,
  "Issue</w>": 24346,
  "Issues</w>": 28233,
  "It": 36878,
  "It</w>": 218,
  "Ital": 44800,
  "Italian</w>": 8551,
  "Italy</w>": 6747,
  "Itch</w>": 41071,
  "Item</w>": 36226,
  "Items</w>": 37503,
  "Itk</w>": 43614,
  "Ito</w>": 28881,
  "Its</w>": 3961,
  "Iv": 29721,
  "Ix": 38917,
  "Ixodes</w>": 35504,
  "Iz": 39887,
  "Iα</w>": 37109,
  "IκB": 39332,
  "IκB</w>": 14390,
  "IκBα</w>": 10832,
  "J": 861,
  "J.": 10789,
  "J.</w>": 2886,
  "J0</w>": 34836,
  "J1</w>": 11362,
  "J2</w>": 14116,
  "J3</w>": 36139,
  "J4</w>": 33228,
  "J5</w>": 30579,
  "J6</w>": 35167,
  "J7</w>": 22524,
  "J</w>": 1008,
  "JA": 27068,
  "JA</w>": 11691,
  "JAK": 40591,
  "JAK1</w>": 23131,
  "JAK2</w>": 7679,
  "JAK2V6</w>": 34308,
  "JAK3</w>": 32209,
  "JAK</w>": 10342,
  "JAM</w>": 34004,
  "JAZ": 43936,
  "JB</w>": 40697,
  "JC</w>": 13085,
  "JCV</w>": 29831,
  "JD</w>": 35024,
  "JE</w>": 27085,
  "JEOL</w>": 41752,
  "JEV</w>": 22532,
  "JFH1</w>": 39161,
  "JH</w>": 19469,
  "JI</w>": 42061,
  "JIA</w>": 25673,
  "JK</w>": 42406,
  "JL</w>": 35034,
  "JM</w>": 21390,
  "JMJ": 31030,
  "JMJD": 35051,
  "JN": 44414,
  "JNK": 24608,
  "JNK1</w>": 17277,
  "JNK2</w>": 38963,
  "JNK</w>": 3477,
  "JO": 42478,
  "JP</w>": 24738,
  "JQ1</w>": 21987,
  "JR</w>": 27400,
  "JS</w>": 28042,
  "JU": 25618,
  "JUN</w>": 31995,
  "JV</w>": 32248,
  "Ja": 23707,
  "Jac": 18772,
  "Jack": 46180,
  "Jackson</w>": 8060,
  "Jagg": 41628,
  "Jak": 24384,
  "Jak2</w>": 23901,
  "Jak</w>": 33703,
  "Jakob</w>": 33665,
  "Jam": 26947,
  "James</w>": 25345,
  "Jan": 17799,
  "Jan</w>": 35660,
  "Jane": 49657,
  "Janeiro</w>": 36946,
  "January</w>": 2887,
  "Janus</w>": 20801,
  "Jap": 47030,
  "Japan</w>": 3012,
  "Japanese</w>": 3672,
  "Jar": 32794,
  "Jas": 30894,
  "Java</w>": 43194,
  "Je": 18069,
  "Jeff": 36297,
  "Jen": 30567,
  "Jena</w>": 37739,
  "Jensen</w>": 35048,
  "Jer": 36612,
  "Jersey</w>": 26273,
  "Jew": 50009,
  "Jewish</w>": 23999,
  "Ji": 27029,
  "Jiang": 46788,
  "Jiang</w>": 22706,
  "Jiangsu</w>": 37790,
  "Jin</w>": 28489,
  "Jmj": 32033,
  "Jo": 13777,
  "Jo</w>": 46151,
  "Job</w>": 37747,
  "Joh": 39019,
  "John": 36025,
  "John</w>": 13800,
  "Johns</w>": 29674,
  "Johnson</w>": 13771,
  "Joint</w>": 13411,
  "Jol": 47563,
  "Jolla</w>": 14994,
  "Jones</w>": 14777,
  "Jord": 45469,
  "Jordan</w>": 31002,
  "Jos": 27997,
  "Jose</w>": 15772,
  "Joseph</w>": 35572,
  "Jour": 44932,
  "Journal</w>": 12639,
  "Jr</w>": 40785,
  "Js</w>": 17654,
  "Ju": 24907,
  "July</w>": 5604,
  "Jun": 22340,
  "Jun</w>": 6281,
  "JunB</w>": 43881,
  "June</w>": 4891,
  "Jung</w>": 39464,
  "Jur": 44850,
  "Jurkat</w>": 8741,
  "Jus": 39681,
  "Just</w>": 26609,
  "Juven": 49611,
  "Juvenile</w>": 27752,
  "K": 414,
  "K.": 19747,
  "K.</w>": 4718,
  "K0</w>": 22649,
  "K1</w>": 1682,
  "K2": 20611,
  "K2</w>": 2586,
  "K3</w>": 4636,
  "K4</w>": 5228,
  "K5</w>": 4452,
  "K6</w>": 6870,
  "K7</w>": 11518,
  "K8</w>": 11198,
  "K9</w>": 15690,
  "K</w>": 478,
  "KA</w>": 9054,
  "KAP1</w>": 34668,
  "KAP</w>": 36186,
  "KAT": 37949,
  "KATP</w>": 17517,
  "KB</w>": 11924,
  "KBr</w>": 43022,
  "KC</w>": 12715,
  "KCC2</w>": 29736,
  "KCN": 11538,
  "KCNE1</w>": 41456,
  "KCNQ1</w>": 24897,
  "KCNQ2</w>": 40757,
  "KCa": 40231,
  "KCl</w>": 4348,
  "KD</w>": 4082,
  "KDEL</w>": 41112,
  "KDM": 12533,
  "KDR</w>": 29275,
  "KE": 24094,
  "KE</w>": 22642,
  "KEAP1</w>": 34022,
  "KEGG</w>": 15669,
  "KEN</w>": 43445,
  "KEY": 47024,
  "KEY</w>": 16938,
  "KEYWORDS</w>": 43417,
  "KF": 32779,
  "KF</w>": 30625,
  "KG": 12585,
  "KG</w>": 15845,
  "KGF</w>": 41987,
  "KH2PO4</w>": 23767,
  "KH</w>": 26571,
  "KI": 10371,
  "KI</w>": 8690,
  "KIF": 14865,
  "KIF1</w>": 37663,
  "KIR": 23910,
  "KIR</w>": 25808,
  "KIT</w>": 9419,
  "KK": 18448,
  "KK</w>": 21907,
  "KL": 6711,
  "KL</w>": 12685,
  "KLF1</w>": 27525,
  "KLF4</w>": 17793,
  "KLF5</w>": 37430,
  "KLF</w>": 35591,
  "KLH</w>": 31192,
  "KM</w>": 12419,
  "KMT": 31920,
  "KN</w>": 33232,
  "KNO": 40487,
  "KO": 21625,
  "KO</w>": 2127,
  "KOH</w>": 16102,
  "KOR</w>": 38430,
  "KP</w>": 18998,
  "KPC</w>": 26932,
  "KR": 23813,
  "KR</w>": 15342,
  "KRAB</w>": 42119,
  "KRAS</w>": 4601,
  "KS</w>": 8516,
  "KSHV</w>": 11294,
  "KT</w>": 15814,
  "KU</w>": 39368,
  "KV</w>": 35275,
  "KY": 21522,
  "KY</w>": 35300,
  "Ka": 11473,
  "Ka</w>": 23875,
  "Kab": 40891,
  "Kai": 29530,
  "Kaiser</w>": 40256,
  "Kal": 15456,
  "Kam": 26453,
  "Kan": 17769,
  "Kan</w>": 37168,
  "Kang</w>": 31177,
  "Kansas</w>": 42574,
  "Kap": 26565,
  "Kaplan</w>": 6894,
  "Kapos": 50416,
  "Kaposi</w>": 17701,
  "Kappa</w>": 27241,
  "Kar": 10187,
  "Karno": 51553,
  "Karnofsky</w>": 40658,
  "Kary": 39606,
  "Kas": 23933,
  "Kat": 17064,
  "Kato</w>": 40812,
  "Kau": 40449,
  "Kaw": 43055,
  "Kawasaki</w>": 26131,
  "Kaz": 27709,
  "Kb</w>": 24528,
  "Kc": 41484,
  "Kd</w>": 6610,
  "Ke": 10190,
  "Keap1</w>": 16655,
  "Kel": 21756,
  "Kelly</w>": 38980,
  "Ken": 20891,
  "Kenne": 48146,
  "Kennedy</w>": 37683,
  "Kent": 50530,
  "Kentucky</w>": 40612,
  "Kenya</w>": 17197,
  "Ker": 11328,
  "Ket": 19577,
  "Ketamine</w>": 43469,
  "Key": 43593,
  "Key</w>": 10399,
  "Keywords</w>": 3415,
  "Kg</w>": 29391,
  "Kh": 26882,
  "Ki": 14949,
  "Ki6</w>": 11424,
  "Ki</w>": 5060,
  "Kidne": 46428,
  "Kidney</w>": 12299,
  "Kif": 28262,
  "Kil": 30562,
  "Kim": 36256,
  "Kim</w>": 9389,
  "Kimura</w>": 40183,
  "Kin": 10912,
  "Kinase</w>": 12749,
  "Kind": 43313,
  "Kine": 45485,
  "Kinesin</w>": 42711,
  "Kinetic</w>": 12535,
  "Kinetics</w>": 21129,
  "King</w>": 18658,
  "Kingdom</w>": 9623,
  "Kip": 42976,
  "Kip1</w>": 19168,
  "Kir": 13049,
  "Kir2</w>": 33004,
  "Kir6</w>": 23024,
  "Kirsch": 43582,
  "Kis": 31475,
  "Kit": 22834,
  "Kit</w>": 3404,
  "Kl": 16851,
  "Kle": 28238,
  "Kleb": 49588,
  "Klebsiella</w>": 12747,
  "Klein</w>": 35780,
  "Klen": 48848,
  "Klenow</w>": 35253,
  "Klf4</w>": 35079,
  "Klin": 41107,
  "Klotho</w>": 26628,
  "Km</w>": 5766,
  "Kn": 15734,
  "Kne": 47863,
  "Knee</w>": 18424,
  "Kno": 40008,
  "Knock": 48775,
  "Knock</w>": 44308,
  "Knockdown</w>": 11984,
  "Knockout</w>": 37255,
  "Knowing</w>": 42090,
  "Knowledge</w>": 9268,
  "Known</w>": 35672,
  "Ko": 9725,
  "Kob": 34506,
  "Koch</w>": 33791,
  "Kod": 47880,
  "Kodak</w>": 27979,
  "Kol": 25005,
  "Kolmog": 51353,
  "Kolmogorov</w>": 40280,
  "Kom": 34435,
  "Kon": 25860,
  "Kong</w>": 12650,
  "Kor": 23746,
  "Kore": 43877,
  "Korea</w>": 7615,
  "Korean</w>": 8195,
  "Kos": 25727,
  "Koz": 34879,
  "KpnI</w>": 19017,
  "Kr": 15759,
  "Kr</w>": 37983,
  "Kra": 24902,
  "Kras</w>": 14556,
  "Kre": 30816,
  "Krebs</w>": 19210,
  "Kri": 27572,
  "Kro": 34903,
  "Krusk": 49022,
  "Kruskal</w>": 18078,
  "Ks</w>": 7575,
  "Kt</w>": 41520,
  "Ku": 12157,
  "Ku7</w>": 22292,
  "Ku8</w>": 27109,
  "Ku</w>": 17954,
  "Kum": 35247,
  "Kumar</w>": 32526,
  "Kun": 21837,
  "Kup": 47165,
  "Kupffer</w>": 20557,
  "Kur": 23806,
  "Kv": 36941,
  "Kv1</w>": 13255,
  "Kv2</w>": 30607,
  "Kv3</w>": 43566,
  "Kv4</w>": 27352,
  "Kv7</w>": 31962,
  "Kv</w>": 30107,
  "Ky": 32930,
  "Kyo": 49162,
  "Kyoto</w>": 16227,
  "L": 338,
  "L-</w>": 18082,
  "L.": 14413,
  "L.</w>": 1647,
  "L0</w>": 24548,
  "L1": 23335,
  "L1</w>": 1271,
  "L2</w>": 2771,
  "L3": 34259,
  "L3</w>": 4588,
  "L4</w>": 5688,
  "L5</w>": 7677,
  "L6</w>": 11454,
  "L7</w>": 14162,
  "L8</w>": 13810,
  "L9</w>": 13405,
  "L</w>": 259,
  "LA": 10991,
  "LA</w>": 4153,
  "LAA</w>": 32842,
  "LAB": 38935,
  "LAB</w>": 26500,
  "LAC</w>": 31615,
  "LAD</w>": 17139,
  "LAG</w>": 43925,
  "LAI</w>": 34999,
  "LAK</w>": 29473,
  "LAM": 15983,
  "LAM</w>": 19797,
  "LAMP1</w>": 30069,
  "LAMP</w>": 17728,
  "LAN": 35556,
  "LANA</w>": 23022,
  "LAP": 35436,
  "LAP</w>": 19972,
  "LAR": 27334,
  "LAR</w>": 24836,
  "LAS": 22825,
  "LAS</w>": 20503,
  "LASIK</w>": 25931,
  "LAT": 20608,
  "LAT</w>": 18460,
  "LATION</w>": 40937,
  "LATS1</w>": 39389,
  "LB": 18938,
  "LB</w>": 5860,
  "LBD</w>": 12517,
  "LBP</w>": 13790,
  "LBW</w>": 30612,
  "LC": 10747,
  "LC1</w>": 42663,
  "LC3</w>": 5339,
  "LC3B</w>": 17508,
  "LC5</w>": 27663,
  "LC</w>": 2312,
  "LCA</w>": 19342,
  "LCAT</w>": 37146,
  "LCH</w>": 33747,
  "LCL</w>": 32715,
  "LCLs</w>": 29135,
  "LCM</w>": 35343,
  "LCMV</w>": 23236,
  "LCN": 35582,
  "LCR</w>": 30978,
  "LCV</w>": 40646,
  "LCs</w>": 25056,
  "LD": 5170,
  "LD5</w>": 18047,
  "LD</w>": 4926,
  "LDA</w>": 27051,
  "LDH</w>": 6948,
  "LDHA</w>": 41885,
  "LDI</w>": 43718,
  "LDL</w>": 3107,
  "LDLR</w>": 15241,
  "LDLT</w>": 39661,
  "LDS</w>": 37874,
  "LDs</w>": 19977,
  "LE": 4728,
  "LE</w>": 6939,
  "LEC</w>": 31515,
  "LECs</w>": 36268,
  "LED</w>": 15963,
  "LEDGF</w>": 34412,
  "LEDs</w>": 29739,
  "LEF1</w>": 41656,
  "LEF</w>": 22843,
  "LEP</w>": 35650,
  "LES</w>": 24246,
  "LET</w>": 23060,
  "LEU2</w>": 29690,
  "LEV</w>": 41745,
  "LEVEL</w>": 15278,
  "LF": 18037,
  "LF1</w>": 27583,
  "LF</w>": 7416,
  "LFA</w>": 16672,
  "LFS</w>": 34345,
  "LG": 12615,
  "LG</w>": 14933,
  "LGE</w>": 38414,
  "LGG</w>": 35381,
  "LGN</w>": 32146,
  "LH": 22219,
  "LH</w>": 4166,
  "LHC": 29328,
  "LHON</w>": 43903,
  "LHR</w>": 32690,
  "LHRH</w>": 19281,
  "LI": 3667,
  "LI</w>": 7590,
  "LIC</w>": 19683,
  "LID</w>": 34464,
  "LIF": 33824,
  "LIF</w>": 12393,
  "LIG": 46071,
  "LIGHT</w>": 40411,
  "LIL": 44120,
  "LIM</w>": 20271,
  "LIMI": 47955,
  "LIMITATIONS</w>": 18754,
  "LIMK1</w>": 43046,
  "LIN": 16591,
  "LIN2</w>": 37445,
  "LIN</w>": 19924,
  "LINC0</w>": 29000,
  "LINE</w>": 25713,
  "LIP</w>": 22279,
  "LIR</w>": 42618,
  "LIS</w>": 40373,
  "LK": 24385,
  "LK</w>": 23088,
  "LKB1</w>": 12424,
  "LL": 8322,
  "LL</w>": 8349,
  "LLA</w>": 36044,
  "LLC</w>": 14209,
  "LLO</w>": 36080,
  "LM": 8905,
  "LM</w>": 8564,
  "LMA</w>": 33364,
  "LMB</w>": 30356,
  "LMNA</w>": 30015,
  "LMP": 33600,
  "LMP1</w>": 18328,
  "LMP</w>": 25811,
  "LMS</w>": 37057,
  "LMW</w>": 26104,
  "LMWH</w>": 26707,
  "LN": 13198,
  "LN2</w>": 40744,
  "LN</w>": 7785,
  "LNA</w>": 27557,
  "LNCaP</w>": 9009,
  "LNG</w>": 44239,
  "LNs</w>": 24047,
  "LO": 5141,
  "LO</w>": 14595,
  "LOAD</w>": 38679,
  "LOC</w>": 35170,
  "LOD</w>": 15707,
  "LOF</w>": 37428,
  "LOGICAL</w>": 31011,
  "LOGY</w>": 26201,
  "LOH</w>": 12185,
  "LOQ</w>": 32795,
  "LOS</w>": 12034,
  "LOV</w>": 43107,
  "LOX": 40354,
  "LOX</w>": 12453,
  "LP": 26487,
  "LP1</w>": 26220,
  "LP2</w>": 44267,
  "LP</w>": 6359,
  "LPA</w>": 11808,
  "LPC</w>": 25626,
  "LPD</w>": 41029,
  "LPL</w>": 15279,
  "LPO</w>": 27526,
  "LPP</w>": 31883,
  "LPS</w>": 1867,
  "LPV</w>": 43189,
  "LQ": 22806,
  "LQTS</w>": 27592,
  "LR": 11163,
  "LR</w>": 7318,
  "LRH</w>": 37200,
  "LRP": 33057,
  "LRP1</w>": 22318,
  "LRP5</w>": 34038,
  "LRP6</w>": 25268,
  "LRP</w>": 19948,
  "LRR": 27506,
  "LRR</w>": 16395,
  "LRRK2</w>": 9409,
  "LS": 12468,
  "LS1</w>": 36813,
  "LS</w>": 5465,
  "LSC</w>": 27991,
  "LSCs</w>": 26655,
  "LSD1</w>": 16713,
  "LSD</w>": 26341,
  "LSG</w>": 43511,
  "LSK</w>": 36314,
  "LSL</w>": 30040,
  "LSM": 27749,
  "LSM</w>": 16773,
  "LSR</w>": 37121,
  "LSS</w>": 43387,
  "LT": 5171,
  "LT</w>": 5463,
  "LTA</w>": 25161,
  "LTB": 45950,
  "LTB4</w>": 23582,
  "LTBI</w>": 42327,
  "LTC": 47381,
  "LTC4</w>": 37971,
  "LTC</w>": 31161,
  "LTD</w>": 14961,
  "LTF</w>": 39991,
  "LTP</w>": 7995,
  "LTQ</w>": 30422,
  "LTR</w>": 9663,
  "LTs</w>": 41663,
  "LU": 10634,
  "LU</w>": 43163,
  "LUAD</w>": 38986,
  "LUC</w>": 22041,
  "LUMO</w>": 37404,
  "LUTS</w>": 30866,
  "LV": 6399,
  "LV</w>": 3655,
  "LVAD</w>": 26871,
  "LVE": 24173,
  "LVEF</w>": 14810,
  "LVH</w>": 21586,
  "LW</w>": 34210,
  "LX": 20965,
  "LXR</w>": 20303,
  "LXRα</w>": 36112,
  "LXX": 42982,
  "LY": 9529,
  "LY2</w>": 5798,
  "LY3</w>": 26132,
  "LY</w>": 16052,
  "LYP</w>": 46809,
  "LZ": 35481,
  "LZ</w>": 23479,
  "La": 6115,
  "La</w>": 7206,
  "Lab": 10438,
  "Lab</w>": 13793,
  "Label</w>": 43269,
  "Labeled</w>": 30687,
  "Labeling</w>": 23647,
  "Labor": 47267,
  "Laboratories</w>": 5127,
  "Laboratory</w>": 4961,
  "Labs</w>": 24043,
  "Lac": 12187,
  "Lac</w>": 30968,
  "LacI</w>": 44277,
  "LacZ</w>": 13853,
  "Lack</w>": 12996,
  "Lact": 29777,
  "Lactate</w>": 29553,
  "Lactob": 46932,
  "Lactobacillus</w>": 10867,
  "Lactococcus</w>": 34837,
  "Laemmli</w>": 16824,
  "Laf": 39004,
  "Lag": 19775,
  "Lai</w>": 43563,
  "Lake</w>": 12572,
  "Lakes</w>": 26617,
  "Lam": 12478,
  "Lamb": 22417,
  "Lamin": 27936,
  "Lamin</w>": 38323,
  "Lamp": 41439,
  "Lan": 22182,
  "Lanc": 42614,
  "Land": 22209,
  "Landau</w>": 43712,
  "Lane</w>": 39841,
  "Lang": 22059,
  "Lange</w>": 43882,
  "Langen": 38209,
  "Langerhans</w>": 16822,
  "Langmuir</w>": 19950,
  "Langu": 49563,
  "Language</w>": 24612,
  "Lank": 47048,
  "Lanka</w>": 35856,
  "Lap": 25201,
  "Laparo": 33629,
  "Laparoscopic</w>": 12186,
  "Lar": 14650,
  "Larg": 46689,
  "Large</w>": 7647,
  "Larger</w>": 22142,
  "Larvae</w>": 41161,
  "Laryngeal</w>": 43793,
  "Las": 20040,
  "Laser</w>": 12629,
  "Last</w>": 24960,
  "Lastly</w>": 12269,
  "Lat": 18788,
  "Late</w>": 11478,
  "Latent</w>": 32711,
  "Later</w>": 16200,
  "Lateral</w>": 21095,
  "Lati": 47593,
  "Latin": 39982,
  "Latin</w>": 14851,
  "Latino</w>": 22036,
  "Latinos</w>": 40195,
  "Lau": 30244,
  "Law": 37441,
  "Law</w>": 26039,
  "Lawrence</w>": 34780,
  "Layer</w>": 36204,
  "Laz": 40357,
  "Lb": 28613,
  "Lc": 36766,
  "Lc</w>": 44006,
  "Lck</w>": 18451,
  "Ld": 27088,
  "Le": 3327,
  "Le</w>": 15688,
  "Lead": 33733,
  "Lead</w>": 22132,
  "Leaf</w>": 29883,
  "League</w>": 44309,
  "Lean</w>": 41067,
  "Lear": 44555,
  "Learning</w>": 13092,
  "Lec": 19471,
  "Lee</w>": 7980,
  "Left</w>": 9976,
  "Leg": 21816,
  "Legal</w>": 38668,
  "Legend</w>": 50039,
  "Legi": 44765,
  "Legionella</w>": 19587,
  "Leh": 42797,
  "Lei": 25697,
  "Leica</w>": 8942,
  "Leiden</w>": 25008,
  "Leishman": 45645,
  "Leishmania</w>": 9815,
  "Lem": 21338,
  "Len": 18675,
  "Length</w>": 25776,
  "Lens</w>": 38404,
  "Lenti": 27865,
  "Lentiviral</w>": 31927,
  "Leon": 40842,
  "Lep": 15876,
  "Lepid": 47658,
  "Lepidoptera</w>": 32312,
  "Leptin</w>": 21643,
  "Leptos": 46142,
  "Leptospira</w>": 32890,
  "Les": 28459,
  "Lesion</w>": 36665,
  "Lesions</w>": 20023,
  "Less": 46034,
  "Less</w>": 14530,
  "Lessons</w>": 30487,
  "Let": 33397,
  "Let</w>": 31665,
  "Leth": 38690,
  "Lett</w>": 37352,
  "Letter</w>": 11891,
  "Leu": 10926,
  "Leu1</w>": 24162,
  "Leu2</w>": 35160,
  "Leu3</w>": 41479,
  "Leu</w>": 5118,
  "Leuc": 31880,
  "Leucine</w>": 41079,
  "Leuk": 19735,
  "Leukemia</w>": 21937,
  "Leukocyte</w>": 35595,
  "Lev": 12613,
  "Level</w>": 9906,
  "Levels</w>": 8108,
  "Levine</w>": 42606,
  "Lew": 45433,
  "Lewis</w>": 9313,
  "Lewy</w>": 16549,
  "Lex": 37392,
  "LexA</w>": 23569,
  "Ley": 48104,
  "Leydig</w>": 15482,
  "Lf</w>": 42155,
  "Lgr": 48013,
  "Lgr5</w>": 42002,
  "Lh": 22803,
  "Li": 4403,
  "Li</w>": 4156,
  "LiCl</w>": 18722,
  "Liang</w>": 37491,
  "Liber": 37724,
  "Libr": 48579,
  "Libraries</w>": 40892,
  "Library</w>": 10826,
  "Lic": 28007,
  "Lich": 31925,
  "Lid": 34066,
  "Lif": 24893,
  "Life": 32553,
  "Life</w>": 3020,
  "Lifestyle</w>": 34655,
  "Lifetime</w>": 43752,
  "Lig": 12545,
  "Ligand</w>": 17843,
  "Ligands</w>": 43564,
  "Ligation</w>": 38824,
  "Light": 31357,
  "Light</w>": 8372,
  "LightCycler</w>": 30409,
  "Lik": 35256,
  "Like</w>": 7229,
  "Likert</w>": 26720,
  "Likewise</w>": 7376,
  "Lil": 29512,
  "Lim": 11336,
  "Lim</w>": 36746,
  "Limb</w>": 35924,
  "Limitations</w>": 26030,
  "Limited</w>": 15255,
  "Lin": 9014,
  "Lin2</w>": 37368,
  "Lin</w>": 11804,
  "Linc": 47377,
  "Lincol": 50753,
  "Lincoln</w>": 40791,
  "Lind": 26117,
  "Linda": 49067,
  "Lindau</w>": 33425,
  "Line": 25338,
  "Line</w>": 20369,
  "Linear</w>": 11770,
  "Lines</w>": 38776,
  "Link</w>": 23604,
  "Linkage</w>": 25550,
  "Linked</w>": 41501,
  "Lip": 11344,
  "Lipid</w>": 10959,
  "Lipids</w>": 26512,
  "Lipo": 25889,
  "Lipof": 38823,
  "Lipofectamine</w>": 8360,
  "Lipopolysaccharide</w>": 39064,
  "Lipoprotein</w>": 36907,
  "Lipos": 35404,
  "Liposomes</w>": 42673,
  "Liquid</w>": 16286,
  "Lis": 16056,
  "List</w>": 28076,
  "Listeria</w>": 12346,
  "Lit": 21346,
  "Liter": 45957,
  "Literature</w>": 14538,
  "Lith": 27721,
  "Lithium</w>": 26351,
  "Little</w>": 8683,
  "Liu</w>": 8500,
  "Live</w>": 18648,
  "Liver</w>": 6880,
  "Living</w>": 16837,
  "Lm": 18978,
  "Ln": 29672,
  "Ln</w>": 23361,
  "Lo": 7154,
  "Lo</w>": 36358,
  "LoVo</w>": 36514,
  "Load</w>": 36426,
  "Lob": 35370,
  "Loc": 13197,
  "Local</w>": 8678,
  "Localization</w>": 16421,
  "Localized</w>": 32979,
  "Location</w>": 40562,
  "Log": 17756,
  "Log</w>": 23085,
  "Logan</w>": 35816,
  "Logistic</w>": 11506,
  "Lom": 36330,
  "Lon": 32913,
  "Lon</w>": 36733,
  "London</w>": 11436,
  "Long": 23247,
  "Long</w>": 3811,
  "Longer</w>": 28307,
  "Longitudinal</w>": 11515,
  "Lonza</w>": 20187,
  "Looking</w>": 36959,
  "Loop</w>": 29468,
  "Lope": 52304,
  "Lopez</w>": 42850,
  "Lor": 38576,
  "Loren": 40395,
  "Los": 33370,
  "Los</w>": 20056,
  "Loss</w>": 6904,
  "Lou": 37106,
  "Louis</w>": 6339,
  "Louisiana</w>": 41719,
  "Low": 16053,
  "Low</w>": 4065,
  "Lower</w>": 9934,
  "Lox": 45344,
  "LoxP</w>": 41795,
  "Lp": 23727,
  "Lp</w>": 13546,
  "Lr": 20879,
  "Ls</w>": 6895,
  "Lt": 28679,
  "Ltd</w>": 9677,
  "Lu": 11585,
  "Lu</w>": 12387,
  "Luc": 13851,
  "Luc</w>": 8650,
  "Luciferase</w>": 11654,
  "Lud": 35092,
  "Luk": 37262,
  "Lum": 23616,
  "Lumbar</w>": 28866,
  "Luminal</w>": 36020,
  "Luminescence</w>": 42575,
  "Luminex</w>": 40097,
  "Lun": 29445,
  "Lung</w>": 6827,
  "Luo</w>": 30284,
  "Lup": 44504,
  "Lupus</w>": 32761,
  "Luria</w>": 24504,
  "Lute": 42311,
  "Lux": 38568,
  "Ly": 6594,
  "Ly6C</w>": 42351,
  "Ly</w>": 28515,
  "Lym": 28891,
  "Lyme</w>": 19326,
  "Lymph": 13473,
  "Lymph</w>": 26782,
  "Lymphocyte</w>": 29798,
  "Lymphocytes</w>": 37371,
  "Lymphoma</w>": 26670,
  "Lyn": 45426,
  "Lyn</w>": 18243,
  "Lynch</w>": 22605,
  "Lys": 9685,
  "Lys1</w>": 19789,
  "Lys2</w>": 26507,
  "Lys3</w>": 30948,
  "Lys4</w>": 32770,
  "Lys6</w>": 37835,
  "Lys</w>": 4317,
  "LysM</w>": 44298,
  "Lysates</w>": 16914,
  "Lysine</w>": 31316,
  "Lysis</w>": 29499,
  "Lyso": 22045,
  "Lyt</w>": 36152,
  "M": 365,
  "M-</w>": 33809,
  "M.": 8632,
  "M.</w>": 1614,
  "M.D.</w>": 32441,
  "M0</w>": 11835,
  "M1": 42071,
  "M1</w>": 1671,
  "M2": 29685,
  "M2</w>": 2379,
  "M3</w>": 5794,
  "M4</w>": 6844,
  "M5</w>": 10275,
  "M6</w>": 10931,
  "M7</w>": 14666,
  "M8</w>": 16013,
  "M9</w>": 13379,
  "M</w>": 343,
  "MA": 5084,
  "MA1</w>": 27628,
  "MA</w>": 1800,
  "MAA</w>": 32530,
  "MAB</w>": 36758,
  "MAC": 14549,
  "MAC</w>": 11617,
  "MACE</w>": 22819,
  "MACS</w>": 22453,
  "MAD": 17941,
  "MAD2</w>": 44074,
  "MAD</w>": 29017,
  "MADS</w>": 40111,
  "MAE</w>": 29727,
  "MAF</w>": 16978,
  "MAG": 14749,
  "MAG</w>": 27682,
  "MAGE</w>": 21570,
  "MAIN</w>": 4999,
  "MAL": 20489,
  "MAL</w>": 21545,
  "MALAT1</w>": 31180,
  "MALDI</w>": 9082,
  "MALT1</w>": 36077,
  "MALT</w>": 29519,
  "MAM</w>": 30336,
  "MAN": 22374,
  "MAN</w>": 35323,
  "MAO</w>": 11653,
  "MAP": 7297,
  "MAP2</w>": 20567,
  "MAP3": 35810,
  "MAP</w>": 4486,
  "MAPK": 42491,
  "MAPK1</w>": 34848,
  "MAPK</w>": 2187,
  "MAPKs</w>": 14189,
  "MAPT</w>": 30113,
  "MAPs</w>": 37384,
  "MAR": 11442,
  "MAR</w>": 27226,
  "MARCKS</w>": 33404,
  "MAS</w>": 15856,
  "MAT": 10581,
  "MAT</w>": 19938,
  "MATERI": 51163,
  "MATERIAL</w>": 6500,
  "MATERIALS</w>": 2828,
  "MATION</w>": 48963,
  "MATL": 51234,
  "MATLAB</w>": 33438,
  "MATa</w>": 32150,
  "MATα</w>": 43480,
  "MAVS</w>": 17351,
  "MAX</w>": 20098,
  "MAb</w>": 8902,
  "MAbs</w>": 11773,
  "MB": 5574,
  "MB2</w>": 31461,
  "MB</w>": 2734,
  "MBC</w>": 19581,
  "MBD": 40094,
  "MBD</w>": 26085,
  "MBF</w>": 30702,
  "MBL</w>": 14715,
  "MBP</w>": 7046,
  "MBR</w>": 41419,
  "MBS</w>": 39901,
  "MBT</w>": 35181,
  "MBq</w>": 25777,
  "MBs</w>": 36537,
  "MC": 4154,
  "MC1</w>": 26142,
  "MC1R</w>": 33411,
  "MC2</w>": 43223,
  "MC3</w>": 37722,
  "MC3T3</w>": 27001,
  "MC4R</w>": 28937,
  "MC</w>": 4019,
  "MCA": 43926,
  "MCA</w>": 12628,
  "MCAK</w>": 38305,
  "MCAO</w>": 23505,
  "MCC</w>": 13624,
  "MCD</w>": 18097,
  "MCE</w>": 38837,
  "MCF1</w>": 15057,
  "MCF7</w>": 8005,
  "MCF</w>": 3632,
  "MCH</w>": 26368,
  "MCI</w>": 10112,
  "MCL1</w>": 35543,
  "MCL</w>": 10890,
  "MCM2</w>": 35688,
  "MCM</w>": 16675,
  "MCMV</w>": 24127,
  "MCP</w>": 7354,
  "MCR</w>": 29906,
  "MCS</w>": 16894,
  "MCT": 32201,
  "MCT1</w>": 37169,
  "MCT</w>": 19477,
  "MCU</w>": 34952,
  "MCV</w>": 25732,
  "MCs</w>": 13895,
  "MD": 4299,
  "MD1</w>": 26053,
  "MD2</w>": 34017,
  "MD</w>": 2374,
  "MDA5</w>": 20607,
  "MDA</w>": 2880,
  "MDC1</w>": 32806,
  "MDC</w>": 31597,
  "MDCK</w>": 9826,
  "MDCT</w>": 20851,
  "MDD</w>": 10226,
  "MDH</w>": 34463,
  "MDI</w>": 25386,
  "MDL</w>": 38656,
  "MDM2</w>": 6879,
  "MDM</w>": 21631,
  "MDMA</w>": 22297,
  "MDMX</w>": 32914,
  "MDMs</w>": 39330,
  "MDP</w>": 19728,
  "MDR1</w>": 13865,
  "MDR</w>": 7252,
  "MDS</w>": 7572,
  "MDSC</w>": 23957,
  "MDSCs</w>": 17280,
  "MDT</w>": 39511,
  "MDV</w>": 35287,
  "MDs</w>": 29892,
  "ME": 2885,
  "ME1</w>": 28105,
  "ME2</w>": 42538,
  "ME</w>": 4287,
  "MEA": 48038,
  "MEA</w>": 27864,
  "MEASU": 50292,
  "MEASURE": 46730,
  "MEASURE</w>": 19682,
  "MEASUREMENTS</w>": 10486,
  "MEASURES</w>": 7754,
  "MEC": 28166,
  "MEC</w>": 15751,
  "MECP2</w>": 31409,
  "MECs</w>": 34111,
  "MED1</w>": 24838,
  "MED</w>": 18880,
  "MEDI": 39765,
  "MEDICAL</w>": 41720,
  "MEDL": 50353,
  "MEDLINE</w>": 9561,
  "MEF": 31079,
  "MEF2</w>": 24288,
  "MEF2C</w>": 41257,
  "MEF</w>": 11229,
  "MEFs</w>": 4819,
  "MEG</w>": 20817,
  "MEK": 28316,
  "MEK1</w>": 12051,
  "MEK</w>": 5301,
  "MEKK1</w>": 36724,
  "MEL</w>": 16770,
  "MELD</w>": 28322,
  "MEM</w>": 9212,
  "MEN": 28785,
  "MEN1</w>": 28111,
  "MEN</w>": 22716,
  "MENT</w>": 20148,
  "MENTAL</w>": 46826,
  "MENTS</w>": 44594,
  "MEP</w>": 19612,
  "MEPs</w>": 38657,
  "MER": 26482,
  "MER</w>": 32081,
  "MERS</w>": 24086,
  "MES</w>": 12227,
  "MET": 10505,
  "MET</w>": 5828,
  "METAB": 40421,
  "METH</w>": 29408,
  "METHO": 48223,
  "METHOD</w>": 3387,
  "METHODO": 49847,
  "METHODOLOGY</w>": 14906,
  "METHODS</w>": 230,
  "MEs</w>": 38066,
  "MF": 7952,
  "MF</w>": 7900,
  "MFA</w>": 38178,
  "MFC</w>": 32701,
  "MFI</w>": 21742,
  "MFS</w>": 25054,
  "MG": 9556,
  "MG1</w>": 9264,
  "MG</w>": 5130,
  "MGMT</w>": 13258,
  "MGUS</w>": 43305,
  "MH": 17068,
  "MH</w>": 10174,
  "MHC": 38925,
  "MHC</w>": 3322,
  "MHCII</w>": 37902,
  "MHV</w>": 18507,
  "MHz</w>": 5590,
  "MI": 3361,
  "MI1</w>": 34732,
  "MI</w>": 3205,
  "MIA</w>": 16870,
  "MIB</w>": 30946,
  "MIBC</w>": 40065,
  "MIBG</w>": 29590,
  "MIBI</w>": 35324,
  "MIC": 15984,
  "MIC9</w>": 42847,
  "MIC</w>": 5644,
  "MICA</w>": 28527,
  "MICAL</w>": 34656,
  "MICs</w>": 12279,
  "MID</w>": 32748,
  "MIF</w>": 13926,
  "MIG</w>": 38131,
  "MII</w>": 29916,
  "MIL</w>": 37455,
  "MIM</w>": 13709,
  "MIN": 15208,
  "MIN6</w>": 43291,
  "MIN</w>": 38865,
  "MINATION</w>": 38964,
  "MIP</w>": 10580,
  "MIR</w>": 35344,
  "MIS</w>": 18366,
  "MIT</w>": 24655,
  "MITF</w>": 18606,
  "MJ": 30383,
  "MJ</w>": 20502,
  "MK": 6172,
  "MK1</w>": 45701,
  "MK2</w>": 18760,
  "MK</w>": 7187,
  "MKK4</w>": 34805,
  "MKK7</w>": 43819,
  "MKP</w>": 21808,
  "ML": 4391,
  "ML1</w>": 36227,
  "ML4</w>": 49495,
  "ML</w>": 7331,
  "MLC</w>": 15908,
  "MLCK</w>": 25230,
  "MLD</w>": 37492,
  "MLE</w>": 36739,
  "MLH1</w>": 16728,
  "MLKL</w>": 33246,
  "MLL1</w>": 39092,
  "MLL</w>": 11242,
  "MLN4</w>": 41836,
  "MLN</w>": 41588,
  "MLP</w>": 25379,
  "MLPA</w>": 30510,
  "MLR</w>": 25677,
  "MLS</w>": 33417,
  "MLST</w>": 30114,
  "MLV</w>": 13909,
  "MM": 6590,
  "MM.</w>": 31125,
  "MM</w>": 3768,
  "MMA</w>": 22130,
  "MMC</w>": 12578,
  "MMF</w>": 21948,
  "MMN</w>": 34613,
  "MMP": 35823,
  "MMP1</w>": 21092,
  "MMP2</w>": 21665,
  "MMP9</w>": 18923,
  "MMP</w>": 2564,
  "MMPI</w>": 34490,
  "MMPs</w>": 11228,
  "MMR</w>": 8592,
  "MMS</w>": 13007,
  "MMSE</w>": 18825,
  "MMT</w>": 32369,
  "MMTV</w>": 14680,
  "MMs</w>": 32078,
  "MN": 12561,
  "MN1</w>": 43178,
  "MN</w>": 7196,
  "MNC</w>": 31777,
  "MNCs</w>": 36791,
  "MND</w>": 39682,
  "MNNG</w>": 31942,
  "MNPV</w>": 39017,
  "MNPs</w>": 35640,
  "MNV</w>": 37832,
  "MNase</w>": 40695,
  "MNs</w>": 20524,
  "MO": 3369,
  "MO1</w>": 32495,
  "MO2</w>": 44991,
  "MO</w>": 4066,
  "MOB": 38912,
  "MOD</w>": 36927,
  "MODY</w>": 42832,
  "MOE</w>": 43331,
  "MOF</w>": 15958,
  "MOFs</w>": 26815,
  "MOG</w>": 26251,
  "MOI</w>": 9382,
  "MOL</w>": 46328,
  "MOMP</w>": 36278,
  "MON": 21101,
  "MOP</w>": 32412,
  "MOPS</w>": 28820,
  "MOR": 23932,
  "MOR</w>": 17601,
  "MOS</w>": 39264,
  "MOs</w>": 22699,
  "MP": 6154,
  "MP1</w>": 18918,
  "MP2</w>": 16499,
  "MP3</w>": 30738,
  "MP</w>": 4130,
  "MPA</w>": 13455,
  "MPC</w>": 26083,
  "MPD</w>": 26967,
  "MPE</w>": 37476,
  "MPER</w>": 35004,
  "MPF</w>": 41969,
  "MPG</w>": 38501,
  "MPH</w>": 30413,
  "MPI</w>": 23508,
  "MPK": 34740,
  "MPK</w>": 40522,
  "MPL</w>": 27080,
  "MPM</w>": 22141,
  "MPN</w>": 17607,
  "MPNST</w>": 41964,
  "MPO</w>": 11732,
  "MPP</w>": 15268,
  "MPR</w>": 27674,
  "MPS</w>": 14170,
  "MPT</w>": 26756,
  "MPTP</w>": 13020,
  "MPV</w>": 18458,
  "MPa</w>": 12829,
  "MPs</w>": 12259,
  "MQ</w>": 42757,
  "MR": 4419,
  "MR1</w>": 32388,
  "MR</w>": 2266,
  "MRA</w>": 16982,
  "MRC</w>": 15199,
  "MRD</w>": 20268,
  "MRE1</w>": 27705,
  "MRE</w>": 27423,
  "MRF</w>": 43374,
  "MRI</w>": 1480,
  "MRL</w>": 24313,
  "MRM</w>": 22522,
  "MRN</w>": 24048,
  "MRP": 23356,
  "MRP1</w>": 23807,
  "MRP2</w>": 36111,
  "MRP</w>": 21951,
  "MRS</w>": 14206,
  "MRSA</w>": 7260,
  "MRT</w>": 29084,
  "MRTF</w>": 40577,
  "MRV</w>": 35775,
  "MRs</w>": 26285,
  "MS": 3594,
  "MS.</w>": 8553,
  "MS1</w>": 24380,
  "MS2</w>": 15466,
  "MS</w>": 805,
  "MSA</w>": 15218,
  "MSC</w>": 6853,
  "MSCV</w>": 43302,
  "MSCs</w>": 4863,
  "MSD</w>": 24869,
  "MSE</w>": 39352,
  "MSG</w>": 38216,
  "MSH2</w>": 16588,
  "MSH6</w>": 24635,
  "MSH</w>": 15787,
  "MSI</w>": 9359,
  "MSK1</w>": 40175,
  "MSM</w>": 13589,
  "MSN</w>": 33773,
  "MSNs</w>": 26128,
  "MSP</w>": 18881,
  "MSS</w>": 23685,
  "MSSA</w>": 39652,
  "MST1</w>": 34302,
  "MST</w>": 20929,
  "MT": 3228,
[...]
